{
  "unk_token": "<unk>",
  "merges": [
    [
      "o",
      " "
    ],
    [
      "e",
      " "
    ],
    [
      "a",
      " "
    ],
    [
      "s",
      " "
    ],
    [
      "d",
      "e "
    ],
    [
      "n",
      "t"
    ],
    [
      "m",
      " "
    ],
    [
      "o",
      "r"
    ],
    [
      ",",
      " "
    ],
    [
      "e",
      "r"
    ],
    [
      "e",
      "s"
    ],
    [
      "a",
      "r"
    ],
    [
      "a",
      "d"
    ],
    [
      "c",
      "o"
    ],
    [
      "o",
      "s "
    ],
    [
      "ã",
      "o "
    ],
    [
      "a",
      "l"
    ],
    [
      "a",
      "s "
    ],
    [
      "e",
      "nt"
    ],
    [
      "i",
      "n"
    ],
    [
      "q",
      "u"
    ],
    [
      "i",
      "c"
    ],
    [
      "p",
      "r"
    ],
    [
      "i",
      "s"
    ],
    [
      "e",
      "s "
    ],
    [
      ".",
      " "
    ],
    [
      "e",
      "m "
    ],
    [
      "ç",
      "ão "
    ],
    [
      "r",
      "e"
    ],
    [
      "c",
      "i"
    ],
    [
      "t",
      "r"
    ],
    [
      "a",
      "n"
    ],
    [
      "e",
      "m"
    ],
    [
      "e",
      "n"
    ],
    [
      "a",
      "m"
    ],
    [
      "d",
      "o "
    ],
    [
      "e",
      "l"
    ],
    [
      "t",
      "i"
    ],
    [
      "m",
      "a "
    ],
    [
      "p",
      "ar"
    ],
    [
      "co",
      "m"
    ],
    [
      "p",
      "o"
    ],
    [
      ".",
      "\n"
    ],
    [
      "i",
      "t"
    ],
    [
      "i",
      "d"
    ],
    [
      "a",
      "s"
    ],
    [
      "pr",
      "o"
    ],
    [
      "m",
      "a"
    ],
    [
      "qu",
      "e "
    ],
    [
      "é",
      " "
    ],
    [
      "d",
      "a "
    ],
    [
      "o",
      "n"
    ],
    [
      "or",
      " "
    ],
    [
      "u",
      "m "
    ],
    [
      "u",
      "ma "
    ],
    [
      "o ",
      "de "
    ],
    [
      "a",
      "ção "
    ],
    [
      "i",
      "m"
    ],
    [
      "o",
      "u"
    ],
    [
      "co",
      "n"
    ],
    [
      "ar",
      " "
    ],
    [
      "i",
      "s "
    ],
    [
      "e",
      "x"
    ],
    [
      "p",
      "l"
    ],
    [
      "par",
      "a "
    ],
    [
      "er",
      " "
    ],
    [
      "al",
      " "
    ],
    [
      "r",
      "i"
    ],
    [
      "u",
      "r"
    ],
    [
      "o",
      "s"
    ],
    [
      "d",
      "i"
    ],
    [
      "e",
      "t"
    ],
    [
      "u",
      "t"
    ],
    [
      "a",
      "t"
    ],
    [
      "u",
      "n"
    ],
    [
      "es",
      "t"
    ],
    [
      "o",
      ", "
    ],
    [
      "u",
      "l"
    ],
    [
      "ent",
      "e "
    ],
    [
      "ad",
      "a "
    ],
    [
      "es",
      "s"
    ],
    [
      "g",
      "r"
    ],
    [
      "e",
      "c"
    ],
    [
      "f",
      "or"
    ],
    [
      ")",
      "\n"
    ],
    [
      "is",
      "t"
    ],
    [
      "i",
      "z"
    ],
    [
      "u",
      "s"
    ],
    [
      "a",
      "ç"
    ],
    [
      "õ",
      "es "
    ],
    [
      "a ",
      "de "
    ],
    [
      "o",
      "l"
    ],
    [
      "s",
      "e"
    ],
    [
      "ou",
      " "
    ],
    [
      "(",
      "\n"
    ],
    [
      "a",
      "nt"
    ],
    [
      "d",
      "e"
    ],
    [
      "ad",
      "os "
    ],
    [
      "i",
      "r"
    ],
    [
      "a",
      "b"
    ],
    [
      "\n",
      ")\n"
    ],
    [
      "\n",
      "(\n"
    ],
    [
      "i",
      "l"
    ],
    [
      "in",
      "g"
    ],
    [
      ",",
      "\n"
    ],
    [
      "ad",
      "o "
    ],
    [
      "a",
      ", "
    ],
    [
      "t",
      "ic"
    ],
    [
      "a",
      "de "
    ],
    [
      "o",
      "d"
    ],
    [
      "s",
      "u"
    ],
    [
      "A",
      " "
    ],
    [
      "s",
      "e "
    ],
    [
      "s",
      "ão "
    ],
    [
      "s",
      "i"
    ],
    [
      "o",
      "m"
    ],
    [
      "f",
      "ic"
    ],
    [
      "co",
      "m "
    ],
    [
      "com",
      "o "
    ],
    [
      "a",
      "m "
    ],
    [
      "d",
      "is"
    ],
    [
      "p",
      "er"
    ],
    [
      "o",
      "b"
    ],
    [
      "a",
      "g"
    ],
    [
      "p",
      "or "
    ],
    [
      "n",
      "ci"
    ],
    [
      "i",
      "b"
    ],
    [
      "ti",
      "v"
    ],
    [
      "i",
      "nt"
    ],
    [
      "a",
      "c"
    ],
    [
      "am",
      "ent"
    ],
    [
      ")",
      " "
    ],
    [
      "d",
      "es"
    ],
    [
      "f",
      "un"
    ],
    [
      "\n",
      ",\n"
    ],
    [
      "id",
      "ade "
    ],
    [
      "a",
      "is "
    ],
    [
      "i",
      "g"
    ],
    [
      "s",
      "er "
    ],
    [
      "i",
      "a "
    ],
    [
      "a",
      "v"
    ],
    [
      "or",
      "es "
    ],
    [
      "ê",
      "nci"
    ],
    [
      "ã",
      "o"
    ],
    [
      "n",
      "a "
    ],
    [
      "co",
      "nt"
    ],
    [
      "e",
      ", "
    ],
    [
      "n",
      "o "
    ],
    [
      "com",
      "p"
    ],
    [
      "\n",
      "1"
    ],
    [
      "u",
      "i"
    ],
    [
      "s",
      "t"
    ],
    [
      "v",
      "el"
    ],
    [
      ":",
      " "
    ],
    [
      "i",
      "v"
    ],
    [
      "an",
      "do "
    ],
    [
      "ent",
      "r"
    ],
    [
      "os ",
      "de "
    ],
    [
      "tr",
      "ib"
    ],
    [
      "n",
      "ão "
    ],
    [
      "as ",
      "de "
    ],
    [
      "v",
      "e"
    ],
    [
      "r",
      "es"
    ],
    [
      "d",
      "os "
    ],
    [
      "u",
      "m"
    ],
    [
      "pro",
      "b"
    ],
    [
      "ci",
      "on"
    ],
    [
      "f",
      "er"
    ],
    [
      "O",
      " "
    ],
    [
      "f",
      "in"
    ],
    [
      "c",
      "h"
    ],
    [
      "a",
      "\n"
    ],
    [
      ". ",
      "E"
    ],
    [
      "á",
      "ri"
    ],
    [
      "e",
      "d"
    ],
    [
      "c",
      "l"
    ],
    [
      "e",
      "ci"
    ],
    [
      "o",
      "c"
    ],
    [
      "ad",
      "as "
    ],
    [
      "\n",
      "2"
    ],
    [
      "dis",
      "trib"
    ],
    [
      "ç",
      "ões "
    ],
    [
      "e",
      "ir"
    ],
    [
      "t",
      "o"
    ],
    [
      "ma",
      "is "
    ],
    [
      "s",
      "ist"
    ],
    [
      "i",
      " "
    ],
    [
      "ção ",
      "de "
    ],
    [
      "v",
      "er"
    ],
    [
      "for",
      "ma"
    ],
    [
      "distrib",
      "ui"
    ],
    [
      "p",
      "or"
    ],
    [
      "am",
      "ente "
    ],
    [
      "t",
      "er"
    ],
    [
      "u",
      " "
    ],
    [
      "es",
      "p"
    ],
    [
      "comp",
      "ut"
    ],
    [
      "o",
      "g"
    ],
    [
      "p",
      "el"
    ],
    [
      "aç",
      "ões "
    ],
    [
      "v",
      "al"
    ],
    [
      "po",
      "de "
    ],
    [
      "al",
      "g"
    ],
    [
      " ",
      "e "
    ],
    [
      "1",
      "9"
    ],
    [
      "t",
      "em"
    ],
    [
      "pl",
      "ic"
    ],
    [
      "os",
      ", "
    ],
    [
      "e ",
      "de "
    ],
    [
      ":",
      "\n"
    ],
    [
      "ação ",
      "de "
    ],
    [
      "m",
      "ente "
    ],
    [
      "a",
      "p"
    ],
    [
      "sist",
      "em"
    ],
    [
      "gr",
      "am"
    ],
    [
      "pro",
      "c"
    ],
    [
      "a",
      "tiv"
    ],
    [
      "am",
      "b"
    ],
    [
      "ó",
      "ri"
    ],
    [
      "m",
      "od"
    ],
    [
      "é",
      "m "
    ],
    [
      "e",
      "\n"
    ],
    [
      "v",
      "et"
    ],
    [
      "vel",
      " "
    ],
    [
      "em",
      "pl"
    ],
    [
      "x",
      "\n"
    ],
    [
      "d",
      "as "
    ],
    [
      "á",
      "l"
    ],
    [
      "á",
      " "
    ],
    [
      "ic",
      "a "
    ],
    [
      "d",
      "ados "
    ],
    [
      "se",
      "g"
    ],
    [
      "v",
      "ol"
    ],
    [
      "t",
      "e"
    ],
    [
      "f",
      "o"
    ],
    [
      "po",
      "d"
    ],
    [
      "ar",
      "i"
    ],
    [
      "ênci",
      "a "
    ],
    [
      "a",
      "o "
    ],
    [
      "ã",
      "o, "
    ],
    [
      "l",
      "em"
    ],
    [
      "d",
      "u"
    ],
    [
      " ",
      "("
    ],
    [
      "s",
      "o"
    ],
    [
      "n",
      "i"
    ],
    [
      "id",
      "ad"
    ],
    [
      "g",
      "er"
    ],
    [
      "s",
      "s"
    ],
    [
      "tr",
      "iz"
    ],
    [
      "ti",
      "l"
    ],
    [
      "a",
      ". "
    ],
    [
      "ab",
      "il"
    ],
    [
      "pr",
      "es"
    ],
    [
      "a ",
      "m"
    ],
    [
      "ou",
      "tr"
    ],
    [
      "ex",
      "empl"
    ],
    [
      "ma",
      "triz"
    ],
    [
      "2",
      "0"
    ],
    [
      "ag",
      "em "
    ],
    [
      "proc",
      "ess"
    ],
    [
      "o",
      "t"
    ],
    [
      "a",
      "f"
    ],
    [
      "as",
      ", "
    ],
    [
      "í",
      "s"
    ],
    [
      "m",
      "ent"
    ],
    [
      "u",
      "nt"
    ],
    [
      "o",
      "\n"
    ],
    [
      "en",
      "s"
    ],
    [
      " ",
      "de "
    ],
    [
      "l",
      "in"
    ],
    [
      "c",
      "or"
    ],
    [
      "l",
      "e"
    ],
    [
      "à",
      " "
    ],
    [
      "prob",
      "lem"
    ],
    [
      "a",
      "ut"
    ],
    [
      "ing",
      "u"
    ],
    [
      "\n",
      "0"
    ],
    [
      "e ",
      "a "
    ],
    [
      "de",
      "fin"
    ],
    [
      "c",
      "ri"
    ],
    [
      "pro",
      "gram"
    ],
    [
      "int",
      "er"
    ],
    [
      "a",
      "cion"
    ],
    [
      "es ",
      "de "
    ],
    [
      "m",
      "o "
    ],
    [
      "it",
      "o "
    ],
    [
      "s",
      "ob"
    ],
    [
      "mod",
      "el"
    ],
    [
      "s",
      "er"
    ],
    [
      "con",
      "h"
    ],
    [
      "c",
      "ul"
    ],
    [
      "al",
      "mente "
    ],
    [
      "es",
      ", "
    ],
    [
      "n",
      "e"
    ],
    [
      "s",
      "tr"
    ],
    [
      "\n2",
      "\n"
    ],
    [
      "d",
      "ad"
    ],
    [
      "á",
      "tic"
    ],
    [
      "m",
      "er"
    ],
    [
      "t",
      "od"
    ],
    [
      ")",
      ", "
    ],
    [
      "a",
      "is"
    ],
    [
      "re",
      "l"
    ],
    [
      "in",
      "forma"
    ],
    [
      "tr",
      "an"
    ],
    [
      "pode ",
      "ser "
    ],
    [
      ". ",
      "A "
    ],
    [
      "a",
      ".\n"
    ],
    [
      "distribui",
      "ção "
    ],
    [
      "al",
      "iz"
    ],
    [
      "c",
      "e"
    ],
    [
      "n",
      "or"
    ],
    [
      "co",
      "s "
    ],
    [
      "amb",
      "ém "
    ],
    [
      "c",
      "r"
    ],
    [
      "b",
      "as"
    ],
    [
      "conh",
      "eci"
    ],
    [
      "P",
      "r"
    ],
    [
      "j",
      "unt"
    ],
    [
      "\n1",
      "\n"
    ],
    [
      "-",
      "se "
    ],
    [
      "cont",
      "r"
    ],
    [
      "m",
      "in"
    ],
    [
      "pr",
      "im"
    ],
    [
      "l",
      "ingu"
    ],
    [
      "fo",
      "i "
    ],
    [
      "v",
      "ari"
    ],
    [
      "ad",
      "r"
    ],
    [
      "ad",
      "or "
    ],
    [
      "po",
      "n"
    ],
    [
      "e ",
      "o "
    ],
    [
      "t",
      "o "
    ],
    [
      "for",
      "m"
    ],
    [
      "ent",
      "es "
    ],
    [
      "t",
      "ambém "
    ],
    [
      "ir",
      " "
    ],
    [
      "n",
      "ú"
    ],
    [
      "C",
      "om"
    ],
    [
      "aç",
      "ão"
    ],
    [
      "ó",
      "g"
    ],
    [
      "m",
      "u"
    ],
    [
      "ament",
      "o "
    ],
    [
      "s",
      "im"
    ],
    [
      "di",
      "re"
    ],
    [
      "or",
      "i"
    ],
    [
      "con",
      "junt"
    ],
    [
      "or",
      "it"
    ],
    [
      "pod",
      "em "
    ],
    [
      ". ",
      "A"
    ],
    [
      "a",
      "z"
    ],
    [
      "ing",
      " "
    ],
    [
      "an",
      "ç"
    ],
    [
      ".\n",
      "A "
    ],
    [
      "y",
      " "
    ],
    [
      "or",
      "d"
    ],
    [
      "pres",
      "ent"
    ],
    [
      "en",
      "vol"
    ],
    [
      "nor",
      "m"
    ],
    [
      ";",
      " "
    ],
    [
      "d",
      "o"
    ],
    [
      "com",
      "pl"
    ],
    [
      "ic",
      "i"
    ],
    [
      "en",
      "h"
    ],
    [
      "c",
      "ur"
    ],
    [
      ". ",
      "O "
    ],
    [
      "w",
      "ar"
    ],
    [
      "por",
      "t"
    ],
    [
      "p",
      "o "
    ],
    [
      "o",
      "v"
    ],
    [
      "nú",
      "mer"
    ],
    [
      "ch",
      "am"
    ],
    [
      "en",
      "ci"
    ],
    [
      "b",
      "r"
    ],
    [
      "c",
      "ada "
    ],
    [
      "ul",
      "t"
    ],
    [
      "prob",
      "abil"
    ],
    [
      "u",
      "til"
    ],
    [
      "c",
      "ar"
    ],
    [
      "ar ",
      "a "
    ],
    [
      "al",
      ", "
    ],
    [
      "a",
      "ci"
    ],
    [
      "gr",
      "af"
    ],
    [
      ". ",
      "P"
    ],
    [
      "sob",
      "r"
    ],
    [
      "v",
      "i"
    ],
    [
      "em",
      "ent"
    ],
    [
      "n",
      "\n"
    ],
    [
      "im",
      "ent"
    ],
    [
      "di",
      "fer"
    ],
    [
      "f",
      "i"
    ],
    [
      "entr",
      "e "
    ],
    [
      "ís",
      "tic"
    ],
    [
      "for",
      "ma "
    ],
    [
      "as",
      "s"
    ],
    [
      "a",
      "plic"
    ],
    [
      "c",
      "al"
    ],
    [
      "tran",
      "s"
    ],
    [
      ".\n",
      "E"
    ],
    [
      "e",
      "qu"
    ],
    [
      "qu",
      "in"
    ],
    [
      "á",
      "quin"
    ],
    [
      "co",
      "l"
    ],
    [
      "a ",
      "a "
    ],
    [
      "d",
      "et"
    ],
    [
      "util",
      "iz"
    ],
    [
      "idade ",
      "de "
    ],
    [
      "o ",
      "da "
    ],
    [
      "d",
      "er"
    ],
    [
      "T",
      "ur"
    ],
    [
      "fun",
      "ção "
    ],
    [
      "c",
      "am"
    ],
    [
      "ad",
      "ores "
    ],
    [
      "it",
      "os "
    ],
    [
      "alg",
      "orit"
    ],
    [
      "ve",
      "z"
    ],
    [
      "i",
      "\n"
    ],
    [
      "qu",
      "ant"
    ],
    [
      "on",
      " "
    ],
    [
      "con",
      "s"
    ],
    [
      "an",
      "d"
    ],
    [
      "m",
      "é"
    ],
    [
      ";",
      "\n"
    ],
    [
      "prim",
      "eir"
    ],
    [
      "í",
      "n"
    ],
    [
      "\n(\n",
      "x"
    ],
    [
      "pr",
      "e"
    ],
    [
      "f",
      "t"
    ],
    [
      "o ",
      "que "
    ],
    [
      "qu",
      "er "
    ],
    [
      "é ",
      "um "
    ],
    [
      "di",
      "g"
    ],
    [
      "ne",
      "ur"
    ],
    [
      "a ",
      "e "
    ],
    [
      "fic",
      "i"
    ],
    [
      "m",
      "e"
    ],
    [
      "c",
      "as"
    ],
    [
      "po",
      "st"
    ],
    [
      "esp",
      "aç"
    ],
    [
      "j",
      "et"
    ],
    [
      "f",
      "\n"
    ],
    [
      "al",
      "h"
    ],
    [
      "f",
      "r"
    ],
    [
      "id",
      "a "
    ],
    [
      "po",
      "nt"
    ],
    [
      "m",
      "es"
    ],
    [
      "su",
      "a "
    ],
    [
      "í",
      "vel "
    ],
    [
      "ve",
      "is "
    ],
    [
      "m",
      "as "
    ],
    [
      "su",
      "b"
    ],
    [
      "qu",
      "al"
    ],
    [
      "t",
      "h"
    ],
    [
      "ç",
      "ão"
    ],
    [
      "al ",
      "de "
    ],
    [
      "-",
      " "
    ],
    [
      "se",
      "j"
    ],
    [
      "ant",
      "e "
    ],
    [
      "envol",
      "v"
    ],
    [
      "re",
      "t"
    ],
    [
      "ad",
      "or"
    ],
    [
      "en",
      "s "
    ],
    [
      "p",
      "es"
    ],
    [
      "re",
      "d"
    ],
    [
      "n",
      "ec"
    ],
    [
      "po",
      "si"
    ],
    [
      "o ",
      "do "
    ],
    [
      ")",
      ". "
    ],
    [
      "á",
      "vel "
    ],
    [
      "é",
      "r"
    ],
    [
      "ál",
      "is"
    ],
    [
      "y",
      "\n"
    ],
    [
      "é ",
      "uma "
    ],
    [
      "re",
      "present"
    ],
    [
      "U",
      "ma "
    ],
    [
      "é ",
      "o "
    ],
    [
      "seg",
      "u"
    ],
    [
      ".\n",
      "A"
    ],
    [
      "O",
      "s "
    ],
    [
      "para ",
      "a "
    ],
    [
      "s",
      "em"
    ],
    [
      "um",
      "ent"
    ],
    [
      "pel",
      "a "
    ],
    [
      "re",
      "de "
    ],
    [
      "der",
      "iv"
    ],
    [
      "exempl",
      "o, "
    ],
    [
      "p",
      "adr"
    ],
    [
      "po",
      "s"
    ],
    [
      "er",
      "min"
    ],
    [
      "es",
      "tr"
    ],
    [
      "ec",
      "is"
    ],
    [
      "esp",
      "eci"
    ],
    [
      "se",
      "u "
    ],
    [
      "t",
      "u"
    ],
    [
      "det",
      "ermin"
    ],
    [
      "ti",
      "r"
    ],
    [
      "est",
      "e "
    ],
    [
      "per",
      "m"
    ],
    [
      ".\n",
      "O "
    ],
    [
      "b",
      "l"
    ],
    [
      "a ",
      "da "
    ],
    [
      "el",
      "h"
    ],
    [
      "e",
      "f"
    ],
    [
      "em",
      "óri"
    ],
    [
      "m",
      "os "
    ],
    [
      "v",
      "\n"
    ],
    [
      "ft",
      "war"
    ],
    [
      "pel",
      "o "
    ],
    [
      "o",
      "per"
    ],
    [
      "compl",
      "ex"
    ],
    [
      "val",
      "ores "
    ],
    [
      "ar ",
      "o "
    ],
    [
      "po",
      "ss"
    ],
    [
      "A",
      "\n"
    ],
    [
      "n",
      " "
    ],
    [
      "ut",
      "ur"
    ],
    [
      "t",
      "em "
    ],
    [
      "U",
      "m "
    ],
    [
      "m",
      "o"
    ],
    [
      "at",
      "óri"
    ],
    [
      "\"",
      " "
    ],
    [
      ". ",
      "I"
    ],
    [
      "or",
      "ia "
    ],
    [
      "lingu",
      "agem "
    ],
    [
      "n",
      "ic"
    ],
    [
      "tod",
      "os "
    ],
    [
      "é ",
      "a "
    ],
    [
      "s",
      ", "
    ],
    [
      "de",
      "\n"
    ],
    [
      "m",
      "áquin"
    ],
    [
      "i",
      "do "
    ],
    [
      "in",
      "cl"
    ],
    [
      "ver",
      "s"
    ],
    [
      "pr",
      "i"
    ],
    [
      "o ",
      "e "
    ],
    [
      "a ",
      "em "
    ],
    [
      "id",
      "er"
    ],
    [
      "o",
      "p"
    ],
    [
      "e",
      "ar"
    ],
    [
      "c",
      "u"
    ],
    [
      "m",
      "ul"
    ],
    [
      ".",
      "."
    ],
    [
      "u",
      "ção "
    ],
    [
      "que ",
      "o "
    ],
    [
      "aç",
      "ão, "
    ],
    [
      "l",
      "óg"
    ],
    [
      "v",
      "is"
    ],
    [
      "d",
      "\n"
    ],
    [
      "aut",
      "o"
    ],
    [
      "sobr",
      "e "
    ],
    [
      "m",
      "an"
    ],
    [
      "ar",
      "ti"
    ],
    [
      "val",
      "or "
    ],
    [
      "N",
      " "
    ],
    [
      "podem ",
      "ser "
    ],
    [
      "i",
      "fic"
    ],
    [
      "p",
      "al"
    ],
    [
      "matriz",
      " "
    ],
    [
      "ó",
      "dig"
    ],
    [
      "as ",
      "e "
    ],
    [
      "G",
      "P"
    ],
    [
      ". ",
      "N"
    ],
    [
      "i",
      "x"
    ],
    [
      "an",
      "ális"
    ],
    [
      "er",
      "r"
    ],
    [
      "qual",
      "quer "
    ],
    [
      "ex",
      "t"
    ],
    [
      "f",
      " "
    ],
    [
      "si",
      "g"
    ],
    [
      "qu",
      "is"
    ],
    [
      "re",
      "g"
    ],
    [
      "conheci",
      "ment"
    ],
    [
      "que ",
      "a "
    ],
    [
      "I",
      "nt"
    ],
    [
      "C",
      "h"
    ],
    [
      "a ",
      "do "
    ],
    [
      "e",
      "g"
    ],
    [
      "õ",
      "es"
    ],
    [
      "v",
      "e "
    ],
    [
      "u",
      "d"
    ],
    [
      "ma",
      "i"
    ],
    [
      "el",
      "ig"
    ],
    [
      "l",
      "im"
    ],
    [
      "X",
      "\n"
    ],
    [
      "des",
      "envolv"
    ],
    [
      "sistem",
      "a "
    ],
    [
      ". E",
      "m "
    ],
    [
      "or",
      "n"
    ],
    [
      "p",
      "e"
    ],
    [
      "s",
      "ol"
    ],
    [
      "20",
      "0"
    ],
    [
      "d",
      "ade "
    ],
    [
      "f",
      "l"
    ],
    [
      "Tur",
      "ing "
    ],
    [
      "pr",
      "ess"
    ],
    [
      "a",
      "ti"
    ],
    [
      "ag",
      "ens "
    ],
    [
      "qu",
      "ando "
    ],
    [
      "pr",
      "in"
    ],
    [
      "distribuição ",
      "norm"
    ],
    [
      "ex",
      "ec"
    ],
    [
      "m",
      "emóri"
    ],
    [
      "ici",
      "on"
    ],
    [
      "ada ",
      "de "
    ],
    [
      "ament",
      "o de "
    ],
    [
      "ol",
      "og"
    ],
    [
      "in",
      "do "
    ],
    [
      "res",
      "ult"
    ],
    [
      "mes",
      "mo "
    ],
    [
      "s",
      "a"
    ],
    [
      "o",
      ".\n"
    ],
    [
      "ess",
      "e "
    ],
    [
      "l",
      "i"
    ],
    [
      "para ",
      "o "
    ],
    [
      "av",
      "r"
    ],
    [
      "so",
      "ci"
    ],
    [
      "pal",
      "avr"
    ],
    [
      ". ",
      "S"
    ],
    [
      "so",
      "ftwar"
    ],
    [
      "â",
      "nci"
    ],
    [
      "\n(\nx",
      "\n)\n"
    ],
    [
      "c",
      "ódig"
    ],
    [
      "or",
      "t"
    ],
    [
      "a",
      "tr"
    ],
    [
      "conjunt",
      "o de "
    ],
    [
      ", ",
      "a "
    ],
    [
      "nec",
      "ess"
    ],
    [
      "estr",
      "utur"
    ],
    [
      "u",
      "í"
    ],
    [
      "u",
      "\n"
    ],
    [
      "I",
      "n"
    ],
    [
      "ad",
      "i"
    ],
    [
      "c",
      "ap"
    ],
    [
      "ul",
      "ar"
    ],
    [
      "cri",
      "p"
    ],
    [
      "ér",
      "tic"
    ],
    [
      "du",
      "z"
    ],
    [
      "v",
      "id"
    ],
    [
      "o ",
      "é "
    ],
    [
      "al",
      "e"
    ],
    [
      "ma",
      "tem"
    ],
    [
      "on",
      "de "
    ],
    [
      "ções ",
      "de "
    ],
    [
      "ári",
      "os "
    ],
    [
      "ab",
      "alh"
    ],
    [
      "se",
      "qu"
    ],
    [
      "est",
      "a "
    ],
    [
      "u",
      "s "
    ],
    [
      "o ",
      "em "
    ],
    [
      "re",
      "cur"
    ],
    [
      "t",
      "er "
    ],
    [
      "as",
      "si"
    ],
    [
      "i",
      "p"
    ],
    [
      "ec",
      "t"
    ],
    [
      "f",
      "al"
    ],
    [
      "um",
      "an"
    ],
    [
      "cons",
      "ider"
    ],
    [
      "tr",
      "abalh"
    ],
    [
      "vet",
      "or "
    ],
    [
      "f",
      "e"
    ],
    [
      "er",
      "t"
    ],
    [
      "ant",
      "es "
    ],
    [
      "en",
      "er"
    ],
    [
      "par",
      "t"
    ],
    [
      "er",
      "i"
    ],
    [
      "m",
      "en"
    ],
    [
      "red",
      "es "
    ],
    [
      "ais",
      ", "
    ],
    [
      "com ",
      "o "
    ],
    [
      "ac",
      "ter"
    ],
    [
      "ant",
      "o, "
    ],
    [
      "v",
      "értic"
    ],
    [
      "f",
      "az"
    ],
    [
      "ti",
      "p"
    ],
    [
      "ale",
      "atóri"
    ],
    [
      "j",
      "\n"
    ],
    [
      "bas",
      "e"
    ],
    [
      "an",
      "c"
    ],
    [
      "for",
      "am "
    ],
    [
      "n",
      "os "
    ],
    [
      "probabil",
      "idade "
    ],
    [
      "ent",
      "ão "
    ],
    [
      "informa",
      "ção "
    ],
    [
      "ing",
      "l"
    ],
    [
      "t",
      "ar"
    ],
    [
      "l",
      "og"
    ],
    [
      "a ",
      "o "
    ],
    [
      "0",
      " "
    ],
    [
      "car",
      "acter"
    ],
    [
      "di",
      "fic"
    ],
    [
      "é",
      "c"
    ],
    [
      "\n1",
      "\n,\n"
    ],
    [
      "con",
      "ce"
    ],
    [
      "c",
      "re"
    ],
    [
      "P",
      "ar"
    ],
    [
      "t",
      "\n"
    ],
    [
      "un",
      "s "
    ],
    [
      "in",
      "h"
    ],
    [
      "ad",
      "os"
    ],
    [
      "a ",
      "("
    ],
    [
      "en",
      "as "
    ],
    [
      "re",
      "qu"
    ],
    [
      "er",
      "s"
    ],
    [
      "el",
      "e "
    ],
    [
      "int",
      "elig"
    ],
    [
      "Com",
      "p"
    ],
    [
      "t",
      "re"
    ],
    [
      "a ",
      "que "
    ],
    [
      "em ",
      "um "
    ],
    [
      "h",
      "uman"
    ],
    [
      "d",
      "ut"
    ],
    [
      "fun",
      "ção de "
    ],
    [
      "v",
      "er "
    ],
    [
      "ex",
      "ist"
    ],
    [
      "ál",
      "cul"
    ],
    [
      "ingl",
      "ê"
    ],
    [
      "ênci",
      "a de "
    ],
    [
      "sim",
      "pl"
    ],
    [
      "s",
      "in"
    ],
    [
      "vet",
      "ori"
    ],
    [
      "er",
      "n"
    ],
    [
      "em ",
      "uma "
    ],
    [
      "p",
      "ass"
    ],
    [
      "g",
      "u"
    ],
    [
      "ig",
      "u"
    ],
    [
      "incl",
      "u"
    ],
    [
      "es",
      "cal"
    ],
    [
      "ç",
      "ão, "
    ],
    [
      "]",
      "\n"
    ],
    [
      "A",
      "l"
    ],
    [
      "el",
      "e"
    ],
    [
      "a ",
      "um "
    ],
    [
      "a ",
      "uma "
    ],
    [
      "at",
      "ur"
    ],
    [
      "im",
      "pl"
    ],
    [
      "\n0",
      "\n0"
    ],
    [
      "g",
      "an"
    ],
    [
      ". ",
      "D"
    ],
    [
      "al",
      "\n"
    ],
    [
      "T",
      " "
    ],
    [
      "pr",
      "ecis"
    ],
    [
      "sistem",
      "as "
    ],
    [
      "it",
      "as "
    ],
    [
      "rel",
      "acion"
    ],
    [
      "ar",
      "am "
    ],
    [
      "co",
      "s"
    ],
    [
      ", ",
      "que "
    ],
    [
      "a ",
      "é "
    ],
    [
      "ap",
      "enas "
    ],
    [
      ". P",
      "or "
    ],
    [
      "á",
      "veis "
    ],
    [
      "du",
      "as "
    ],
    [
      "sa",
      "í"
    ],
    [
      "es",
      "ti"
    ],
    [
      "e",
      "gr"
    ],
    [
      "U",
      "n"
    ],
    [
      "do",
      "is "
    ],
    [
      "com",
      "par"
    ],
    [
      "il",
      "h"
    ],
    [
      "outr",
      "as "
    ],
    [
      "dad",
      "os"
    ],
    [
      "d",
      " "
    ],
    [
      "tem",
      "po "
    ],
    [
      ". ",
      "C"
    ],
    [
      "an",
      "al"
    ],
    [
      "os ",
      "e "
    ],
    [
      "en",
      "contr"
    ],
    [
      "ser",
      "v"
    ],
    [
      "rel",
      "ação "
    ],
    [
      "s",
      "em "
    ],
    [
      ".\nE",
      "m "
    ],
    [
      "fun",
      "cion"
    ],
    [
      "quant",
      "o "
    ],
    [
      "1",
      " "
    ],
    [
      "os",
      "tr"
    ],
    [
      "o ",
      "("
    ],
    [
      "é",
      "s "
    ],
    [
      "to",
      "do "
    ],
    [
      "pro",
      "pri"
    ],
    [
      ", ",
      "o "
    ],
    [
      "est",
      "ão "
    ],
    [
      "t",
      "est"
    ],
    [
      "al",
      "i"
    ],
    [
      "ári",
      "as "
    ],
    [
      "ni",
      "fic"
    ],
    [
      "lim",
      "it"
    ],
    [
      "20",
      "1"
    ],
    [
      "pro",
      "v"
    ],
    [
      "com ",
      "a "
    ],
    [
      "at",
      "u"
    ],
    [
      "b",
      "i"
    ],
    [
      "par",
      "tir"
    ],
    [
      "res",
      "pon"
    ],
    [
      "perm",
      "it"
    ],
    [
      "s",
      "ti"
    ],
    [
      "ess",
      "o"
    ],
    [
      "in",
      "v"
    ],
    [
      "lin",
      "h"
    ],
    [
      "pro",
      "dut"
    ],
    [
      "sig",
      "nific"
    ],
    [
      "str",
      "u"
    ],
    [
      "us",
      "u"
    ],
    [
      "ex",
      "press"
    ],
    [
      "iv",
      "ers"
    ],
    [
      "19",
      "9"
    ],
    [
      "f",
      "or "
    ],
    [
      "i",
      "ma"
    ],
    [
      "est",
      "á "
    ],
    [
      "Q",
      "u"
    ],
    [
      "á",
      "re"
    ],
    [
      "est",
      "at"
    ],
    [
      "Comp",
      "ut"
    ],
    [
      "u",
      "p"
    ],
    [
      "pr",
      "ó"
    ],
    [
      "x",
      "im"
    ],
    [
      "prin",
      "ci"
    ],
    [
      "is",
      "s"
    ],
    [
      "f",
      "requ"
    ],
    [
      "idad",
      "es "
    ],
    [
      "res",
      "ol"
    ],
    [
      "outr",
      "os "
    ],
    [
      "crip",
      "to"
    ],
    [
      "gr",
      "á"
    ],
    [
      "tar",
      "ef"
    ],
    [
      "í",
      "ni"
    ],
    [
      "ad",
      "o de "
    ],
    [
      "ad",
      "o"
    ],
    [
      "k",
      " "
    ],
    [
      "tre",
      "in"
    ],
    [
      "1",
      "\n"
    ],
    [
      "matem",
      "átic"
    ],
    [
      "pro",
      "p"
    ],
    [
      "C",
      " "
    ],
    [
      "vet",
      "ores "
    ],
    [
      "defin",
      "i"
    ],
    [
      "de ",
      "uma "
    ],
    [
      "e",
      "v"
    ],
    [
      "b",
      "in"
    ],
    [
      "en",
      "ç"
    ],
    [
      "í",
      "ci"
    ],
    [
      "idad",
      "e"
    ],
    [
      "d",
      "im"
    ],
    [
      "f",
      "at"
    ],
    [
      "ob",
      "jet"
    ],
    [
      "ar",
      "qu"
    ],
    [
      "pes",
      "quis"
    ],
    [
      "ári",
      "o "
    ],
    [
      "desenvolv",
      "iment"
    ],
    [
      "t",
      "orn"
    ],
    [
      "é",
      "ri"
    ],
    [
      "el",
      "ement"
    ],
    [
      "k",
      "\n"
    ],
    [
      "lin",
      "ear"
    ],
    [
      "program",
      "ação "
    ],
    [
      "ó",
      "r"
    ],
    [
      "r",
      "an"
    ],
    [
      "distribui",
      "ção de "
    ],
    [
      "em",
      "p"
    ],
    [
      "le",
      "v"
    ],
    [
      "t",
      "éc"
    ],
    [
      "po",
      "l"
    ],
    [
      "it",
      "a "
    ],
    [
      "model",
      "o "
    ],
    [
      "m",
      "i"
    ],
    [
      "p",
      "esso"
    ],
    [
      "todos ",
      "os "
    ],
    [
      "Pr",
      "o"
    ],
    [
      "u",
      "z"
    ],
    [
      "a",
      "ix"
    ],
    [
      "problem",
      "as "
    ],
    [
      "impl",
      "ement"
    ],
    [
      "mu",
      "ito "
    ],
    [
      "ação ",
      "da "
    ],
    [
      "pos",
      "su"
    ],
    [
      "ac",
      "ess"
    ],
    [
      "exec",
      "ut"
    ],
    [
      "R",
      "e"
    ],
    [
      "m",
      "b"
    ],
    [
      "j",
      "e"
    ],
    [
      "espaç",
      "o "
    ],
    [
      "te",
      "oria "
    ],
    [
      "or",
      "ig"
    ],
    [
      "es",
      "cr"
    ],
    [
      "d",
      "en"
    ],
    [
      "em",
      "ente "
    ],
    [
      "ar",
      "g"
    ],
    [
      ", ",
      "e "
    ],
    [
      "p",
      "i"
    ],
    [
      "n",
      "ov"
    ],
    [
      "ti",
      "plic"
    ],
    [
      "em",
      "os "
    ],
    [
      "est",
      "u"
    ],
    [
      "R",
      "\n"
    ],
    [
      "2",
      " "
    ],
    [
      "en",
      "c"
    ],
    [
      "re",
      "fer"
    ],
    [
      "ó",
      "s "
    ],
    [
      "ação ",
      "do "
    ],
    [
      "S",
      "B"
    ],
    [
      "us",
      "ando "
    ],
    [
      "c",
      "álcul"
    ],
    [
      "re",
      "aliz"
    ],
    [
      "pro",
      "jet"
    ],
    [
      "distribuição norm",
      "al "
    ],
    [
      "ec",
      "n"
    ],
    [
      "l",
      "ig"
    ],
    [
      "ado ",
      "em "
    ],
    [
      "de ",
      "um "
    ],
    [
      "2",
      "\n"
    ],
    [
      "in",
      "d"
    ],
    [
      "un",
      "ic"
    ],
    [
      "comput",
      "acion"
    ],
    [
      "h",
      " "
    ],
    [
      ".\n",
      "D"
    ],
    [
      "\n",
      "i\n"
    ],
    [
      "im",
      "port"
    ],
    [
      "A",
      "r"
    ],
    [
      ". ",
      "T"
    ],
    [
      "3",
      "\n"
    ],
    [
      "como ",
      "o "
    ],
    [
      "princi",
      "p"
    ],
    [
      ". E",
      "l"
    ],
    [
      "m",
      "elh"
    ],
    [
      "p",
      "a"
    ],
    [
      "seg",
      "ur"
    ],
    [
      "e ",
      "uma "
    ],
    [
      "atr",
      "av"
    ],
    [
      "t",
      "al "
    ],
    [
      "É",
      " "
    ],
    [
      ".\n",
      "N"
    ],
    [
      "cal",
      "cul"
    ],
    [
      ".\n",
      "S"
    ],
    [
      "I",
      "A "
    ],
    [
      "a",
      "u"
    ],
    [
      "e",
      "j"
    ],
    [
      "o",
      "ci"
    ],
    [
      "ess",
      "a "
    ],
    [
      "s",
      "í"
    ],
    [
      "re",
      "gr"
    ],
    [
      "..",
      ".\n"
    ],
    [
      "su",
      "per"
    ],
    [
      "o",
      "f "
    ],
    [
      "C",
      "on"
    ],
    [
      "h",
      "\n"
    ],
    [
      "ad",
      "as"
    ],
    [
      "í",
      "tic"
    ],
    [
      "como ",
      "a "
    ],
    [
      "ín",
      "u"
    ],
    [
      "padr",
      "ão "
    ],
    [
      "bl",
      "ic"
    ],
    [
      "comput",
      "ação "
    ],
    [
      "ament",
      "e, "
    ],
    [
      "í",
      "veis "
    ],
    [
      "SB",
      "N "
    ],
    [
      "cont",
      "ínu"
    ],
    [
      "\n0",
      "\n"
    ],
    [
      "graf",
      "o "
    ],
    [
      "matriz",
      "es "
    ],
    [
      "e",
      "ç"
    ],
    [
      "comput",
      "ador "
    ],
    [
      "tr",
      "ad"
    ],
    [
      "gr",
      "an"
    ],
    [
      "númer",
      "o de "
    ],
    [
      "an",
      "h"
    ],
    [
      "in",
      "ici"
    ],
    [
      "vez",
      " "
    ],
    [
      "z",
      "en"
    ],
    [
      "gr",
      "adi"
    ],
    [
      "a ",
      "para "
    ],
    [
      "qu",
      "adr"
    ],
    [
      "as ",
      "as "
    ],
    [
      "ê",
      "m "
    ],
    [
      "a",
      "j"
    ],
    [
      "ve",
      "is"
    ],
    [
      "fun",
      "ções "
    ],
    [
      "on",
      "al "
    ],
    [
      "se",
      "us "
    ],
    [
      "as ",
      "que "
    ],
    [
      ". E",
      "st"
    ],
    [
      "r",
      "od"
    ],
    [
      "qu",
      "al "
    ],
    [
      "de",
      "ve "
    ],
    [
      "g",
      "e"
    ],
    [
      "int",
      "egr"
    ],
    [
      "ad",
      "o, "
    ],
    [
      "av",
      "ali"
    ],
    [
      "\"",
      ", "
    ],
    [
      "ê",
      "s "
    ],
    [
      "at",
      "é "
    ],
    [
      "us",
      "c"
    ],
    [
      "ab",
      "el"
    ],
    [
      "entr",
      "ada "
    ],
    [
      "A",
      "n"
    ],
    [
      "fun",
      "d"
    ],
    [
      "em ",
      "inglê"
    ],
    [
      "ar ",
      "uma "
    ],
    [
      "m",
      "ic"
    ],
    [
      "ent",
      "emente "
    ],
    [
      "atrav",
      "és "
    ],
    [
      "vari",
      "ável "
    ],
    [
      "ma",
      "zen"
    ],
    [
      "primeir",
      "o "
    ],
    [
      "as",
      "soci"
    ],
    [
      "L",
      "e"
    ],
    [
      "ac",
      "h"
    ],
    [
      "cor",
      "r"
    ],
    [
      "segu",
      "int"
    ],
    [
      "si",
      "v"
    ],
    [
      "su",
      "as "
    ],
    [
      "po",
      "is "
    ],
    [
      "ex",
      "to "
    ],
    [
      "g",
      "ener"
    ],
    [
      "M",
      "ar"
    ],
    [
      "el",
      "es "
    ],
    [
      "an",
      " "
    ],
    [
      "Tur",
      "ing"
    ],
    [
      "difer",
      "entes "
    ],
    [
      "and",
      " "
    ],
    [
      "qu",
      "e"
    ],
    [
      "or",
      "r"
    ],
    [
      "contr",
      "ol"
    ],
    [
      "ar",
      "mazen"
    ],
    [
      "ô",
      "ni"
    ],
    [
      "Ch",
      "at"
    ],
    [
      "id",
      "os "
    ],
    [
      "l",
      "ist"
    ],
    [
      "estat",
      "ístic"
    ],
    [
      "deriv",
      "ada "
    ],
    [
      "poss",
      "ível "
    ],
    [
      "ú",
      "l"
    ],
    [
      "s",
      "om"
    ],
    [
      "d",
      "ist"
    ],
    [
      "R",
      "N"
    ],
    [
      "como ",
      "uma "
    ],
    [
      "ul",
      "ar "
    ],
    [
      "úl",
      "ti"
    ],
    [
      "et",
      " "
    ],
    [
      "arti",
      "g"
    ],
    [
      "ob",
      "serv"
    ],
    [
      "\n)\n",
      "(\n"
    ],
    [
      "por ",
      "exemplo, "
    ],
    [
      "a",
      "us"
    ],
    [
      "fin",
      "it"
    ],
    [
      "n",
      "ica "
    ],
    [
      "co",
      "dific"
    ],
    [
      "en",
      "são "
    ],
    [
      "m",
      "o de "
    ],
    [
      "ada ",
      "em "
    ],
    [
      "n",
      "as "
    ],
    [
      "propri",
      "ed"
    ],
    [
      "á",
      "vel"
    ],
    [
      "seg",
      "un"
    ],
    [
      "a",
      "os "
    ],
    [
      "al",
      "el"
    ],
    [
      "or",
      "em"
    ],
    [
      "Chat",
      "GP"
    ],
    [
      "t",
      " "
    ],
    [
      "lingu",
      "agens "
    ],
    [
      "lóg",
      "ica "
    ],
    [
      "com",
      "pon"
    ],
    [
      "arti",
      "fici"
    ],
    [
      "ações ",
      "de "
    ],
    [
      "ar",
      "est"
    ],
    [
      "T",
      "h"
    ],
    [
      "ecn",
      "olog"
    ],
    [
      "a",
      "in"
    ],
    [
      "õ",
      "es, "
    ],
    [
      "n",
      "om"
    ],
    [
      "fl",
      "u"
    ],
    [
      "iz",
      "ação "
    ],
    [
      "neur",
      "ais "
    ],
    [
      "primeir",
      "a "
    ],
    [
      "um",
      "as "
    ],
    [
      "y",
      "th"
    ],
    [
      "intelig",
      "ência "
    ],
    [
      "ou ",
      "a "
    ],
    [
      "p",
      "u"
    ],
    [
      "e ",
      "em "
    ],
    [
      "exempl",
      "o "
    ],
    [
      "anális",
      "e "
    ],
    [
      "númer",
      "os "
    ],
    [
      "a",
      "y"
    ],
    [
      "par",
      "tic"
    ],
    [
      "u",
      "c"
    ],
    [
      "id",
      "as "
    ],
    [
      "ci",
      "fr"
    ],
    [
      "1",
      "0"
    ],
    [
      "fo",
      "nt"
    ],
    [
      "alg",
      "uns "
    ],
    [
      "us",
      "t"
    ],
    [
      "caracter",
      "ístic"
    ],
    [
      "posi",
      "ção "
    ],
    [
      "algorit",
      "mo "
    ],
    [
      "v",
      "árias "
    ],
    [
      "me",
      "i"
    ],
    [
      "l",
      "oc"
    ],
    [
      "ch",
      "av"
    ],
    [
      "a",
      "qu"
    ],
    [
      "b",
      "usc"
    ],
    [
      "M",
      " "
    ],
    [
      "en",
      "ção "
    ],
    [
      ".\n",
      "P"
    ],
    [
      "a",
      ": "
    ],
    [
      "pro",
      "duz"
    ],
    [
      "a ",
      "partir"
    ],
    [
      "comput",
      "adores "
    ],
    [
      "ti",
      "cos "
    ],
    [
      "saí",
      "da "
    ],
    [
      "é",
      "tr"
    ],
    [
      "par",
      "ci"
    ],
    [
      "d",
      "oc"
    ],
    [
      "t",
      "êm "
    ],
    [
      "par",
      "alel"
    ],
    [
      "z",
      "\n"
    ],
    [
      "códig",
      "o "
    ],
    [
      "id",
      "ent"
    ],
    [
      "con",
      "sist"
    ],
    [
      "\n",
      "M"
    ],
    [
      "vez",
      "es "
    ],
    [
      "e",
      "ar "
    ],
    [
      "m",
      "ed"
    ],
    [
      "com",
      "unic"
    ],
    [
      "x",
      " "
    ],
    [
      "ord",
      "en"
    ],
    [
      "3",
      " "
    ],
    [
      "ad",
      "a, "
    ],
    [
      "d",
      "ecis"
    ],
    [
      "or",
      "es"
    ],
    [
      ") ",
      "e "
    ],
    [
      "or",
      "a "
    ],
    [
      "compl",
      "et"
    ],
    [
      "memóri",
      "a "
    ],
    [
      "s",
      "ent"
    ],
    [
      "l",
      "iv"
    ],
    [
      "ic",
      "amente "
    ],
    [
      "ado ",
      "para "
    ],
    [
      "em inglê",
      "s"
    ],
    [
      "f",
      "il"
    ],
    [
      "E",
      "st"
    ],
    [
      ". ",
      "Uma "
    ],
    [
      "I",
      " "
    ],
    [
      "ment",
      "e, "
    ],
    [
      "on",
      "g"
    ],
    [
      "pr",
      "et"
    ],
    [
      "mai",
      "or "
    ],
    [
      "ant",
      "eri"
    ],
    [
      "emp",
      "enh"
    ],
    [
      "doc",
      "ument"
    ],
    [
      "p",
      "en"
    ],
    [
      "0",
      "\n"
    ],
    [
      "idad",
      "e, "
    ],
    [
      "é ",
      "cham"
    ],
    [
      "comp",
      "ort"
    ],
    [
      "tod",
      "as as "
    ],
    [
      "model",
      "os "
    ],
    [
      "...\n",
      ",\n"
    ],
    [
      ". ",
      "Os "
    ],
    [
      "informa",
      "ções "
    ],
    [
      "D",
      "i"
    ],
    [
      "m",
      "\n"
    ],
    [
      "Un",
      "ivers"
    ],
    [
      "19",
      "7"
    ],
    [
      ". Por ",
      "exemplo, "
    ],
    [
      "ência ",
      "da "
    ],
    [
      "ada ",
      "por "
    ],
    [
      "cu",
      "j"
    ],
    [
      "aci",
      "dade "
    ],
    [
      "G",
      "r"
    ],
    [
      "y",
      ", "
    ],
    [
      "redes ",
      "neurais "
    ],
    [
      "os ",
      "da "
    ],
    [
      "e",
      "i"
    ],
    [
      "ti",
      "m"
    ],
    [
      ".\nA",
      "s "
    ],
    [
      "p",
      "\n"
    ],
    [
      "á",
      "r"
    ],
    [
      "a",
      "-se "
    ],
    [
      "c",
      "er"
    ],
    [
      "a ",
      "re"
    ],
    [
      "a",
      "pro"
    ],
    [
      "[",
      "\n"
    ],
    [
      ". ",
      "Um "
    ],
    [
      "í",
      "vel"
    ],
    [
      "ic",
      "o "
    ],
    [
      "l",
      " "
    ],
    [
      "téc",
      "nic"
    ],
    [
      "posi",
      "tiv"
    ],
    [
      "dad",
      "os, "
    ],
    [
      "as ",
      "são "
    ],
    [
      "especi",
      "fic"
    ],
    [
      "al",
      "ter"
    ],
    [
      ".\n",
      "M"
    ],
    [
      "e",
      "di"
    ],
    [
      "recur",
      "siv"
    ],
    [
      "o",
      "nt"
    ],
    [
      "sej",
      "a, "
    ],
    [
      "al ",
      "do "
    ],
    [
      "des",
      "empenh"
    ],
    [
      "ados ",
      "em "
    ],
    [
      "e",
      "fici"
    ],
    [
      "or",
      "gan"
    ],
    [
      "sistem",
      "as de "
    ],
    [
      "n",
      "g"
    ],
    [
      "f",
      "\n(\n"
    ],
    [
      "z",
      " "
    ],
    [
      "númer",
      "o "
    ],
    [
      "ad",
      "as de "
    ],
    [
      ". E",
      "ss"
    ],
    [
      "in",
      "fer"
    ],
    [
      "em",
      "b"
    ],
    [
      "mul",
      "tiplic"
    ],
    [
      "mé",
      "todo "
    ],
    [
      "T",
      "\n"
    ],
    [
      "P",
      "\n"
    ],
    [
      "est",
      "ado "
    ],
    [
      "process",
      "o de "
    ],
    [
      "ima",
      "g"
    ],
    [
      "ist",
      "o "
    ],
    [
      "es",
      "col"
    ],
    [
      "n",
      "atur"
    ],
    [
      "em",
      "\n"
    ],
    [
      ".\n",
      "Uma "
    ],
    [
      "P",
      "yth"
    ],
    [
      "n",
      "ível "
    ],
    [
      "d",
      "om"
    ],
    [
      "ac",
      "or"
    ],
    [
      "a ",
      "ou "
    ],
    [
      "i",
      "co"
    ],
    [
      "je",
      "tiv"
    ],
    [
      "dis",
      "c"
    ],
    [
      "E",
      " "
    ],
    [
      "o ",
      "a "
    ],
    [
      "ar ",
      "os "
    ],
    [
      "não ",
      "é "
    ],
    [
      "b",
      "o"
    ],
    [
      "te",
      "orem"
    ],
    [
      "ent",
      "e"
    ],
    [
      "fer",
      "r"
    ],
    [
      "s",
      "it"
    ],
    [
      "qu",
      "e\n"
    ],
    [
      "acor",
      "do "
    ],
    [
      "-",
      "l"
    ],
    [
      "d",
      "ens"
    ],
    [
      "ada ",
      "para "
    ],
    [
      "1",
      ", "
    ],
    [
      "ção",
      "\n"
    ],
    [
      "ger",
      "almente "
    ],
    [
      ". A",
      "l"
    ],
    [
      "O",
      "pen"
    ],
    [
      "esp",
      "ec"
    ],
    [
      "sej",
      "a "
    ],
    [
      "vi",
      "do "
    ],
    [
      "os ",
      "que "
    ],
    [
      "i",
      "an"
    ],
    [
      "c",
      "í"
    ],
    [
      "u",
      "tr"
    ],
    [
      "as ",
      "da "
    ],
    [
      "pl",
      "an"
    ],
    [
      "e ",
      "("
    ],
    [
      "ib",
      "li"
    ],
    [
      ".\n",
      "Os "
    ],
    [
      "r",
      "o"
    ],
    [
      "e ",
      "do "
    ],
    [
      "ad",
      "os, "
    ],
    [
      "j",
      "á "
    ],
    [
      "assi",
      "fic"
    ],
    [
      "n",
      "ot"
    ],
    [
      "er",
      "a "
    ],
    [
      "h",
      "á "
    ],
    [
      "ti",
      "co"
    ],
    [
      "gradi",
      "ente "
    ],
    [
      "orig",
      "in"
    ],
    [
      "ot",
      "ec"
    ],
    [
      "ação ",
      "e "
    ],
    [
      "19",
      "8"
    ],
    [
      "me",
      "tr"
    ],
    [
      "cor",
      "respon"
    ],
    [
      "en",
      "quanto "
    ],
    [
      "ad",
      "icion"
    ],
    [
      "ab",
      "ord"
    ],
    [
      "dire",
      "t"
    ],
    [
      "pr",
      "átic"
    ],
    [
      "difer",
      "enci"
    ],
    [
      "ferr",
      "ament"
    ],
    [
      "à",
      "s "
    ],
    [
      "pod",
      "er"
    ],
    [
      "ç",
      "ões"
    ],
    [
      "ar ",
      "um "
    ],
    [
      "0",
      ", "
    ],
    [
      "am",
      "pl"
    ],
    [
      "for",
      "nec"
    ],
    [
      "c",
      "entr"
    ],
    [
      "19",
      "5"
    ],
    [
      "vértic",
      "es "
    ],
    [
      "\n,\n",
      "y"
    ],
    [
      "algorit",
      "mos "
    ],
    [
      "grá",
      "fic"
    ],
    [
      "ibli",
      "otec"
    ],
    [
      "como ",
      "um "
    ],
    [
      "gran",
      "de "
    ],
    [
      ". I",
      "SBN "
    ],
    [
      "al",
      "ist"
    ],
    [
      "ord",
      "em "
    ],
    [
      "t",
      "ecnolog"
    ],
    [
      "ais ",
      "de "
    ],
    [
      "segur",
      "anç"
    ],
    [
      "defin",
      "ida "
    ],
    [
      "s",
      "\n"
    ],
    [
      "m",
      "ar"
    ],
    [
      "â",
      "nt"
    ],
    [
      "el",
      "a "
    ],
    [
      "g",
      "i"
    ],
    [
      "D",
      "e"
    ],
    [
      "di",
      "vers"
    ],
    [
      "m",
      "ostr"
    ],
    [
      "e ",
      "da "
    ],
    [
      "S",
      "t"
    ],
    [
      "sti",
      "t"
    ],
    [
      "tr",
      "at"
    ],
    [
      "por ",
      "um "
    ],
    [
      "lin",
      "ear "
    ],
    [
      "prop",
      "ag"
    ],
    [
      "e ",
      "e "
    ],
    [
      "conce",
      "it"
    ],
    [
      "al",
      "t"
    ],
    [
      ". P",
      "ar"
    ],
    [
      "a",
      "ument"
    ],
    [
      "res",
      "post"
    ],
    [
      "problem",
      "a "
    ],
    [
      "os",
      "\n"
    ],
    [
      "a",
      "x"
    ],
    [
      "m",
      "os de "
    ],
    [
      "d",
      "é"
    ],
    [
      "20",
      "2"
    ],
    [
      "inter",
      "pret"
    ],
    [
      ". A",
      "s "
    ],
    [
      "qu",
      "ais "
    ],
    [
      "â",
      "metr"
    ],
    [
      "com",
      "bin"
    ],
    [
      "cl",
      "us"
    ],
    [
      "N",
      "e"
    ],
    [
      "O",
      "utr"
    ],
    [
      "mé",
      "di"
    ],
    [
      "i",
      "\n,\n"
    ],
    [
      "igu",
      "al "
    ],
    [
      "si",
      "on"
    ],
    [
      ", ",
      "em "
    ],
    [
      "19",
      "6"
    ],
    [
      "que ",
      "os "
    ],
    [
      "d",
      "est"
    ],
    [
      "par",
      "âmetr"
    ],
    [
      "d",
      "ur"
    ],
    [
      "d",
      "em"
    ],
    [
      "em",
      "pres"
    ],
    [
      "E",
      "x"
    ],
    [
      "ament",
      "e"
    ],
    [
      ". N",
      "o "
    ],
    [
      "l",
      "ic"
    ],
    [
      "mu",
      "itas "
    ],
    [
      "4",
      " "
    ],
    [
      "ati",
      "on"
    ],
    [
      "n",
      "ão"
    ],
    [
      "a",
      "-"
    ],
    [
      "t",
      "ais "
    ],
    [
      "cl",
      "assific"
    ],
    [
      "ess",
      "es "
    ],
    [
      "b",
      "il"
    ],
    [
      ". ",
      "M"
    ],
    [
      "ent",
      "anto, "
    ],
    [
      "ão ",
      "de "
    ],
    [
      "sol",
      "u"
    ],
    [
      "su",
      "port"
    ],
    [
      "er",
      "am "
    ],
    [
      "r",
      "\n"
    ],
    [
      "it",
      "et"
    ],
    [
      "til",
      "h"
    ],
    [
      "ar",
      "d"
    ],
    [
      "aç",
      "ões"
    ],
    [
      "o",
      ": "
    ],
    [
      "cos ",
      "de "
    ],
    [
      "us",
      "adas "
    ],
    [
      "l",
      "ong"
    ],
    [
      "e",
      "b"
    ],
    [
      "a",
      "present"
    ],
    [
      "o de ",
      "um "
    ],
    [
      "is",
      "tr"
    ],
    [
      "com",
      "eç"
    ],
    [
      "em ",
      "a "
    ],
    [
      "faz",
      "er "
    ],
    [
      "mb",
      "ol"
    ],
    [
      "ob",
      "jetiv"
    ],
    [
      "conjunt",
      "o "
    ],
    [
      "ce",
      "b"
    ],
    [
      "oc",
      "orr"
    ],
    [
      "P",
      "\n(\n"
    ],
    [
      "al ",
      "e "
    ],
    [
      "f",
      "is"
    ],
    [
      "g",
      "ar"
    ],
    [
      "al",
      "mente, "
    ],
    [
      "itet",
      "ur"
    ],
    [
      "o ",
      "para "
    ],
    [
      "ad",
      "a. "
    ],
    [
      "assi",
      "m "
    ],
    [
      "sem",
      "elh"
    ],
    [
      "s",
      "p"
    ],
    [
      "a m",
      "es"
    ],
    [
      "Y",
      "\n"
    ],
    [
      "ain",
      "da "
    ],
    [
      "ou ",
      "seja, "
    ],
    [
      "a",
      ") "
    ],
    [
      "dé",
      "cada "
    ],
    [
      " ",
      "S"
    ],
    [
      "est",
      "ud"
    ],
    [
      "estu",
      "do "
    ],
    [
      "í",
      "fic"
    ],
    [
      "P",
      "U"
    ],
    [
      "complex",
      "idade "
    ],
    [
      "cas",
      "o "
    ],
    [
      "ident",
      "ific"
    ],
    [
      "sí",
      "mbol"
    ],
    [
      ". E",
      "x"
    ],
    [
      "as ",
      "em "
    ],
    [
      "res",
      "tr"
    ],
    [
      "co",
      "b"
    ],
    [
      "n",
      "o"
    ],
    [
      "j",
      "og"
    ],
    [
      "con",
      "ex"
    ],
    [
      "neur",
      "ôni"
    ],
    [
      "produt",
      "o "
    ],
    [
      "ou ",
      "o "
    ],
    [
      "v",
      "ários "
    ],
    [
      "s",
      "ing"
    ],
    [
      "ter",
      "mo "
    ],
    [
      "anal",
      "is"
    ],
    [
      "in",
      "u"
    ],
    [
      "vetori",
      "al "
    ],
    [
      "escol",
      "h"
    ],
    [
      "recur",
      "s"
    ],
    [
      "man",
      "eir"
    ],
    [
      "década ",
      "de "
    ],
    [
      "V",
      "\n"
    ],
    [
      "int",
      "rod"
    ],
    [
      "inter",
      "val"
    ],
    [
      "Pro",
      "gram"
    ],
    [
      "it",
      "er"
    ],
    [
      " (",
      "em inglês"
    ],
    [
      "gr",
      "up"
    ],
    [
      "b",
      "ibliotec"
    ],
    [
      "linguagem ",
      "de "
    ],
    [
      "comput",
      "ador"
    ],
    [
      "que ",
      "as "
    ],
    [
      "as ",
      "para "
    ],
    [
      "agem ",
      "de "
    ],
    [
      "vari",
      "áveis "
    ],
    [
      "em ",
      "relação "
    ],
    [
      "ent",
      "es"
    ],
    [
      "bas",
      "e "
    ],
    [
      "aplic",
      "ações "
    ],
    [
      "men",
      "os "
    ],
    [
      "v",
      "em "
    ],
    [
      "a mes",
      "ma "
    ],
    [
      "ob",
      "r"
    ],
    [
      "ic",
      "l"
    ],
    [
      "aut",
      "or"
    ],
    [
      "pu",
      "blic"
    ],
    [
      "ando ",
      "o "
    ],
    [
      "trans",
      "forma"
    ],
    [
      "di",
      "vid"
    ],
    [
      "u",
      "b"
    ],
    [
      "\n2",
      "\n)\n"
    ],
    [
      "últi",
      "pl"
    ],
    [
      "á",
      "veis"
    ],
    [
      "en",
      "g"
    ],
    [
      "ó",
      " "
    ],
    [
      "tr",
      "ês "
    ],
    [
      "qu",
      "e, "
    ],
    [
      "1",
      "8"
    ],
    [
      "b",
      "em "
    ],
    [
      "ver",
      "são "
    ],
    [
      "outr",
      "o "
    ],
    [
      "am ",
      "a "
    ],
    [
      "forma ",
      "de "
    ],
    [
      "neur",
      "al "
    ],
    [
      "m",
      "ov"
    ],
    [
      "di",
      "ag"
    ],
    [
      "f",
      "\n(\nx\n)\n"
    ],
    [
      "comp",
      "il"
    ],
    [
      "iv",
      "al"
    ],
    [
      "in",
      "stru"
    ],
    [
      "m",
      "ec"
    ],
    [
      "a",
      "trib"
    ],
    [
      "9",
      "7"
    ],
    [
      "ânci",
      "a "
    ],
    [
      "ar ",
      "as "
    ],
    [
      "ár",
      "v"
    ],
    [
      "am",
      "os "
    ],
    [
      "B",
      "\n"
    ],
    [
      "ac",
      "k"
    ],
    [
      "dig",
      "it"
    ],
    [
      "cam",
      "po "
    ],
    [
      "po",
      "t"
    ],
    [
      "m",
      "últipl"
    ],
    [
      "us",
      "o de "
    ],
    [
      "propried",
      "ad"
    ],
    [
      "at",
      "a "
    ],
    [
      "ChatGP",
      "T "
    ],
    [
      "ci",
      "ent"
    ],
    [
      "anális",
      "e de "
    ],
    [
      "des",
      "envol"
    ],
    [
      "mu",
      "itos "
    ],
    [
      "o",
      "tim"
    ],
    [
      "t",
      "exto "
    ],
    [
      "si",
      "nt"
    ],
    [
      ". ",
      "("
    ],
    [
      "conheciment",
      "o de "
    ],
    [
      "e ",
      "um "
    ],
    [
      "r",
      " "
    ],
    [
      "que ",
      "se "
    ],
    [
      "es",
      "qu"
    ],
    [
      "con",
      "ect"
    ],
    [
      "t",
      "este "
    ],
    [
      "sobr",
      "e o "
    ],
    [
      "\n2",
      "\n,\n"
    ],
    [
      "J",
      "o"
    ],
    [
      "compar",
      "tilh"
    ],
    [
      "E",
      "m "
    ],
    [
      "E",
      "R"
    ],
    [
      "am",
      "anh"
    ],
    [
      "n",
      "\n)\n"
    ],
    [
      "ênci",
      "as "
    ],
    [
      "des",
      "de "
    ],
    [
      "p",
      "ú"
    ],
    [
      "el",
      " "
    ],
    [
      "cripto",
      "graf"
    ],
    [
      "cap",
      "acidade "
    ],
    [
      ")",
      ".\n"
    ],
    [
      "a",
      "par"
    ],
    [
      "Com",
      "o "
    ],
    [
      "Par",
      "a "
    ],
    [
      "ais ",
      "e "
    ],
    [
      "d",
      "in"
    ],
    [
      "as",
      "\n"
    ],
    [
      "m",
      "et"
    ],
    [
      "ol",
      "óg"
    ],
    [
      "ão",
      "\n"
    ],
    [
      "ev",
      "ent"
    ],
    [
      "organ",
      "iz"
    ],
    [
      "m",
      "ens"
    ],
    [
      ". E",
      "nt"
    ],
    [
      "on",
      ", "
    ],
    [
      "é",
      ", "
    ],
    [
      "av",
      "a "
    ],
    [
      "v",
      "ist"
    ],
    [
      "h",
      "i"
    ],
    [
      "Pr",
      "oc"
    ],
    [
      "cl",
      "as"
    ],
    [
      "sem",
      "pr"
    ],
    [
      "d",
      "ado "
    ],
    [
      "al ",
      "da "
    ],
    [
      "frequ",
      "entemente "
    ],
    [
      "om",
      "ent"
    ],
    [
      "tr",
      "o"
    ],
    [
      "us",
      "o "
    ],
    [
      "b",
      "it"
    ],
    [
      "s",
      "éri"
    ],
    [
      "dom",
      "íni"
    ],
    [
      "to",
      "k"
    ],
    [
      "0",
      "0"
    ],
    [
      "ess",
      "as "
    ],
    [
      "al ",
      "("
    ],
    [
      "em",
      "br"
    ],
    [
      "t",
      "\n)\n"
    ],
    [
      "2",
      ", "
    ],
    [
      "c",
      "at"
    ],
    [
      "cí",
      "pi"
    ],
    [
      "as",
      "su"
    ],
    [
      "ne",
      "g"
    ],
    [
      "acess",
      "o "
    ],
    [
      "i",
      "a de "
    ],
    [
      "mo",
      "do "
    ],
    [
      "\n(\nx",
      "\n,\ny"
    ],
    [
      "w",
      " "
    ],
    [
      "os ",
      "são "
    ],
    [
      "aplic",
      "ação "
    ],
    [
      "t",
      "om"
    ],
    [
      "permit",
      "e "
    ],
    [
      "ver",
      "ific"
    ],
    [
      "C",
      "o"
    ],
    [
      "at",
      "enção "
    ],
    [
      "t",
      "ent"
    ],
    [
      "t",
      "amanh"
    ],
    [
      "s",
      "o, "
    ],
    [
      "ados ",
      "de "
    ],
    [
      "é",
      "cul"
    ],
    [
      "ar",
      "ia "
    ],
    [
      "possu",
      "i "
    ],
    [
      "softwar",
      "e "
    ],
    [
      "B",
      "r"
    ],
    [
      "lóg",
      "ic"
    ],
    [
      "su",
      "c"
    ],
    [
      "m",
      "oment"
    ],
    [
      "ist",
      "em"
    ],
    [
      "m",
      "on"
    ],
    [
      "liv",
      "r"
    ],
    [
      "s",
      "ur"
    ],
    [
      "C",
      "i"
    ],
    [
      "Jo",
      "h"
    ],
    [
      "conheci",
      "do "
    ],
    [
      "abil",
      "idade "
    ],
    [
      "pol",
      "ític"
    ],
    [
      "0",
      "-"
    ],
    [
      "5",
      " "
    ],
    [
      "ran",
      "s"
    ],
    [
      "m",
      "ó"
    ],
    [
      "o",
      ":\n"
    ],
    [
      "g",
      "unt"
    ],
    [
      "ri",
      "g"
    ],
    [
      "in",
      "st"
    ],
    [
      "defini",
      "ção "
    ],
    [
      "z",
      "er"
    ],
    [
      "fun",
      "ções de "
    ],
    [
      "ad",
      "a\n"
    ],
    [
      "sistem",
      "a de "
    ],
    [
      "for",
      "ç"
    ],
    [
      "el",
      "l"
    ],
    [
      "ver",
      "dad"
    ],
    [
      "dis",
      "pon"
    ],
    [
      "ab",
      "or"
    ],
    [
      "cl",
      "ass"
    ],
    [
      "si",
      "do "
    ],
    [
      "não",
      "-"
    ],
    [
      "S",
      " "
    ],
    [
      "o",
      "ver"
    ],
    [
      "di",
      "f"
    ],
    [
      "vel",
      "oci"
    ],
    [
      "enç",
      "a "
    ],
    [
      "st",
      "o "
    ],
    [
      "b",
      "\n"
    ],
    [
      "equ",
      "ival"
    ],
    [
      "ando ",
      "a "
    ],
    [
      "som",
      "ente "
    ],
    [
      "8",
      "-"
    ],
    [
      "os ",
      "("
    ],
    [
      "que ",
      "não "
    ],
    [
      "A",
      "s "
    ],
    [
      "sob",
      " "
    ],
    [
      "ant",
      "o "
    ],
    [
      "\n1",
      "\n)\n"
    ],
    [
      "L",
      " "
    ],
    [
      "por",
      "\n"
    ],
    [
      "ec",
      "tiv"
    ],
    [
      "pro",
      "te"
    ],
    [
      "ex",
      "plic"
    ],
    [
      "á",
      "p"
    ],
    [
      "defin",
      "id"
    ],
    [
      "arg",
      "ument"
    ],
    [
      "distribui",
      "ções "
    ],
    [
      "V",
      " "
    ],
    [
      "teoria ",
      "da "
    ],
    [
      "m",
      "un"
    ],
    [
      "u",
      "g"
    ],
    [
      "cor",
      "por"
    ],
    [
      "n",
      "um "
    ],
    [
      "á",
      "s"
    ],
    [
      "as ",
      "("
    ],
    [
      "as",
      "e "
    ],
    [
      "ar",
      ", "
    ],
    [
      "alg",
      "umas "
    ],
    [
      "c",
      "ert"
    ],
    [
      "variável ",
      "aleatóri"
    ],
    [
      "sej",
      "am "
    ],
    [
      "des",
      "cob"
    ],
    [
      "a m",
      "áquin"
    ],
    [
      "Int",
      "ern"
    ],
    [
      "ec",
      "e "
    ],
    [
      "des",
      "cre"
    ],
    [
      "v",
      "í"
    ],
    [
      "1",
      "-"
    ],
    [
      "C",
      "ar"
    ],
    [
      "T",
      "rans"
    ],
    [
      "sempr",
      "e "
    ],
    [
      "ma",
      "nt"
    ],
    [
      "idad",
      "es de "
    ],
    [
      "ado ",
      "por "
    ],
    [
      "tem",
      "po"
    ],
    [
      "dire",
      "it"
    ],
    [
      "ci",
      "r"
    ],
    [
      "as ",
      "do "
    ],
    [
      "inteligência ",
      "artifici"
    ],
    [
      "c",
      "icl"
    ],
    [
      "gr",
      "a"
    ],
    [
      "escal",
      "ar "
    ],
    [
      "W",
      "\n"
    ],
    [
      "f",
      "ór"
    ],
    [
      "program",
      "a "
    ],
    [
      "et",
      "c"
    ],
    [
      "entr",
      "adas "
    ],
    [
      "am",
      "ostr"
    ],
    [
      "ed",
      " "
    ],
    [
      "a",
      ":\n"
    ],
    [
      "inv",
      "esti"
    ],
    [
      "cur",
      "s"
    ],
    [
      "m",
      "á"
    ],
    [
      "N",
      "o "
    ],
    [
      "inclu",
      "indo "
    ],
    [
      "P",
      " "
    ],
    [
      "u",
      "ção de "
    ],
    [
      "con",
      "fi"
    ],
    [
      "c",
      "\n"
    ],
    [
      "in",
      "vers"
    ],
    [
      "p",
      "o de "
    ],
    [
      "M",
      "at"
    ],
    [
      "ag",
      "em"
    ],
    [
      "i",
      "a, "
    ],
    [
      "arqu",
      "itetur"
    ],
    [
      "d",
      "icion"
    ],
    [
      "simpl",
      "es"
    ],
    [
      "con",
      "str"
    ],
    [
      "pos",
      "si"
    ],
    [
      "es",
      "per"
    ],
    [
      "que ",
      "um "
    ],
    [
      "ação",
      "\n"
    ],
    [
      "i",
      "on"
    ],
    [
      "distribuição de ",
      "probabilidade "
    ],
    [
      "par",
      "ad"
    ],
    [
      "ig",
      "ur"
    ],
    [
      "im",
      "p"
    ],
    [
      "com",
      "um "
    ],
    [
      "D",
      " "
    ],
    [
      "ex",
      "pl"
    ],
    [
      "I",
      "A"
    ],
    [
      "s",
      "écul"
    ],
    [
      "tir",
      " "
    ],
    [
      "le",
      "g"
    ],
    [
      "an",
      "os "
    ],
    [
      "r",
      "a"
    ],
    [
      "\n(\n",
      ")\n"
    ],
    [
      "conheciment",
      "o "
    ],
    [
      "ente ",
      "de "
    ],
    [
      ".\n",
      "Um "
    ],
    [
      " ",
      "do "
    ],
    [
      "en",
      " "
    ],
    [
      "int",
      "eir"
    ],
    [
      "uma ",
      "função "
    ],
    [
      "ad",
      "as, "
    ],
    [
      "ada ",
      "a "
    ],
    [
      "sol",
      "ução "
    ],
    [
      "ín",
      "im"
    ],
    [
      "c",
      "é"
    ],
    [
      "especi",
      "alist"
    ],
    [
      "col",
      "un"
    ],
    [
      "entr",
      "op"
    ],
    [
      "tip",
      "os de "
    ],
    [
      "d",
      "ec"
    ],
    [
      "con",
      "stru"
    ],
    [
      "amb",
      "i"
    ],
    [
      "4",
      "\n"
    ],
    [
      "ados ",
      "para "
    ],
    [
      "perm",
      "i"
    ],
    [
      "ões ",
      "de "
    ],
    [
      "n",
      "ós "
    ],
    [
      "algorit",
      "mo de "
    ],
    [
      "super",
      "i"
    ],
    [
      "\n(\n",
      "1"
    ],
    [
      "con",
      "st"
    ],
    [
      "C",
      "\n"
    ],
    [
      "cam",
      "inh"
    ],
    [
      "e",
      "ú"
    ],
    [
      "U",
      "\n"
    ],
    [
      "in",
      " "
    ],
    [
      "h",
      "om"
    ],
    [
      "ab",
      "str"
    ],
    [
      "mé",
      "todos "
    ],
    [
      "d",
      "ul"
    ],
    [
      "tip",
      "o de "
    ],
    [
      "espaç",
      "o de "
    ],
    [
      "c",
      "ab"
    ],
    [
      "t",
      "ext"
    ],
    [
      "com ",
      "um "
    ],
    [
      "u",
      "aliz"
    ],
    [
      "proc",
      "ed"
    ],
    [
      "o, ",
      "a "
    ],
    [
      "grá",
      "fi"
    ],
    [
      "uí",
      "do "
    ],
    [
      "ser",
      "á "
    ],
    [
      "T",
      "e"
    ],
    [
      "d",
      "ic"
    ],
    [
      "cont",
      "eú"
    ],
    [
      "w",
      "\n"
    ],
    [
      ".",
      ", "
    ],
    [
      "S",
      "o"
    ],
    [
      "ent",
      "e, "
    ],
    [
      "h",
      "ist"
    ],
    [
      "C",
      "PU"
    ],
    [
      "ar",
      "t"
    ],
    [
      "sequ",
      "ência de "
    ],
    [
      "simpl",
      "es "
    ],
    [
      "f",
      "am"
    ],
    [
      "nic",
      "o "
    ],
    [
      "ênci",
      "a, "
    ],
    [
      "f",
      "ís"
    ],
    [
      "est",
      "ados "
    ],
    [
      "re",
      "corr"
    ],
    [
      "é",
      "tic"
    ],
    [
      "rede ",
      "neural "
    ],
    [
      "pr",
      "iv"
    ],
    [
      "F",
      "or"
    ],
    [
      "E",
      "\n"
    ],
    [
      "ad",
      "equ"
    ],
    [
      "b",
      "an"
    ],
    [
      "L",
      "óg"
    ],
    [
      "e",
      "u "
    ],
    [
      "propriedad",
      "es "
    ],
    [
      "l",
      "o"
    ],
    [
      "al",
      "l"
    ],
    [
      "Pr",
      "ob"
    ],
    [
      "vet",
      "or"
    ],
    [
      "x",
      "\n)\n"
    ],
    [
      "ap",
      "ós "
    ],
    [
      "para ",
      "uma "
    ],
    [
      "o ",
      "ou "
    ],
    [
      "vis",
      "ão "
    ],
    [
      "sem",
      "ânt"
    ],
    [
      "an",
      "is"
    ],
    [
      "t",
      "abel"
    ],
    [
      "ant",
      "e"
    ],
    [
      "8",
      "5"
    ],
    [
      "dis",
      "so, "
    ],
    [
      "d",
      "ada "
    ],
    [
      "prin",
      "cípi"
    ],
    [
      "iss",
      "o "
    ],
    [
      "ular",
      "es "
    ],
    [
      "suc",
      "ess"
    ],
    [
      "introd",
      "uz"
    ],
    [
      "eng",
      "enh"
    ],
    [
      "import",
      "ante "
    ],
    [
      "a",
      "\""
    ],
    [
      "a",
      "\n)\n"
    ],
    [
      "é ",
      "us"
    ],
    [
      "pró",
      "pri"
    ],
    [
      "os ",
      "em "
    ],
    [
      "disc",
      "ret"
    ],
    [
      "palavr",
      "as "
    ],
    [
      "adas ",
      "por "
    ],
    [
      "correspon",
      "d"
    ],
    [
      "o de ",
      "uma "
    ],
    [
      "n",
      "ul"
    ],
    [
      "f",
      "igur"
    ],
    [
      "cálcul",
      "o "
    ],
    [
      "po",
      "p"
    ],
    [
      "máquin",
      "a de "
    ],
    [
      "l",
      "anç"
    ],
    [
      "a, ",
      "a "
    ],
    [
      "ori",
      "ent"
    ],
    [
      "Th",
      "e "
    ],
    [
      "c",
      "ad"
    ],
    [
      "aut",
      "om"
    ],
    [
      "es",
      "cre"
    ],
    [
      "átic",
      "a "
    ],
    [
      "process",
      "amento "
    ],
    [
      "l",
      "e "
    ],
    [
      "»",
      " (em inglês"
    ],
    [
      "dados ",
      "de "
    ],
    [
      "den",
      "ot"
    ],
    [
      "ê",
      " "
    ],
    [
      "per",
      "gunt"
    ],
    [
      ", ",
      "mas "
    ],
    [
      "m",
      "ínim"
    ],
    [
      "f",
      "ac"
    ],
    [
      "I",
      "S"
    ],
    [
      "seguint",
      "e "
    ],
    [
      "af",
      "ir"
    ],
    [
      "sit",
      "u"
    ],
    [
      "ó",
      "s"
    ],
    [
      "n",
      "um"
    ],
    [
      "gar",
      "ant"
    ],
    [
      "cr",
      "it"
    ],
    [
      "comport",
      "amento "
    ],
    [
      "á",
      "-l"
    ],
    [
      "g",
      "e "
    ],
    [
      "clas",
      "se "
    ],
    [
      "t",
      "es"
    ],
    [
      "ar ",
      "e "
    ],
    [
      "gener",
      "aliz"
    ],
    [
      "din",
      "â"
    ],
    [
      "dire",
      "cion"
    ],
    [
      "flu",
      "x"
    ],
    [
      "e",
      "p"
    ],
    [
      "ter",
      "mos "
    ],
    [
      "al",
      "idade "
    ],
    [
      "Al",
      "g"
    ],
    [
      "ui",
      " "
    ],
    [
      "sécul",
      "o "
    ],
    [
      "inclu",
      "em "
    ],
    [
      "b",
      "anc"
    ],
    [
      "ef",
      "e"
    ],
    [
      "ti",
      "do "
    ],
    [
      "z",
      "\n)\n"
    ],
    [
      "x",
      "\n2\n"
    ],
    [
      "I",
      "\n"
    ],
    [
      "Joh",
      "n "
    ],
    [
      "x",
      "i"
    ],
    [
      "Proc",
      "ess"
    ],
    [
      "mó",
      "dul"
    ],
    [
      "e ",
      "os "
    ],
    [
      "possi",
      "bil"
    ],
    [
      "model",
      "o de "
    ],
    [
      "ú",
      "nica "
    ],
    [
      "se",
      "\n"
    ],
    [
      "ss",
      "im"
    ],
    [
      "e",
      "tr"
    ],
    [
      "R",
      "A"
    ],
    [
      "as",
      "t"
    ],
    [
      "con",
      "di"
    ],
    [
      "chav",
      "e "
    ],
    [
      "l",
      "\n"
    ],
    [
      "ec",
      "h"
    ],
    [
      "b",
      "aix"
    ],
    [
      "adas ",
      "em "
    ],
    [
      "f",
      "alh"
    ],
    [
      "cont",
      "inu"
    ],
    [
      "ati",
      "on "
    ],
    [
      "ex",
      "ig"
    ],
    [
      "v",
      "oc"
    ],
    [
      "ti",
      "po "
    ],
    [
      "6",
      " "
    ],
    [
      "cons",
      "ult"
    ],
    [
      "ín",
      "gu"
    ],
    [
      "result",
      "ado "
    ],
    [
      "process",
      "o "
    ],
    [
      "t",
      "enh"
    ],
    [
      "ent",
      "es, "
    ],
    [
      "os ",
      "para "
    ],
    [
      "ent",
      "es de "
    ],
    [
      "RN",
      "N"
    ],
    [
      "un",
      "d"
    ],
    [
      "mai",
      "oria "
    ],
    [
      "M",
      "ic"
    ],
    [
      "de",
      "vem "
    ],
    [
      "s",
      "ec"
    ],
    [
      "ar ",
      "de "
    ],
    [
      "com ",
      "uma "
    ],
    [
      "re",
      "de"
    ],
    [
      "fund",
      "ament"
    ],
    [
      "ari",
      "a de "
    ],
    [
      "D",
      "\n"
    ],
    [
      "auto",
      "valores "
    ],
    [
      "máquin",
      "a "
    ],
    [
      ". Par",
      "a "
    ],
    [
      "cap",
      "az"
    ],
    [
      "ist",
      "em "
    ],
    [
      "am ",
      "o "
    ],
    [
      "d",
      "el"
    ],
    [
      "M",
      "od"
    ],
    [
      "e",
      "-"
    ],
    [
      "a ",
      "no "
    ],
    [
      "on",
      "str"
    ],
    [
      "to",
      "t"
    ],
    [
      "Mar",
      "k"
    ],
    [
      "3",
      ", "
    ],
    [
      "D",
      "es"
    ],
    [
      "idad",
      "e\n"
    ],
    [
      "m",
      "ica "
    ],
    [
      "os",
      "o"
    ],
    [
      "fór",
      "mul"
    ],
    [
      "\n1",
      "\n2\n"
    ],
    [
      "iment",
      "o "
    ],
    [
      "dis",
      "positiv"
    ],
    [
      ". Al",
      "g"
    ],
    [
      "parad",
      "ig"
    ],
    [
      "r",
      "aci"
    ],
    [
      "In",
      "forma"
    ],
    [
      "e",
      "or"
    ],
    [
      "19",
      "4"
    ],
    [
      "o de ",
      "202"
    ],
    [
      "h",
      "ou"
    ],
    [
      "express",
      "ão "
    ],
    [
      "(",
      "x"
    ],
    [
      ". ",
      "É "
    ],
    [
      "ci",
      "ência da "
    ],
    [
      "faz",
      " "
    ],
    [
      "c",
      "aus"
    ],
    [
      "pel",
      "os "
    ],
    [
      "co",
      ", "
    ],
    [
      "matriz",
      " de "
    ],
    [
      "a.\n",
      "A "
    ],
    [
      "me",
      "di"
    ],
    [
      "h",
      "av"
    ],
    [
      "w",
      "or"
    ],
    [
      "étr",
      "ic"
    ],
    [
      "ç",
      "ões, "
    ],
    [
      "ss",
      "o "
    ],
    [
      "i",
      "\n)\n"
    ],
    [
      "r",
      "áp"
    ],
    [
      ". I",
      "sto "
    ],
    [
      "So",
      "ftwar"
    ],
    [
      "\n(\n",
      "X"
    ],
    [
      "dire",
      "itos "
    ],
    [
      "Open",
      "A"
    ],
    [
      "ve",
      "u "
    ],
    [
      "id",
      "e"
    ]
  ],
  "stoi": {
    "<unk>": 0,
    "\n": 1,
    " ": 2,
    "!": 3,
    "\"": 4,
    "%": 5,
    "'": 6,
    "(": 7,
    ")": 8,
    ",": 9,
    "-": 10,
    ".": 11,
    "/": 12,
    "0": 13,
    "1": 14,
    "2": 15,
    "3": 16,
    "4": 17,
    "5": 18,
    "6": 19,
    "7": 20,
    "8": 21,
    "9": 22,
    ":": 23,
    ";": 24,
    "?": 25,
    "A": 26,
    "B": 27,
    "C": 28,
    "D": 29,
    "E": 30,
    "F": 31,
    "G": 32,
    "H": 33,
    "I": 34,
    "J": 35,
    "K": 36,
    "L": 37,
    "M": 38,
    "N": 39,
    "O": 40,
    "P": 41,
    "Q": 42,
    "R": 43,
    "S": 44,
    "T": 45,
    "U": 46,
    "V": 47,
    "W": 48,
    "X": 49,
    "Y": 50,
    "Z": 51,
    "[": 52,
    "]": 53,
    "a": 54,
    "b": 55,
    "c": 56,
    "d": 57,
    "e": 58,
    "f": 59,
    "g": 60,
    "h": 61,
    "i": 62,
    "j": 63,
    "k": 64,
    "l": 65,
    "m": 66,
    "n": 67,
    "o": 68,
    "p": 69,
    "q": 70,
    "r": 71,
    "s": 72,
    "t": 73,
    "u": 74,
    "v": 75,
    "w": 76,
    "x": 77,
    "y": 78,
    "z": 79,
    "«": 80,
    "»": 81,
    "À": 82,
    "Á": 83,
    "Ã": 84,
    "Ç": 85,
    "É": 86,
    "Í": 87,
    "Ó": 88,
    "Ô": 89,
    "Õ": 90,
    "Ú": 91,
    "à": 92,
    "á": 93,
    "â": 94,
    "ã": 95,
    "ä": 96,
    "ç": 97,
    "è": 98,
    "é": 99,
    "ê": 100,
    "í": 101,
    "î": 102,
    "ï": 103,
    "ð": 104,
    "ñ": 105,
    "ó": 106,
    "ô": 107,
    "õ": 108,
    "ö": 109,
    "ø": 110,
    "ú": 111,
    "ü": 112,
    "‘": 113,
    "’": 114,
    "“": 115,
    "”": 116,
    "o ": 117,
    "e ": 118,
    "a ": 119,
    "s ": 120,
    "de ": 121,
    "nt": 122,
    "m ": 123,
    "or": 124,
    ", ": 125,
    "er": 126,
    "es": 127,
    "ar": 128,
    "ad": 129,
    "co": 130,
    "os ": 131,
    "ão ": 132,
    "al": 133,
    "as ": 134,
    "ent": 135,
    "in": 136,
    "qu": 137,
    "ic": 138,
    "pr": 139,
    "is": 140,
    "es ": 141,
    ". ": 142,
    "em ": 143,
    "ção ": 144,
    "re": 145,
    "ci": 146,
    "tr": 147,
    "an": 148,
    "em": 149,
    "en": 150,
    "am": 151,
    "do ": 152,
    "el": 153,
    "ti": 154,
    "ma ": 155,
    "par": 156,
    "com": 157,
    "po": 158,
    ".\n": 159,
    "it": 160,
    "id": 161,
    "as": 162,
    "pro": 163,
    "ma": 164,
    "que ": 165,
    "é ": 166,
    "da ": 167,
    "on": 168,
    "or ": 169,
    "um ": 170,
    "uma ": 171,
    "o de ": 172,
    "ação ": 173,
    "im": 174,
    "ou": 175,
    "con": 176,
    "ar ": 177,
    "is ": 178,
    "ex": 179,
    "pl": 180,
    "para ": 181,
    "er ": 182,
    "al ": 183,
    "ri": 184,
    "ur": 185,
    "os": 186,
    "di": 187,
    "et": 188,
    "ut": 189,
    "at": 190,
    "un": 191,
    "est": 192,
    "o, ": 193,
    "ul": 194,
    "ente ": 195,
    "ada ": 196,
    "ess": 197,
    "gr": 198,
    "ec": 199,
    "for": 200,
    ")\n": 201,
    "ist": 202,
    "iz": 203,
    "us": 204,
    "aç": 205,
    "ões ": 206,
    "a de ": 207,
    "ol": 208,
    "se": 209,
    "ou ": 210,
    "(\n": 211,
    "ant": 212,
    "de": 213,
    "ados ": 214,
    "ir": 215,
    "ab": 216,
    "\n)\n": 217,
    "\n(\n": 218,
    "il": 219,
    "ing": 220,
    ",\n": 221,
    "ado ": 222,
    "a, ": 223,
    "tic": 224,
    "ade ": 225,
    "od": 226,
    "su": 227,
    "A ": 228,
    "se ": 229,
    "são ": 230,
    "si": 231,
    "om": 232,
    "fic": 233,
    "com ": 234,
    "como ": 235,
    "am ": 236,
    "dis": 237,
    "per": 238,
    "ob": 239,
    "ag": 240,
    "por ": 241,
    "nci": 242,
    "ib": 243,
    "tiv": 244,
    "int": 245,
    "ac": 246,
    "ament": 247,
    ") ": 248,
    "des": 249,
    "fun": 250,
    "\n,\n": 251,
    "idade ": 252,
    "ais ": 253,
    "ig": 254,
    "ser ": 255,
    "ia ": 256,
    "av": 257,
    "ores ": 258,
    "ênci": 259,
    "ão": 260,
    "na ": 261,
    "cont": 262,
    "e, ": 263,
    "no ": 264,
    "comp": 265,
    "\n1": 266,
    "ui": 267,
    "st": 268,
    "vel": 269,
    ": ": 270,
    "iv": 271,
    "ando ": 272,
    "entr": 273,
    "os de ": 274,
    "trib": 275,
    "não ": 276,
    "as de ": 277,
    "ve": 278,
    "res": 279,
    "dos ": 280,
    "um": 281,
    "prob": 282,
    "cion": 283,
    "fer": 284,
    "O ": 285,
    "fin": 286,
    "ch": 287,
    "a\n": 288,
    ". E": 289,
    "ári": 290,
    "ed": 291,
    "cl": 292,
    "eci": 293,
    "oc": 294,
    "adas ": 295,
    "\n2": 296,
    "distrib": 297,
    "ções ": 298,
    "eir": 299,
    "to": 300,
    "mais ": 301,
    "sist": 302,
    "i ": 303,
    "ção de ": 304,
    "ver": 305,
    "forma": 306,
    "distribui": 307,
    "por": 308,
    "amente ": 309,
    "ter": 310,
    "u ": 311,
    "esp": 312,
    "comput": 313,
    "og": 314,
    "pel": 315,
    "ações ": 316,
    "val": 317,
    "pode ": 318,
    "alg": 319,
    " e ": 320,
    "19": 321,
    "tem": 322,
    "plic": 323,
    "os, ": 324,
    "e de ": 325,
    ":\n": 326,
    "ação de ": 327,
    "mente ": 328,
    "ap": 329,
    "sistem": 330,
    "gram": 331,
    "proc": 332,
    "ativ": 333,
    "amb": 334,
    "óri": 335,
    "mod": 336,
    "ém ": 337,
    "e\n": 338,
    "vet": 339,
    "vel ": 340,
    "empl": 341,
    "x\n": 342,
    "das ": 343,
    "ál": 344,
    "á ": 345,
    "ica ": 346,
    "dados ": 347,
    "seg": 348,
    "vol": 349,
    "te": 350,
    "fo": 351,
    "pod": 352,
    "ari": 353,
    "ência ": 354,
    "ao ": 355,
    "ão, ": 356,
    "lem": 357,
    "du": 358,
    " (": 359,
    "so": 360,
    "ni": 361,
    "idad": 362,
    "ger": 363,
    "ss": 364,
    "triz": 365,
    "til": 366,
    "a. ": 367,
    "abil": 368,
    "pres": 369,
    "a m": 370,
    "outr": 371,
    "exempl": 372,
    "matriz": 373,
    "20": 374,
    "agem ": 375,
    "process": 376,
    "ot": 377,
    "af": 378,
    "as, ": 379,
    "ís": 380,
    "ment": 381,
    "unt": 382,
    "o\n": 383,
    "ens": 384,
    " de ": 385,
    "lin": 386,
    "cor": 387,
    "le": 388,
    "à ": 389,
    "problem": 390,
    "aut": 391,
    "ingu": 392,
    "\n0": 393,
    "e a ": 394,
    "defin": 395,
    "cri": 396,
    "program": 397,
    "inter": 398,
    "acion": 399,
    "es de ": 400,
    "mo ": 401,
    "ito ": 402,
    "sob": 403,
    "model": 404,
    "ser": 405,
    "conh": 406,
    "cul": 407,
    "almente ": 408,
    "es, ": 409,
    "ne": 410,
    "str": 411,
    "\n2\n": 412,
    "dad": 413,
    "átic": 414,
    "mer": 415,
    "tod": 416,
    "), ": 417,
    "ais": 418,
    "rel": 419,
    "informa": 420,
    "tran": 421,
    "pode ser ": 422,
    ". A ": 423,
    "a.\n": 424,
    "distribuição ": 425,
    "aliz": 426,
    "ce": 427,
    "nor": 428,
    "cos ": 429,
    "ambém ": 430,
    "cr": 431,
    "bas": 432,
    "conheci": 433,
    "Pr": 434,
    "junt": 435,
    "\n1\n": 436,
    "-se ": 437,
    "contr": 438,
    "min": 439,
    "prim": 440,
    "lingu": 441,
    "foi ": 442,
    "vari": 443,
    "adr": 444,
    "ador ": 445,
    "pon": 446,
    "e o ": 447,
    "to ": 448,
    "form": 449,
    "entes ": 450,
    "também ": 451,
    "ir ": 452,
    "nú": 453,
    "Com": 454,
    "ação": 455,
    "óg": 456,
    "mu": 457,
    "amento ": 458,
    "sim": 459,
    "dire": 460,
    "ori": 461,
    "conjunt": 462,
    "orit": 463,
    "podem ": 464,
    ". A": 465,
    "az": 466,
    "ing ": 467,
    "anç": 468,
    ".\nA ": 469,
    "y ": 470,
    "ord": 471,
    "present": 472,
    "envol": 473,
    "norm": 474,
    "; ": 475,
    "do": 476,
    "compl": 477,
    "ici": 478,
    "enh": 479,
    "cur": 480,
    ". O ": 481,
    "war": 482,
    "port": 483,
    "po ": 484,
    "ov": 485,
    "númer": 486,
    "cham": 487,
    "enci": 488,
    "br": 489,
    "cada ": 490,
    "ult": 491,
    "probabil": 492,
    "util": 493,
    "car": 494,
    "ar a ": 495,
    "al, ": 496,
    "aci": 497,
    "graf": 498,
    ". P": 499,
    "sobr": 500,
    "vi": 501,
    "ement": 502,
    "n\n": 503,
    "iment": 504,
    "difer": 505,
    "fi": 506,
    "entre ": 507,
    "ístic": 508,
    "forma ": 509,
    "ass": 510,
    "aplic": 511,
    "cal": 512,
    "trans": 513,
    ".\nE": 514,
    "equ": 515,
    "quin": 516,
    "áquin": 517,
    "col": 518,
    "a a ": 519,
    "det": 520,
    "utiliz": 521,
    "idade de ": 522,
    "o da ": 523,
    "der": 524,
    "Tur": 525,
    "função ": 526,
    "cam": 527,
    "adores ": 528,
    "itos ": 529,
    "algorit": 530,
    "vez": 531,
    "i\n": 532,
    "quant": 533,
    "on ": 534,
    "cons": 535,
    "and": 536,
    "mé": 537,
    ";\n": 538,
    "primeir": 539,
    "ín": 540,
    "\n(\nx": 541,
    "pre": 542,
    "ft": 543,
    "o que ": 544,
    "quer ": 545,
    "é um ": 546,
    "dig": 547,
    "neur": 548,
    "a e ": 549,
    "fici": 550,
    "me": 551,
    "cas": 552,
    "post": 553,
    "espaç": 554,
    "jet": 555,
    "f\n": 556,
    "alh": 557,
    "fr": 558,
    "ida ": 559,
    "pont": 560,
    "mes": 561,
    "sua ": 562,
    "ível ": 563,
    "veis ": 564,
    "mas ": 565,
    "sub": 566,
    "qual": 567,
    "th": 568,
    "ção": 569,
    "al de ": 570,
    "- ": 571,
    "sej": 572,
    "ante ": 573,
    "envolv": 574,
    "ret": 575,
    "ador": 576,
    "ens ": 577,
    "pes": 578,
    "red": 579,
    "nec": 580,
    "posi": 581,
    "o do ": 582,
    "). ": 583,
    "ável ": 584,
    "ér": 585,
    "ális": 586,
    "y\n": 587,
    "é uma ": 588,
    "represent": 589,
    "Uma ": 590,
    "é o ": 591,
    "segu": 592,
    ".\nA": 593,
    "Os ": 594,
    "para a ": 595,
    "sem": 596,
    "ument": 597,
    "pela ": 598,
    "rede ": 599,
    "deriv": 600,
    "exemplo, ": 601,
    "padr": 602,
    "pos": 603,
    "ermin": 604,
    "estr": 605,
    "ecis": 606,
    "especi": 607,
    "seu ": 608,
    "tu": 609,
    "determin": 610,
    "tir": 611,
    "este ": 612,
    "perm": 613,
    ".\nO ": 614,
    "bl": 615,
    "a da ": 616,
    "elh": 617,
    "ef": 618,
    "emóri": 619,
    "mos ": 620,
    "v\n": 621,
    "ftwar": 622,
    "pelo ": 623,
    "oper": 624,
    "complex": 625,
    "valores ": 626,
    "ar o ": 627,
    "poss": 628,
    "A\n": 629,
    "n ": 630,
    "utur": 631,
    "tem ": 632,
    "Um ": 633,
    "mo": 634,
    "atóri": 635,
    "\" ": 636,
    ". I": 637,
    "oria ": 638,
    "linguagem ": 639,
    "nic": 640,
    "todos ": 641,
    "é a ": 642,
    "s, ": 643,
    "de\n": 644,
    "máquin": 645,
    "ido ": 646,
    "incl": 647,
    "vers": 648,
    "pri": 649,
    "o e ": 650,
    "a em ": 651,
    "ider": 652,
    "op": 653,
    "ear": 654,
    "cu": 655,
    "mul": 656,
    "..": 657,
    "ução ": 658,
    "que o ": 659,
    "ação, ": 660,
    "lóg": 661,
    "vis": 662,
    "d\n": 663,
    "auto": 664,
    "sobre ": 665,
    "man": 666,
    "arti": 667,
    "valor ": 668,
    "N ": 669,
    "podem ser ": 670,
    "ific": 671,
    "pal": 672,
    "matriz ": 673,
    "ódig": 674,
    "as e ": 675,
    "GP": 676,
    ". N": 677,
    "ix": 678,
    "anális": 679,
    "err": 680,
    "qualquer ": 681,
    "ext": 682,
    "f ": 683,
    "sig": 684,
    "quis": 685,
    "reg": 686,
    "conheciment": 687,
    "que a ": 688,
    "Int": 689,
    "Ch": 690,
    "a do ": 691,
    "eg": 692,
    "ões": 693,
    "ve ": 694,
    "ud": 695,
    "mai": 696,
    "elig": 697,
    "lim": 698,
    "X\n": 699,
    "desenvolv": 700,
    "sistema ": 701,
    ". Em ": 702,
    "orn": 703,
    "pe": 704,
    "sol": 705,
    "200": 706,
    "dade ": 707,
    "fl": 708,
    "Turing ": 709,
    "press": 710,
    "ati": 711,
    "agens ": 712,
    "quando ": 713,
    "prin": 714,
    "distribuição norm": 715,
    "exec": 716,
    "memóri": 717,
    "icion": 718,
    "ada de ": 719,
    "amento de ": 720,
    "olog": 721,
    "indo ": 722,
    "result": 723,
    "mesmo ": 724,
    "sa": 725,
    "o.\n": 726,
    "esse ": 727,
    "li": 728,
    "para o ": 729,
    "avr": 730,
    "soci": 731,
    "palavr": 732,
    ". S": 733,
    "softwar": 734,
    "ânci": 735,
    "\n(\nx\n)\n": 736,
    "códig": 737,
    "ort": 738,
    "atr": 739,
    "conjunto de ": 740,
    ", a ": 741,
    "necess": 742,
    "estrutur": 743,
    "uí": 744,
    "u\n": 745,
    "In": 746,
    "adi": 747,
    "cap": 748,
    "ular": 749,
    "crip": 750,
    "értic": 751,
    "duz": 752,
    "vid": 753,
    "o é ": 754,
    "ale": 755,
    "matem": 756,
    "onde ": 757,
    "ções de ": 758,
    "ários ": 759,
    "abalh": 760,
    "sequ": 761,
    "esta ": 762,
    "us ": 763,
    "o em ": 764,
    "recur": 765,
    "ter ": 766,
    "assi": 767,
    "ip": 768,
    "ect": 769,
    "fal": 770,
    "uman": 771,
    "consider": 772,
    "trabalh": 773,
    "vetor ": 774,
    "fe": 775,
    "ert": 776,
    "antes ": 777,
    "ener": 778,
    "part": 779,
    "eri": 780,
    "men": 781,
    "redes ": 782,
    "ais, ": 783,
    "com o ": 784,
    "acter": 785,
    "anto, ": 786,
    "vértic": 787,
    "faz": 788,
    "tip": 789,
    "aleatóri": 790,
    "j\n": 791,
    "base": 792,
    "anc": 793,
    "foram ": 794,
    "nos ": 795,
    "probabilidade ": 796,
    "então ": 797,
    "informação ": 798,
    "ingl": 799,
    "tar": 800,
    "log": 801,
    "a o ": 802,
    "0 ": 803,
    "caracter": 804,
    "dific": 805,
    "éc": 806,
    "\n1\n,\n": 807,
    "conce": 808,
    "cre": 809,
    "Par": 810,
    "t\n": 811,
    "uns ": 812,
    "inh": 813,
    "ados": 814,
    "a (": 815,
    "enas ": 816,
    "requ": 817,
    "ers": 818,
    "ele ": 819,
    "intelig": 820,
    "Comp": 821,
    "tre": 822,
    "a que ": 823,
    "em um ": 824,
    "human": 825,
    "dut": 826,
    "função de ": 827,
    "ver ": 828,
    "exist": 829,
    "álcul": 830,
    "inglê": 831,
    "ência de ": 832,
    "simpl": 833,
    "sin": 834,
    "vetori": 835,
    "ern": 836,
    "em uma ": 837,
    "pass": 838,
    "gu": 839,
    "igu": 840,
    "inclu": 841,
    "escal": 842,
    "ção, ": 843,
    "]\n": 844,
    "Al": 845,
    "ele": 846,
    "a um ": 847,
    "a uma ": 848,
    "atur": 849,
    "impl": 850,
    "\n0\n0": 851,
    "gan": 852,
    ". D": 853,
    "al\n": 854,
    "T ": 855,
    "precis": 856,
    "sistemas ": 857,
    "itas ": 858,
    "relacion": 859,
    "aram ": 860,
    "cos": 861,
    ", que ": 862,
    "a é ": 863,
    "apenas ": 864,
    ". Por ": 865,
    "áveis ": 866,
    "duas ": 867,
    "saí": 868,
    "esti": 869,
    "egr": 870,
    "Un": 871,
    "dois ": 872,
    "compar": 873,
    "ilh": 874,
    "outras ": 875,
    "dados": 876,
    "d ": 877,
    "tempo ": 878,
    ". C": 879,
    "anal": 880,
    "os e ": 881,
    "encontr": 882,
    "serv": 883,
    "relação ": 884,
    "sem ": 885,
    ".\nEm ": 886,
    "funcion": 887,
    "quanto ": 888,
    "1 ": 889,
    "ostr": 890,
    "o (": 891,
    "és ": 892,
    "todo ": 893,
    "propri": 894,
    ", o ": 895,
    "estão ": 896,
    "test": 897,
    "ali": 898,
    "árias ": 899,
    "nific": 900,
    "limit": 901,
    "201": 902,
    "prov": 903,
    "com a ": 904,
    "atu": 905,
    "bi": 906,
    "partir": 907,
    "respon": 908,
    "permit": 909,
    "sti": 910,
    "esso": 911,
    "inv": 912,
    "linh": 913,
    "produt": 914,
    "signific": 915,
    "stru": 916,
    "usu": 917,
    "express": 918,
    "ivers": 919,
    "199": 920,
    "for ": 921,
    "ima": 922,
    "está ": 923,
    "Qu": 924,
    "áre": 925,
    "estat": 926,
    "Comput": 927,
    "up": 928,
    "pró": 929,
    "xim": 930,
    "princi": 931,
    "iss": 932,
    "frequ": 933,
    "idades ": 934,
    "resol": 935,
    "outros ": 936,
    "cripto": 937,
    "grá": 938,
    "taref": 939,
    "íni": 940,
    "ado de ": 941,
    "ado": 942,
    "k ": 943,
    "trein": 944,
    "1\n": 945,
    "matemátic": 946,
    "prop": 947,
    "C ": 948,
    "vetores ": 949,
    "defini": 950,
    "de uma ": 951,
    "ev": 952,
    "bin": 953,
    "enç": 954,
    "íci": 955,
    "idade": 956,
    "dim": 957,
    "fat": 958,
    "objet": 959,
    "arqu": 960,
    "pesquis": 961,
    "ário ": 962,
    "desenvolviment": 963,
    "torn": 964,
    "éri": 965,
    "element": 966,
    "k\n": 967,
    "linear": 968,
    "programação ": 969,
    "ór": 970,
    "ran": 971,
    "distribuição de ": 972,
    "emp": 973,
    "lev": 974,
    "téc": 975,
    "pol": 976,
    "ita ": 977,
    "modelo ": 978,
    "mi": 979,
    "pesso": 980,
    "todos os ": 981,
    "Pro": 982,
    "uz": 983,
    "aix": 984,
    "problemas ": 985,
    "implement": 986,
    "muito ": 987,
    "ação da ": 988,
    "possu": 989,
    "acess": 990,
    "execut": 991,
    "Re": 992,
    "mb": 993,
    "je": 994,
    "espaço ": 995,
    "teoria ": 996,
    "orig": 997,
    "escr": 998,
    "den": 999,
    "emente ": 1000,
    "arg": 1001,
    ", e ": 1002,
    "pi": 1003,
    "nov": 1004,
    "tiplic": 1005,
    "emos ": 1006,
    "estu": 1007,
    "R\n": 1008,
    "2 ": 1009,
    "enc": 1010,
    "refer": 1011,
    "ós ": 1012,
    "ação do ": 1013,
    "SB": 1014,
    "usando ": 1015,
    "cálcul": 1016,
    "realiz": 1017,
    "projet": 1018,
    "distribuição normal ": 1019,
    "ecn": 1020,
    "lig": 1021,
    "ado em ": 1022,
    "de um ": 1023,
    "2\n": 1024,
    "ind": 1025,
    "unic": 1026,
    "computacion": 1027,
    "h ": 1028,
    ".\nD": 1029,
    "\ni\n": 1030,
    "import": 1031,
    "Ar": 1032,
    ". T": 1033,
    "3\n": 1034,
    "como o ": 1035,
    "princip": 1036,
    ". El": 1037,
    "melh": 1038,
    "pa": 1039,
    "segur": 1040,
    "e uma ": 1041,
    "atrav": 1042,
    "tal ": 1043,
    "É ": 1044,
    ".\nN": 1045,
    "calcul": 1046,
    ".\nS": 1047,
    "IA ": 1048,
    "au": 1049,
    "ej": 1050,
    "oci": 1051,
    "essa ": 1052,
    "sí": 1053,
    "regr": 1054,
    "...\n": 1055,
    "super": 1056,
    "of ": 1057,
    "Con": 1058,
    "h\n": 1059,
    "adas": 1060,
    "ític": 1061,
    "como a ": 1062,
    "ínu": 1063,
    "padrão ": 1064,
    "blic": 1065,
    "computação ": 1066,
    "amente, ": 1067,
    "íveis ": 1068,
    "SBN ": 1069,
    "contínu": 1070,
    "\n0\n": 1071,
    "grafo ": 1072,
    "matrizes ": 1073,
    "eç": 1074,
    "computador ": 1075,
    "trad": 1076,
    "gran": 1077,
    "número de ": 1078,
    "anh": 1079,
    "inici": 1080,
    "vez ": 1081,
    "zen": 1082,
    "gradi": 1083,
    "a para ": 1084,
    "quadr": 1085,
    "as as ": 1086,
    "êm ": 1087,
    "aj": 1088,
    "veis": 1089,
    "funções ": 1090,
    "onal ": 1091,
    "seus ": 1092,
    "as que ": 1093,
    ". Est": 1094,
    "rod": 1095,
    "qual ": 1096,
    "deve ": 1097,
    "ge": 1098,
    "integr": 1099,
    "ado, ": 1100,
    "avali": 1101,
    "\", ": 1102,
    "ês ": 1103,
    "até ": 1104,
    "usc": 1105,
    "abel": 1106,
    "entrada ": 1107,
    "An": 1108,
    "fund": 1109,
    "em inglê": 1110,
    "ar uma ": 1111,
    "mic": 1112,
    "entemente ": 1113,
    "através ": 1114,
    "variável ": 1115,
    "mazen": 1116,
    "primeiro ": 1117,
    "associ": 1118,
    "Le": 1119,
    "ach": 1120,
    "corr": 1121,
    "seguint": 1122,
    "siv": 1123,
    "suas ": 1124,
    "pois ": 1125,
    "exto ": 1126,
    "gener": 1127,
    "Mar": 1128,
    "eles ": 1129,
    "an ": 1130,
    "Turing": 1131,
    "diferentes ": 1132,
    "and ": 1133,
    "que": 1134,
    "orr": 1135,
    "control": 1136,
    "armazen": 1137,
    "ôni": 1138,
    "Chat": 1139,
    "idos ": 1140,
    "list": 1141,
    "estatístic": 1142,
    "derivada ": 1143,
    "possível ": 1144,
    "úl": 1145,
    "som": 1146,
    "dist": 1147,
    "RN": 1148,
    "como uma ": 1149,
    "ular ": 1150,
    "últi": 1151,
    "et ": 1152,
    "artig": 1153,
    "observ": 1154,
    "\n)\n(\n": 1155,
    "por exemplo, ": 1156,
    "aus": 1157,
    "finit": 1158,
    "nica ": 1159,
    "codific": 1160,
    "ensão ": 1161,
    "mo de ": 1162,
    "ada em ": 1163,
    "nas ": 1164,
    "propried": 1165,
    "ável": 1166,
    "segun": 1167,
    "aos ": 1168,
    "alel": 1169,
    "orem": 1170,
    "ChatGP": 1171,
    "t ": 1172,
    "linguagens ": 1173,
    "lógica ": 1174,
    "compon": 1175,
    "artifici": 1176,
    "ações de ": 1177,
    "arest": 1178,
    "Th": 1179,
    "ecnolog": 1180,
    "ain": 1181,
    "ões, ": 1182,
    "nom": 1183,
    "flu": 1184,
    "ização ": 1185,
    "neurais ": 1186,
    "primeira ": 1187,
    "umas ": 1188,
    "yth": 1189,
    "inteligência ": 1190,
    "ou a ": 1191,
    "pu": 1192,
    "e em ": 1193,
    "exemplo ": 1194,
    "análise ": 1195,
    "números ": 1196,
    "ay": 1197,
    "partic": 1198,
    "uc": 1199,
    "idas ": 1200,
    "cifr": 1201,
    "10": 1202,
    "font": 1203,
    "alguns ": 1204,
    "ust": 1205,
    "característic": 1206,
    "posição ": 1207,
    "algoritmo ": 1208,
    "várias ": 1209,
    "mei": 1210,
    "loc": 1211,
    "chav": 1212,
    "aqu": 1213,
    "busc": 1214,
    "M ": 1215,
    "enção ": 1216,
    ".\nP": 1217,
    "a: ": 1218,
    "produz": 1219,
    "a partir": 1220,
    "computadores ": 1221,
    "ticos ": 1222,
    "saída ": 1223,
    "étr": 1224,
    "parci": 1225,
    "doc": 1226,
    "têm ": 1227,
    "paralel": 1228,
    "z\n": 1229,
    "código ": 1230,
    "ident": 1231,
    "consist": 1232,
    "\nM": 1233,
    "vezes ": 1234,
    "ear ": 1235,
    "med": 1236,
    "comunic": 1237,
    "x ": 1238,
    "orden": 1239,
    "3 ": 1240,
    "ada, ": 1241,
    "decis": 1242,
    "ores": 1243,
    ") e ": 1244,
    "ora ": 1245,
    "complet": 1246,
    "memória ": 1247,
    "sent": 1248,
    "liv": 1249,
    "icamente ": 1250,
    "ado para ": 1251,
    "em inglês": 1252,
    "fil": 1253,
    "Est": 1254,
    ". Uma ": 1255,
    "I ": 1256,
    "mente, ": 1257,
    "ong": 1258,
    "pret": 1259,
    "maior ": 1260,
    "anteri": 1261,
    "empenh": 1262,
    "document": 1263,
    "pen": 1264,
    "0\n": 1265,
    "idade, ": 1266,
    "é cham": 1267,
    "comport": 1268,
    "todas as ": 1269,
    "modelos ": 1270,
    "...\n,\n": 1271,
    ". Os ": 1272,
    "informações ": 1273,
    "Di": 1274,
    "m\n": 1275,
    "Univers": 1276,
    "197": 1277,
    ". Por exemplo, ": 1278,
    "ência da ": 1279,
    "ada por ": 1280,
    "cuj": 1281,
    "acidade ": 1282,
    "Gr": 1283,
    "y, ": 1284,
    "redes neurais ": 1285,
    "os da ": 1286,
    "ei": 1287,
    "tim": 1288,
    ".\nAs ": 1289,
    "p\n": 1290,
    "ár": 1291,
    "a-se ": 1292,
    "cer": 1293,
    "a re": 1294,
    "apro": 1295,
    "[\n": 1296,
    ". Um ": 1297,
    "ível": 1298,
    "ico ": 1299,
    "l ": 1300,
    "técnic": 1301,
    "positiv": 1302,
    "dados, ": 1303,
    "as são ": 1304,
    "especific": 1305,
    "alter": 1306,
    ".\nM": 1307,
    "edi": 1308,
    "recursiv": 1309,
    "ont": 1310,
    "seja, ": 1311,
    "al do ": 1312,
    "desempenh": 1313,
    "ados em ": 1314,
    "efici": 1315,
    "organ": 1316,
    "sistemas de ": 1317,
    "ng": 1318,
    "f\n(\n": 1319,
    "z ": 1320,
    "número ": 1321,
    "adas de ": 1322,
    ". Ess": 1323,
    "infer": 1324,
    "emb": 1325,
    "multiplic": 1326,
    "método ": 1327,
    "T\n": 1328,
    "P\n": 1329,
    "estado ": 1330,
    "processo de ": 1331,
    "imag": 1332,
    "isto ": 1333,
    "escol": 1334,
    "natur": 1335,
    "em\n": 1336,
    ".\nUma ": 1337,
    "Pyth": 1338,
    "nível ": 1339,
    "dom": 1340,
    "acor": 1341,
    "a ou ": 1342,
    "ico": 1343,
    "jetiv": 1344,
    "disc": 1345,
    "E ": 1346,
    "o a ": 1347,
    "ar os ": 1348,
    "não é ": 1349,
    "bo": 1350,
    "teorem": 1351,
    "ente": 1352,
    "ferr": 1353,
    "sit": 1354,
    "que\n": 1355,
    "acordo ": 1356,
    "-l": 1357,
    "dens": 1358,
    "ada para ": 1359,
    "1, ": 1360,
    "ção\n": 1361,
    "geralmente ": 1362,
    ". Al": 1363,
    "Open": 1364,
    "espec": 1365,
    "seja ": 1366,
    "vido ": 1367,
    "os que ": 1368,
    "ian": 1369,
    "cí": 1370,
    "utr": 1371,
    "as da ": 1372,
    "plan": 1373,
    "e (": 1374,
    "ibli": 1375,
    ".\nOs ": 1376,
    "ro": 1377,
    "e do ": 1378,
    "ados, ": 1379,
    "já ": 1380,
    "assific": 1381,
    "not": 1382,
    "era ": 1383,
    "há ": 1384,
    "tico": 1385,
    "gradiente ": 1386,
    "origin": 1387,
    "otec": 1388,
    "ação e ": 1389,
    "198": 1390,
    "metr": 1391,
    "correspon": 1392,
    "enquanto ": 1393,
    "adicion": 1394,
    "abord": 1395,
    "diret": 1396,
    "prátic": 1397,
    "diferenci": 1398,
    "ferrament": 1399,
    "às ": 1400,
    "poder": 1401,
    "ções": 1402,
    "ar um ": 1403,
    "0, ": 1404,
    "ampl": 1405,
    "fornec": 1406,
    "centr": 1407,
    "195": 1408,
    "vértices ": 1409,
    "\n,\ny": 1410,
    "algoritmos ": 1411,
    "gráfic": 1412,
    "ibliotec": 1413,
    "como um ": 1414,
    "grande ": 1415,
    ". ISBN ": 1416,
    "alist": 1417,
    "ordem ": 1418,
    "tecnolog": 1419,
    "ais de ": 1420,
    "seguranç": 1421,
    "definida ": 1422,
    "s\n": 1423,
    "mar": 1424,
    "ânt": 1425,
    "ela ": 1426,
    "gi": 1427,
    "De": 1428,
    "divers": 1429,
    "mostr": 1430,
    "e da ": 1431,
    "St": 1432,
    "stit": 1433,
    "trat": 1434,
    "por um ": 1435,
    "linear ": 1436,
    "propag": 1437,
    "e e ": 1438,
    "conceit": 1439,
    "alt": 1440,
    ". Par": 1441,
    "aument": 1442,
    "respost": 1443,
    "problema ": 1444,
    "os\n": 1445,
    "ax": 1446,
    "mos de ": 1447,
    "dé": 1448,
    "202": 1449,
    "interpret": 1450,
    ". As ": 1451,
    "quais ": 1452,
    "âmetr": 1453,
    "combin": 1454,
    "clus": 1455,
    "Ne": 1456,
    "Outr": 1457,
    "médi": 1458,
    "i\n,\n": 1459,
    "igual ": 1460,
    "sion": 1461,
    ", em ": 1462,
    "196": 1463,
    "que os ": 1464,
    "dest": 1465,
    "parâmetr": 1466,
    "dur": 1467,
    "dem": 1468,
    "empres": 1469,
    "Ex": 1470,
    "amente": 1471,
    ". No ": 1472,
    "lic": 1473,
    "muitas ": 1474,
    "4 ": 1475,
    "ation": 1476,
    "não": 1477,
    "a-": 1478,
    "tais ": 1479,
    "classific": 1480,
    "esses ": 1481,
    "bil": 1482,
    ". M": 1483,
    "entanto, ": 1484,
    "ão de ": 1485,
    "solu": 1486,
    "suport": 1487,
    "eram ": 1488,
    "r\n": 1489,
    "itet": 1490,
    "tilh": 1491,
    "ard": 1492,
    "ações": 1493,
    "o: ": 1494,
    "cos de ": 1495,
    "usadas ": 1496,
    "long": 1497,
    "eb": 1498,
    "apresent": 1499,
    "o de um ": 1500,
    "istr": 1501,
    "começ": 1502,
    "em a ": 1503,
    "fazer ": 1504,
    "mbol": 1505,
    "objetiv": 1506,
    "conjunto ": 1507,
    "ceb": 1508,
    "ocorr": 1509,
    "P\n(\n": 1510,
    "al e ": 1511,
    "fis": 1512,
    "gar": 1513,
    "almente, ": 1514,
    "itetur": 1515,
    "o para ": 1516,
    "ada. ": 1517,
    "assim ": 1518,
    "semelh": 1519,
    "sp": 1520,
    "a mes": 1521,
    "Y\n": 1522,
    "ainda ": 1523,
    "ou seja, ": 1524,
    "a) ": 1525,
    "década ": 1526,
    " S": 1527,
    "estud": 1528,
    "estudo ": 1529,
    "ífic": 1530,
    "PU": 1531,
    "complexidade ": 1532,
    "caso ": 1533,
    "identific": 1534,
    "símbol": 1535,
    ". Ex": 1536,
    "as em ": 1537,
    "restr": 1538,
    "cob": 1539,
    "no": 1540,
    "jog": 1541,
    "conex": 1542,
    "neurôni": 1543,
    "produto ": 1544,
    "ou o ": 1545,
    "vários ": 1546,
    "sing": 1547,
    "termo ": 1548,
    "analis": 1549,
    "inu": 1550,
    "vetorial ": 1551,
    "escolh": 1552,
    "recurs": 1553,
    "maneir": 1554,
    "década de ": 1555,
    "V\n": 1556,
    "introd": 1557,
    "interval": 1558,
    "Program": 1559,
    "iter": 1560,
    " (em inglês": 1561,
    "grup": 1562,
    "bibliotec": 1563,
    "linguagem de ": 1564,
    "computador": 1565,
    "que as ": 1566,
    "as para ": 1567,
    "agem de ": 1568,
    "variáveis ": 1569,
    "em relação ": 1570,
    "entes": 1571,
    "base ": 1572,
    "aplicações ": 1573,
    "menos ": 1574,
    "vem ": 1575,
    "a mesma ": 1576,
    "obr": 1577,
    "icl": 1578,
    "autor": 1579,
    "public": 1580,
    "ando o ": 1581,
    "transforma": 1582,
    "divid": 1583,
    "ub": 1584,
    "\n2\n)\n": 1585,
    "últipl": 1586,
    "áveis": 1587,
    "eng": 1588,
    "ó ": 1589,
    "três ": 1590,
    "que, ": 1591,
    "18": 1592,
    "bem ": 1593,
    "versão ": 1594,
    "outro ": 1595,
    "am a ": 1596,
    "forma de ": 1597,
    "neural ": 1598,
    "mov": 1599,
    "diag": 1600,
    "f\n(\nx\n)\n": 1601,
    "compil": 1602,
    "ival": 1603,
    "instru": 1604,
    "mec": 1605,
    "atrib": 1606,
    "97": 1607,
    "ância ": 1608,
    "ar as ": 1609,
    "árv": 1610,
    "amos ": 1611,
    "B\n": 1612,
    "ack": 1613,
    "digit": 1614,
    "campo ": 1615,
    "pot": 1616,
    "múltipl": 1617,
    "uso de ": 1618,
    "propriedad": 1619,
    "ata ": 1620,
    "ChatGPT ": 1621,
    "cient": 1622,
    "análise de ": 1623,
    "desenvol": 1624,
    "muitos ": 1625,
    "otim": 1626,
    "texto ": 1627,
    "sint": 1628,
    ". (": 1629,
    "conhecimento de ": 1630,
    "e um ": 1631,
    "r ": 1632,
    "que se ": 1633,
    "esqu": 1634,
    "conect": 1635,
    "teste ": 1636,
    "sobre o ": 1637,
    "\n2\n,\n": 1638,
    "Jo": 1639,
    "compartilh": 1640,
    "Em ": 1641,
    "ER": 1642,
    "amanh": 1643,
    "n\n)\n": 1644,
    "ências ": 1645,
    "desde ": 1646,
    "pú": 1647,
    "el ": 1648,
    "criptograf": 1649,
    "capacidade ": 1650,
    ").\n": 1651,
    "apar": 1652,
    "Como ": 1653,
    "Para ": 1654,
    "ais e ": 1655,
    "din": 1656,
    "as\n": 1657,
    "met": 1658,
    "ológ": 1659,
    "ão\n": 1660,
    "event": 1661,
    "organiz": 1662,
    "mens": 1663,
    ". Ent": 1664,
    "on, ": 1665,
    "é, ": 1666,
    "ava ": 1667,
    "vist": 1668,
    "hi": 1669,
    "Proc": 1670,
    "clas": 1671,
    "sempr": 1672,
    "dado ": 1673,
    "al da ": 1674,
    "frequentemente ": 1675,
    "oment": 1676,
    "tro": 1677,
    "uso ": 1678,
    "bit": 1679,
    "séri": 1680,
    "domíni": 1681,
    "tok": 1682,
    "00": 1683,
    "essas ": 1684,
    "al (": 1685,
    "embr": 1686,
    "t\n)\n": 1687,
    "2, ": 1688,
    "cat": 1689,
    "cípi": 1690,
    "assu": 1691,
    "neg": 1692,
    "acesso ": 1693,
    "ia de ": 1694,
    "modo ": 1695,
    "\n(\nx\n,\ny": 1696,
    "w ": 1697,
    "os são ": 1698,
    "aplicação ": 1699,
    "tom": 1700,
    "permite ": 1701,
    "verific": 1702,
    "Co": 1703,
    "atenção ": 1704,
    "tent": 1705,
    "tamanh": 1706,
    "so, ": 1707,
    "ados de ": 1708,
    "écul": 1709,
    "aria ": 1710,
    "possui ": 1711,
    "software ": 1712,
    "Br": 1713,
    "lógic": 1714,
    "suc": 1715,
    "moment": 1716,
    "istem": 1717,
    "mon": 1718,
    "livr": 1719,
    "sur": 1720,
    "Ci": 1721,
    "Joh": 1722,
    "conhecido ": 1723,
    "abilidade ": 1724,
    "polític": 1725,
    "0-": 1726,
    "5 ": 1727,
    "rans": 1728,
    "mó": 1729,
    "o:\n": 1730,
    "gunt": 1731,
    "rig": 1732,
    "inst": 1733,
    "definição ": 1734,
    "zer": 1735,
    "funções de ": 1736,
    "ada\n": 1737,
    "sistema de ": 1738,
    "forç": 1739,
    "ell": 1740,
    "verdad": 1741,
    "dispon": 1742,
    "abor": 1743,
    "class": 1744,
    "sido ": 1745,
    "não-": 1746,
    "S ": 1747,
    "over": 1748,
    "dif": 1749,
    "veloci": 1750,
    "ença ": 1751,
    "sto ": 1752,
    "b\n": 1753,
    "equival": 1754,
    "ando a ": 1755,
    "somente ": 1756,
    "8-": 1757,
    "os (": 1758,
    "que não ": 1759,
    "As ": 1760,
    "sob ": 1761,
    "anto ": 1762,
    "\n1\n)\n": 1763,
    "L ": 1764,
    "por\n": 1765,
    "ectiv": 1766,
    "prote": 1767,
    "explic": 1768,
    "áp": 1769,
    "definid": 1770,
    "argument": 1771,
    "distribuições ": 1772,
    "V ": 1773,
    "teoria da ": 1774,
    "mun": 1775,
    "ug": 1776,
    "corpor": 1777,
    "num ": 1778,
    "ás": 1779,
    "as (": 1780,
    "ase ": 1781,
    "ar, ": 1782,
    "algumas ": 1783,
    "cert": 1784,
    "variável aleatóri": 1785,
    "sejam ": 1786,
    "descob": 1787,
    "a máquin": 1788,
    "Intern": 1789,
    "ece ": 1790,
    "descre": 1791,
    "ví": 1792,
    "1-": 1793,
    "Car": 1794,
    "Trans": 1795,
    "sempre ": 1796,
    "mant": 1797,
    "idades de ": 1798,
    "ado por ": 1799,
    "tempo": 1800,
    "direit": 1801,
    "cir": 1802,
    "as do ": 1803,
    "inteligência artifici": 1804,
    "cicl": 1805,
    "gra": 1806,
    "escalar ": 1807,
    "W\n": 1808,
    "fór": 1809,
    "programa ": 1810,
    "etc": 1811,
    "entradas ": 1812,
    "amostr": 1813,
    "ed ": 1814,
    "a:\n": 1815,
    "investi": 1816,
    "curs": 1817,
    "má": 1818,
    "No ": 1819,
    "incluindo ": 1820,
    "P ": 1821,
    "ução de ": 1822,
    "confi": 1823,
    "c\n": 1824,
    "invers": 1825,
    "po de ": 1826,
    "Mat": 1827,
    "agem": 1828,
    "ia, ": 1829,
    "arquitetur": 1830,
    "dicion": 1831,
    "simples": 1832,
    "constr": 1833,
    "possi": 1834,
    "esper": 1835,
    "que um ": 1836,
    "ação\n": 1837,
    "ion": 1838,
    "distribuição de probabilidade ": 1839,
    "parad": 1840,
    "igur": 1841,
    "imp": 1842,
    "comum ": 1843,
    "D ": 1844,
    "expl": 1845,
    "IA": 1846,
    "sécul": 1847,
    "tir ": 1848,
    "leg": 1849,
    "anos ": 1850,
    "ra": 1851,
    "\n(\n)\n": 1852,
    "conhecimento ": 1853,
    "ente de ": 1854,
    ".\nUm ": 1855,
    " do ": 1856,
    "en ": 1857,
    "inteir": 1858,
    "uma função ": 1859,
    "adas, ": 1860,
    "ada a ": 1861,
    "solução ": 1862,
    "ínim": 1863,
    "cé": 1864,
    "especialist": 1865,
    "colun": 1866,
    "entrop": 1867,
    "tipos de ": 1868,
    "dec": 1869,
    "constru": 1870,
    "ambi": 1871,
    "4\n": 1872,
    "ados para ": 1873,
    "permi": 1874,
    "ões de ": 1875,
    "nós ": 1876,
    "algoritmo de ": 1877,
    "superi": 1878,
    "\n(\n1": 1879,
    "const": 1880,
    "C\n": 1881,
    "caminh": 1882,
    "eú": 1883,
    "U\n": 1884,
    "in ": 1885,
    "hom": 1886,
    "abstr": 1887,
    "métodos ": 1888,
    "dul": 1889,
    "tipo de ": 1890,
    "espaço de ": 1891,
    "cab": 1892,
    "text": 1893,
    "com um ": 1894,
    "ualiz": 1895,
    "proced": 1896,
    "o, a ": 1897,
    "gráfi": 1898,
    "uído ": 1899,
    "será ": 1900,
    "Te": 1901,
    "dic": 1902,
    "conteú": 1903,
    "w\n": 1904,
    "., ": 1905,
    "So": 1906,
    "ente, ": 1907,
    "hist": 1908,
    "CPU": 1909,
    "art": 1910,
    "sequência de ": 1911,
    "simples ": 1912,
    "fam": 1913,
    "nico ": 1914,
    "ência, ": 1915,
    "fís": 1916,
    "estados ": 1917,
    "recorr": 1918,
    "étic": 1919,
    "rede neural ": 1920,
    "priv": 1921,
    "For": 1922,
    "E\n": 1923,
    "adequ": 1924,
    "ban": 1925,
    "Lóg": 1926,
    "eu ": 1927,
    "propriedades ": 1928,
    "lo": 1929,
    "all": 1930,
    "Prob": 1931,
    "vetor": 1932,
    "x\n)\n": 1933,
    "após ": 1934,
    "para uma ": 1935,
    "o ou ": 1936,
    "visão ": 1937,
    "semânt": 1938,
    "anis": 1939,
    "tabel": 1940,
    "ante": 1941,
    "85": 1942,
    "disso, ": 1943,
    "dada ": 1944,
    "princípi": 1945,
    "isso ": 1946,
    "ulares ": 1947,
    "sucess": 1948,
    "introduz": 1949,
    "engenh": 1950,
    "importante ": 1951,
    "a\"": 1952,
    "a\n)\n": 1953,
    "é us": 1954,
    "própri": 1955,
    "os em ": 1956,
    "discret": 1957,
    "palavras ": 1958,
    "adas por ": 1959,
    "correspond": 1960,
    "o de uma ": 1961,
    "nul": 1962,
    "figur": 1963,
    "cálculo ": 1964,
    "pop": 1965,
    "máquina de ": 1966,
    "lanç": 1967,
    "a, a ": 1968,
    "orient": 1969,
    "The ": 1970,
    "cad": 1971,
    "autom": 1972,
    "escre": 1973,
    "ática ": 1974,
    "processamento ": 1975,
    "le ": 1976,
    "» (em inglês": 1977,
    "dados de ": 1978,
    "denot": 1979,
    "ê ": 1980,
    "pergunt": 1981,
    ", mas ": 1982,
    "mínim": 1983,
    "fac": 1984,
    "IS": 1985,
    "seguinte ": 1986,
    "afir": 1987,
    "situ": 1988,
    "ós": 1989,
    "num": 1990,
    "garant": 1991,
    "crit": 1992,
    "comportamento ": 1993,
    "á-l": 1994,
    "ge ": 1995,
    "classe ": 1996,
    "tes": 1997,
    "ar e ": 1998,
    "generaliz": 1999,
    "dinâ": 2000,
    "direcion": 2001,
    "flux": 2002,
    "ep": 2003,
    "termos ": 2004,
    "alidade ": 2005,
    "Alg": 2006,
    "ui ": 2007,
    "século ": 2008,
    "incluem ": 2009,
    "banc": 2010,
    "efe": 2011,
    "tido ": 2012,
    "z\n)\n": 2013,
    "x\n2\n": 2014,
    "I\n": 2015,
    "John ": 2016,
    "xi": 2017,
    "Process": 2018,
    "módul": 2019,
    "e os ": 2020,
    "possibil": 2021,
    "modelo de ": 2022,
    "única ": 2023,
    "se\n": 2024,
    "ssim": 2025,
    "etr": 2026,
    "RA": 2027,
    "ast": 2028,
    "condi": 2029,
    "chave ": 2030,
    "l\n": 2031,
    "ech": 2032,
    "baix": 2033,
    "adas em ": 2034,
    "falh": 2035,
    "continu": 2036,
    "ation ": 2037,
    "exig": 2038,
    "voc": 2039,
    "tipo ": 2040,
    "6 ": 2041,
    "consult": 2042,
    "íngu": 2043,
    "resultado ": 2044,
    "processo ": 2045,
    "tenh": 2046,
    "entes, ": 2047,
    "os para ": 2048,
    "entes de ": 2049,
    "RNN": 2050,
    "und": 2051,
    "maioria ": 2052,
    "Mic": 2053,
    "devem ": 2054,
    "sec": 2055,
    "ar de ": 2056,
    "com uma ": 2057,
    "rede": 2058,
    "fundament": 2059,
    "aria de ": 2060,
    "D\n": 2061,
    "autovalores ": 2062,
    "máquina ": 2063,
    ". Para ": 2064,
    "capaz": 2065,
    "istem ": 2066,
    "am o ": 2067,
    "del": 2068,
    "Mod": 2069,
    "e-": 2070,
    "a no ": 2071,
    "onstr": 2072,
    "tot": 2073,
    "Mark": 2074,
    "3, ": 2075,
    "Des": 2076,
    "idade\n": 2077,
    "mica ": 2078,
    "oso": 2079,
    "fórmul": 2080,
    "\n1\n2\n": 2081,
    "imento ": 2082,
    "dispositiv": 2083,
    ". Alg": 2084,
    "paradig": 2085,
    "raci": 2086,
    "Informa": 2087,
    "eor": 2088,
    "194": 2089,
    "o de 202": 2090,
    "hou": 2091,
    "expressão ": 2092,
    "(x": 2093,
    ". É ": 2094,
    "ciência da ": 2095,
    "faz ": 2096,
    "caus": 2097,
    "pelos ": 2098,
    "co, ": 2099,
    "matriz de ": 2100,
    "a.\nA ": 2101,
    "medi": 2102,
    "hav": 2103,
    "wor": 2104,
    "étric": 2105,
    "ções, ": 2106,
    "sso ": 2107,
    "i\n)\n": 2108,
    "ráp": 2109,
    ". Isto ": 2110,
    "Softwar": 2111,
    "\n(\nX": 2112,
    "direitos ": 2113,
    "OpenA": 2114,
    "veu ": 2115,
    "ide": 2116
  }
}