{
  "unk_token": "<unk>",
  "merges": [
    [
      "o",
      " "
    ],
    [
      "e",
      " "
    ],
    [
      "a",
      " "
    ],
    [
      "s",
      " "
    ],
    [
      "d",
      "e "
    ],
    [
      "n",
      "t"
    ],
    [
      "m",
      " "
    ],
    [
      "o",
      "r"
    ],
    [
      ",",
      " "
    ],
    [
      "e",
      "r"
    ],
    [
      "a",
      "r"
    ],
    [
      "e",
      "s"
    ],
    [
      "a",
      "d"
    ],
    [
      "c",
      "o"
    ],
    [
      "o",
      "s "
    ],
    [
      "ã",
      "o "
    ],
    [
      "a",
      "l"
    ],
    [
      "a",
      "s "
    ],
    [
      ".",
      " "
    ],
    [
      "e",
      "nt"
    ],
    [
      "i",
      "n"
    ],
    [
      "q",
      "u"
    ],
    [
      "i",
      "c"
    ],
    [
      "p",
      "r"
    ],
    [
      "e",
      "s "
    ],
    [
      "i",
      "s"
    ],
    [
      "ç",
      "ão "
    ],
    [
      "e",
      "m "
    ],
    [
      "t",
      "r"
    ],
    [
      "c",
      "i"
    ],
    [
      "r",
      "e"
    ],
    [
      "a",
      "n"
    ],
    [
      "m",
      "a "
    ],
    [
      "e",
      "n"
    ],
    [
      "a",
      "m"
    ],
    [
      "d",
      "o "
    ],
    [
      "e",
      "l"
    ],
    [
      "t",
      "i"
    ],
    [
      "e",
      "m"
    ],
    [
      "p",
      "ar"
    ],
    [
      "co",
      "m"
    ],
    [
      "p",
      "o"
    ],
    [
      "i",
      "t"
    ],
    [
      "i",
      "d"
    ],
    [
      "pr",
      "o"
    ],
    [
      "m",
      "a"
    ],
    [
      "qu",
      "e "
    ],
    [
      "a",
      "s"
    ],
    [
      "é",
      " "
    ],
    [
      "d",
      "a "
    ],
    [
      "or",
      " "
    ],
    [
      "o",
      "n"
    ],
    [
      "a",
      "ção "
    ],
    [
      "u",
      "ma "
    ],
    [
      "o ",
      "de "
    ],
    [
      "u",
      "m "
    ],
    [
      "ar",
      " "
    ],
    [
      "i",
      "s "
    ],
    [
      "i",
      "m"
    ],
    [
      "co",
      "n"
    ],
    [
      "o",
      "u"
    ],
    [
      "e",
      "x"
    ],
    [
      "al",
      " "
    ],
    [
      "p",
      "l"
    ],
    [
      "par",
      "a "
    ],
    [
      "er",
      " "
    ],
    [
      "r",
      "i"
    ],
    [
      "u",
      "r"
    ],
    [
      "d",
      "i"
    ],
    [
      "e",
      "t"
    ],
    [
      "u",
      "t"
    ],
    [
      "u",
      "n"
    ],
    [
      "es",
      "t"
    ],
    [
      "o",
      ", "
    ],
    [
      "a",
      "t"
    ],
    [
      "o",
      "s"
    ],
    [
      "u",
      "l"
    ],
    [
      "ad",
      "a "
    ],
    [
      "ent",
      "e "
    ],
    [
      "es",
      "s"
    ],
    [
      "e",
      "c"
    ],
    [
      "g",
      "r"
    ],
    [
      "f",
      "or"
    ],
    [
      "i",
      "z"
    ],
    [
      "is",
      "t"
    ],
    [
      "õ",
      "es "
    ],
    [
      "u",
      "s"
    ],
    [
      "a",
      "ç"
    ],
    [
      "ou",
      " "
    ],
    [
      "o",
      "l"
    ],
    [
      "a",
      "nt"
    ],
    [
      "ad",
      "os "
    ],
    [
      "s",
      "e"
    ],
    [
      "a ",
      "de "
    ],
    [
      "a",
      "b"
    ],
    [
      ". ",
      "A"
    ],
    [
      "i",
      "r"
    ],
    [
      "a",
      "de "
    ],
    [
      "ad",
      "o "
    ],
    [
      "a",
      ", "
    ],
    [
      "i",
      "l"
    ],
    [
      "t",
      "ic"
    ],
    [
      ":",
      " "
    ],
    [
      "s",
      "u"
    ],
    [
      "s",
      "ão "
    ],
    [
      "g",
      "u"
    ],
    [
      "s",
      "e "
    ],
    [
      "d",
      "e"
    ],
    [
      "com",
      "o "
    ],
    [
      "co",
      "m "
    ],
    [
      "o",
      "d"
    ],
    [
      "a",
      "m "
    ],
    [
      "f",
      "ic"
    ],
    [
      "s",
      "i"
    ],
    [
      "d",
      "is"
    ],
    [
      "p",
      "or "
    ],
    [
      "p",
      "er"
    ],
    [
      "o",
      "m"
    ],
    [
      "o",
      "b"
    ],
    [
      "n",
      "ci"
    ],
    [
      "i",
      "b"
    ],
    [
      "a",
      "g"
    ],
    [
      "ti",
      "v"
    ],
    [
      "i",
      "nt"
    ],
    [
      "am",
      "ent"
    ],
    [
      ")",
      " "
    ],
    [
      "a",
      "c"
    ],
    [
      "id",
      "ade "
    ],
    [
      ". ",
      "E"
    ],
    [
      "d",
      "es"
    ],
    [
      "a",
      "is "
    ],
    [
      "f",
      "un"
    ],
    [
      "or",
      "es "
    ],
    [
      "i",
      "a "
    ],
    [
      "s",
      "er "
    ],
    [
      "ê",
      "nci"
    ],
    [
      "a",
      "v"
    ],
    [
      ". ",
      "O"
    ],
    [
      "co",
      "nt"
    ],
    [
      "n",
      "a "
    ],
    [
      "e",
      ", "
    ],
    [
      "com",
      "p"
    ],
    [
      "n",
      "o "
    ],
    [
      "an",
      "do "
    ],
    [
      "u",
      "i"
    ],
    [
      "os ",
      "de "
    ],
    [
      "v",
      "el"
    ],
    [
      "ent",
      "r"
    ],
    [
      "ad",
      "as "
    ],
    [
      "tr",
      "ib"
    ],
    [
      "l",
      "in"
    ],
    [
      "s",
      "t"
    ],
    [
      "v",
      "e"
    ],
    [
      "n",
      "ão "
    ],
    [
      "r",
      "es"
    ],
    [
      "i",
      "g"
    ],
    [
      "v",
      "er"
    ],
    [
      "d",
      "os "
    ],
    [
      "ci",
      "on"
    ],
    [
      ". A",
      " "
    ],
    [
      "f",
      "in"
    ],
    [
      "pro",
      "b"
    ],
    [
      "f",
      "er"
    ],
    [
      "ç",
      "ões "
    ],
    [
      "á",
      "ri"
    ],
    [
      "e",
      "ci"
    ],
    [
      "o",
      "c"
    ],
    [
      "as ",
      "de "
    ],
    [
      "dis",
      "trib"
    ],
    [
      "c",
      "l"
    ],
    [
      "ção ",
      "de "
    ],
    [
      "c",
      "h"
    ],
    [
      "in",
      "g"
    ],
    [
      "e",
      "d"
    ],
    [
      "t",
      "o"
    ],
    [
      "m",
      "ent"
    ],
    [
      "ma",
      "is "
    ],
    [
      "s",
      "ist"
    ],
    [
      "ã",
      "o"
    ],
    [
      "e",
      "ir"
    ],
    [
      "i",
      " "
    ],
    [
      "distrib",
      "ui"
    ],
    [
      "v",
      "al"
    ],
    [
      "for",
      "ma"
    ],
    [
      "comp",
      "ut"
    ],
    [
      "es",
      "p"
    ],
    [
      "am",
      "ente "
    ],
    [
      "aç",
      "ões "
    ],
    [
      "u",
      " "
    ],
    [
      "t",
      "er"
    ],
    [
      "l",
      "e"
    ],
    [
      "p",
      "el"
    ],
    [
      " ",
      "e "
    ],
    [
      "po",
      "de "
    ],
    [
      "o",
      "g"
    ],
    [
      "i",
      "v"
    ],
    [
      "m",
      "ente "
    ],
    [
      ". O",
      " "
    ],
    [
      "p",
      "or"
    ],
    [
      "pl",
      "ic"
    ],
    [
      "e ",
      "de "
    ],
    [
      "os",
      ", "
    ],
    [
      "ação ",
      "de "
    ],
    [
      ". ",
      "P"
    ],
    [
      "n",
      "i"
    ],
    [
      "t",
      "em"
    ],
    [
      "ó",
      "ri"
    ],
    [
      "vel",
      " "
    ],
    [
      "d",
      "ados "
    ],
    [
      "é",
      "m "
    ],
    [
      "pro",
      "c"
    ],
    [
      "a",
      "p"
    ],
    [
      "m",
      "od"
    ],
    [
      "a",
      "tiv"
    ],
    [
      "am",
      "b"
    ],
    [
      "ic",
      "a "
    ],
    [
      ";",
      " "
    ],
    [
      "d",
      "as "
    ],
    [
      "em",
      "pl"
    ],
    [
      "á",
      "l"
    ],
    [
      "t",
      "e"
    ],
    [
      "1",
      "9"
    ],
    [
      "v",
      "et"
    ],
    [
      "ênci",
      "a "
    ],
    [
      "po",
      "d"
    ],
    [
      "al",
      "g"
    ],
    [
      "s",
      "s"
    ],
    [
      "v",
      "ol"
    ],
    [
      "ã",
      "o, "
    ],
    [
      "gr",
      "a"
    ],
    [
      "ar",
      "i"
    ],
    [
      "f",
      "o"
    ],
    [
      "á",
      " "
    ],
    [
      "a",
      "o "
    ],
    [
      "d",
      "u"
    ],
    [
      "g",
      "er"
    ],
    [
      "tr",
      "iz"
    ],
    [
      "s",
      "o"
    ],
    [
      "ti",
      "l"
    ],
    [
      "ab",
      "il"
    ],
    [
      "pr",
      "es"
    ],
    [
      "e ",
      "a "
    ],
    [
      "ou",
      "tr"
    ],
    [
      "ma",
      "triz"
    ],
    [
      "ag",
      "em "
    ],
    [
      "ex",
      "empl"
    ],
    [
      "proc",
      "ess"
    ],
    [
      "o",
      "t"
    ],
    [
      "A",
      " "
    ],
    [
      "à",
      " "
    ],
    [
      "j",
      "u"
    ],
    [
      "m",
      "an"
    ],
    [
      "a",
      ". "
    ],
    [
      "c",
      "or"
    ],
    [
      "id",
      "ad"
    ],
    [
      " ",
      "de "
    ],
    [
      "í",
      "s"
    ],
    [
      "en",
      "s"
    ],
    [
      "as",
      ", "
    ],
    [
      "de",
      "fin"
    ],
    [
      "a",
      "ut"
    ],
    [
      "co",
      "s "
    ],
    [
      "a",
      "cion"
    ],
    [
      "s",
      "er"
    ],
    [
      "es ",
      "de "
    ],
    [
      "es",
      ", "
    ],
    [
      "it",
      "o "
    ],
    [
      "con",
      "h"
    ],
    [
      "int",
      "er"
    ],
    [
      "mod",
      "el"
    ],
    [
      "c",
      "ri"
    ],
    [
      "m",
      "er"
    ],
    [
      "s",
      "ob"
    ],
    [
      "gr",
      "am"
    ],
    [
      "al",
      "mente "
    ],
    [
      "m",
      "o "
    ],
    [
      "n",
      "e"
    ],
    [
      "in",
      "forma"
    ],
    [
      "s",
      "tr"
    ],
    [
      "m",
      "as "
    ],
    [
      "distribui",
      "ção "
    ],
    [
      "á",
      "tic"
    ],
    [
      "c",
      "ul"
    ],
    [
      "a ",
      "m"
    ],
    [
      "pode ",
      "ser "
    ],
    [
      "re",
      "l"
    ],
    [
      "al",
      "iz"
    ],
    [
      "tr",
      "an"
    ],
    [
      "c",
      "r"
    ],
    [
      "conh",
      "eci"
    ],
    [
      "amb",
      "ém "
    ],
    [
      "n",
      "or"
    ],
    [
      "c",
      "e"
    ],
    [
      "ad",
      "or "
    ],
    [
      "ju",
      "nt"
    ],
    [
      "lin",
      "gu"
    ],
    [
      "b",
      "as"
    ],
    [
      "cont",
      "r"
    ],
    [
      "e",
      "ma "
    ],
    [
      "-",
      "se "
    ],
    [
      "t",
      "od"
    ],
    [
      ")",
      ", "
    ],
    [
      "v",
      "ari"
    ],
    [
      "a",
      "is"
    ],
    [
      "ent",
      "es "
    ],
    [
      " ",
      "("
    ],
    [
      "t",
      "o "
    ],
    [
      "m",
      "in"
    ],
    [
      "e ",
      "o "
    ],
    [
      "pr",
      "im"
    ],
    [
      "po",
      "n"
    ],
    [
      "f",
      "i"
    ],
    [
      "fo",
      "i "
    ],
    [
      "2",
      "0"
    ],
    [
      "d",
      "ad"
    ],
    [
      "ad",
      "r"
    ],
    [
      "ir",
      " "
    ],
    [
      "t",
      "ambém "
    ],
    [
      "ament",
      "o "
    ],
    [
      "s",
      "im"
    ],
    [
      "pod",
      "em "
    ],
    [
      ". ",
      "U"
    ],
    [
      "ó",
      "g"
    ],
    [
      "m",
      "u"
    ],
    [
      "di",
      "re"
    ],
    [
      "n",
      "ú"
    ],
    [
      "con",
      "junt"
    ],
    [
      "a",
      "z"
    ],
    [
      "or",
      "d"
    ],
    [
      "pres",
      "ent"
    ],
    [
      ". E",
      "m "
    ],
    [
      "ver",
      "s"
    ],
    [
      "en",
      "vol"
    ],
    [
      "an",
      "ç"
    ],
    [
      "en",
      "h"
    ],
    [
      "c",
      "ada "
    ],
    [
      "por",
      "t"
    ],
    [
      "em",
      "as "
    ],
    [
      "c",
      "ur"
    ],
    [
      "com",
      "pl"
    ],
    [
      "or",
      "i"
    ],
    [
      "ar ",
      "a "
    ],
    [
      "ul",
      "t"
    ],
    [
      "p",
      "o "
    ],
    [
      "sob",
      "r"
    ],
    [
      "prob",
      "abil"
    ],
    [
      "al",
      ", "
    ],
    [
      "ch",
      "am"
    ],
    [
      "u",
      "til"
    ],
    [
      "m",
      "é"
    ],
    [
      "en",
      "ci"
    ],
    [
      "pro",
      "gram"
    ],
    [
      "w",
      "ar"
    ],
    [
      "ic",
      "i"
    ],
    [
      "c",
      "ar"
    ],
    [
      "C",
      "om"
    ],
    [
      "b",
      "r"
    ],
    [
      "entr",
      "e "
    ],
    [
      "a",
      "ci"
    ],
    [
      "for",
      "ma "
    ],
    [
      "nú",
      "mer"
    ],
    [
      "d",
      "o"
    ],
    [
      "o",
      "v"
    ],
    [
      ". ",
      "N"
    ],
    [
      "a",
      "plic"
    ],
    [
      "im",
      "ent"
    ],
    [
      "or",
      "it"
    ],
    [
      "nor",
      "m"
    ],
    [
      "di",
      "fer"
    ],
    [
      "co",
      "l"
    ],
    [
      "fun",
      "ção "
    ],
    [
      "idade ",
      "de "
    ],
    [
      "tran",
      "s"
    ],
    [
      " ",
      "é "
    ],
    [
      "ad",
      "ores "
    ],
    [
      "util",
      "iz"
    ],
    [
      "qu",
      "in"
    ],
    [
      "a ",
      "a "
    ],
    [
      "á",
      "quin"
    ],
    [
      "v",
      "i"
    ],
    [
      "ís",
      "tic"
    ],
    [
      "c",
      "am"
    ],
    [
      "c",
      "al"
    ],
    [
      "e",
      "qu"
    ],
    [
      "em",
      "ent"
    ],
    [
      "o ",
      "da "
    ],
    [
      "for",
      "m"
    ],
    [
      "d",
      "et"
    ],
    [
      "ing",
      " "
    ],
    [
      ". ",
      "S"
    ],
    [
      "ve",
      "z"
    ],
    [
      "d",
      "er"
    ],
    [
      "qu",
      "er "
    ],
    [
      "aç",
      "ão"
    ],
    [
      "con",
      "s"
    ],
    [
      "as",
      "s"
    ],
    [
      "it",
      "os "
    ],
    [
      "ne",
      "ur"
    ],
    [
      "o ",
      "que "
    ],
    [
      "gra",
      "f"
    ],
    [
      "í",
      "n"
    ],
    [
      "T",
      "ur"
    ],
    [
      "id",
      "a "
    ],
    [
      "ve",
      "is "
    ],
    [
      "y",
      " "
    ],
    [
      "pr",
      "e"
    ],
    [
      "qu",
      "ant"
    ],
    [
      "alg",
      "orit"
    ],
    [
      "prim",
      "eir"
    ],
    [
      "di",
      "g"
    ],
    [
      "f",
      "r"
    ],
    [
      "f",
      "t"
    ],
    [
      "á",
      "vel "
    ],
    [
      "m",
      "es"
    ],
    [
      "m",
      "e"
    ],
    [
      "í",
      "vel "
    ],
    [
      "po",
      "st"
    ],
    [
      "esp",
      "aç"
    ],
    [
      "P",
      "r"
    ],
    [
      "c",
      "as"
    ],
    [
      "al",
      "h"
    ],
    [
      "fic",
      "i"
    ],
    [
      "se",
      "gu"
    ],
    [
      "su",
      "a "
    ],
    [
      "ant",
      "e "
    ],
    [
      "qu",
      "al"
    ],
    [
      "en",
      "s "
    ],
    [
      "al ",
      "de "
    ],
    [
      "o ",
      "é "
    ],
    [
      "su",
      "b"
    ],
    [
      "a ",
      "e "
    ],
    [
      "envol",
      "v"
    ],
    [
      "j",
      "et"
    ],
    [
      ". ",
      "D"
    ],
    [
      "se",
      "j"
    ],
    [
      "re",
      "d"
    ],
    [
      "prob",
      "l"
    ],
    [
      "l",
      "i"
    ],
    [
      "n",
      "ec"
    ],
    [
      "po",
      "nt"
    ],
    [
      "ál",
      "is"
    ],
    [
      "re",
      "t"
    ],
    [
      "p",
      "es"
    ],
    [
      "para ",
      "a "
    ],
    [
      "exempl",
      "o, "
    ],
    [
      "re",
      "present"
    ],
    [
      "sist",
      "ema "
    ],
    [
      "re",
      "de "
    ],
    [
      "pel",
      "a "
    ],
    [
      "o ",
      "do "
    ],
    [
      "se",
      "g"
    ],
    [
      "po",
      "si"
    ],
    [
      "s",
      "em"
    ],
    [
      "es",
      "tr"
    ],
    [
      "on",
      " "
    ],
    [
      "po",
      "s"
    ],
    [
      "óri",
      "a "
    ],
    [
      "ti",
      "r"
    ],
    [
      "ad",
      "or"
    ],
    [
      "esp",
      "eci"
    ],
    [
      "-",
      " "
    ],
    [
      "der",
      "iv"
    ],
    [
      ". ",
      "C"
    ],
    [
      "er",
      "min"
    ],
    [
      "ec",
      "is"
    ],
    [
      "est",
      "e "
    ],
    [
      "\"",
      " "
    ],
    [
      "e",
      "f"
    ],
    [
      "p",
      "adr"
    ],
    [
      "m",
      "ul"
    ],
    [
      "se",
      "u "
    ],
    [
      "t",
      "u"
    ],
    [
      "det",
      "ermin"
    ],
    [
      "po",
      "ss"
    ],
    [
      "el",
      "h"
    ],
    [
      "t",
      "h"
    ],
    [
      "val",
      "ores "
    ],
    [
      "o",
      "per"
    ],
    [
      "c",
      "u"
    ],
    [
      "ut",
      "ur"
    ],
    [
      "m",
      "em"
    ],
    [
      "compl",
      "ex"
    ],
    [
      "m",
      "os "
    ],
    [
      "ar ",
      "o "
    ],
    [
      "m",
      "o"
    ],
    [
      "lingu",
      "agem "
    ],
    [
      "ft",
      "war"
    ],
    [
      "é",
      "r"
    ],
    [
      "or",
      "ia "
    ],
    [
      "pel",
      "o "
    ],
    [
      "m",
      "áquin"
    ],
    [
      "t",
      "em "
    ],
    [
      "per",
      "m"
    ],
    [
      "tod",
      "os "
    ],
    [
      "n",
      "ic"
    ],
    [
      "str",
      "u"
    ],
    [
      "s",
      ", "
    ],
    [
      "aç",
      "ão, "
    ],
    [
      "i",
      "do "
    ],
    [
      "o ",
      "e "
    ],
    [
      "l",
      "óg"
    ],
    [
      "in",
      "cl"
    ],
    [
      "é ",
      "um "
    ],
    [
      "id",
      "er"
    ],
    [
      "pr",
      "i"
    ],
    [
      "on",
      "de "
    ],
    [
      "a",
      "u"
    ],
    [
      "v",
      "is"
    ],
    [
      "podem ",
      "ser "
    ],
    [
      "que ",
      "o "
    ],
    [
      ". O",
      "s "
    ],
    [
      "matriz",
      " "
    ],
    [
      "i",
      "fic"
    ],
    [
      "qual",
      "quer "
    ],
    [
      "ó",
      "dig"
    ],
    [
      "aut",
      "o"
    ],
    [
      "val",
      "or "
    ],
    [
      "lin",
      "e"
    ],
    [
      "qu",
      "ando "
    ],
    [
      "sobr",
      "e "
    ],
    [
      "er",
      "r"
    ],
    [
      "an",
      "d"
    ],
    [
      "le",
      "ma "
    ],
    [
      "conheci",
      "ment"
    ],
    [
      "é ",
      "uma "
    ],
    [
      "p",
      "al"
    ],
    [
      "G",
      "P"
    ],
    [
      "p",
      "e"
    ],
    [
      "el",
      "ig"
    ],
    [
      "ar",
      "ti"
    ],
    [
      "qu",
      "is"
    ],
    [
      "an",
      "ális"
    ],
    [
      "é ",
      "o "
    ],
    [
      "i",
      "x"
    ],
    [
      "que ",
      "a "
    ],
    [
      "as ",
      "e "
    ],
    [
      ". P",
      "or "
    ],
    [
      "s",
      "ol"
    ],
    [
      "ma",
      "i"
    ],
    [
      "d",
      "ade "
    ],
    [
      "des",
      "envolv"
    ],
    [
      "or",
      "n"
    ],
    [
      "est",
      "u"
    ],
    [
      "b",
      "l"
    ],
    [
      "ag",
      "ens "
    ],
    [
      ". A",
      "s "
    ],
    [
      "ament",
      "o de "
    ],
    [
      "probabil",
      "idade "
    ],
    [
      "f",
      "l"
    ],
    [
      "ada ",
      "de "
    ],
    [
      "re",
      "g"
    ],
    [
      "a ",
      "em "
    ],
    [
      "o",
      "p"
    ],
    [
      "si",
      "g"
    ],
    [
      "v",
      "e "
    ],
    [
      "pr",
      "in"
    ],
    [
      "in",
      "do "
    ],
    [
      "res",
      "ult"
    ],
    [
      "ex",
      "ec"
    ],
    [
      "a ",
      "da "
    ],
    [
      "I",
      "nt"
    ],
    [
      "vet",
      "or "
    ],
    [
      "mes",
      "mo "
    ],
    [
      "c",
      "ódig"
    ],
    [
      "para ",
      "o "
    ],
    [
      "al",
      "e"
    ],
    [
      "s",
      "a"
    ],
    [
      "ent",
      "ão "
    ],
    [
      "ess",
      "e "
    ],
    [
      "distribuição ",
      "norm"
    ],
    [
      "n",
      " "
    ],
    [
      "prob",
      "lema "
    ],
    [
      "h",
      "u"
    ],
    [
      ", ",
      "a "
    ],
    [
      "fun",
      "ções "
    ],
    [
      "or",
      "t"
    ],
    [
      "ici",
      "on"
    ],
    [
      "conjunt",
      "o de "
    ],
    [
      "f",
      "e"
    ],
    [
      "I",
      "n"
    ],
    [
      "so",
      "ftwar"
    ],
    [
      "estr",
      "utur"
    ],
    [
      "a",
      "tr"
    ],
    [
      "ol",
      "og"
    ],
    [
      "pr",
      "ess"
    ],
    [
      "ma",
      "tem"
    ],
    [
      "nec",
      "ess"
    ],
    [
      "c",
      "ap"
    ],
    [
      "ad",
      "i"
    ],
    [
      "t",
      "er "
    ],
    [
      ". U",
      "ma "
    ],
    [
      "ul",
      "ar"
    ],
    [
      "Tur",
      "ing "
    ],
    [
      "u",
      "ção "
    ],
    [
      "im",
      "it"
    ],
    [
      "est",
      "a "
    ],
    [
      "av",
      "r"
    ],
    [
      "â",
      "nci"
    ],
    [
      "informa",
      "ção "
    ],
    [
      "so",
      "ci"
    ],
    [
      ". ",
      "T"
    ],
    [
      "pal",
      "avr"
    ],
    [
      "ale",
      "at"
    ],
    [
      "o ",
      "em "
    ],
    [
      "du",
      "z"
    ],
    [
      "se",
      "qu"
    ],
    [
      "ç",
      "ão"
    ],
    [
      "v",
      "id"
    ],
    [
      "ab",
      "alh"
    ],
    [
      "O",
      " "
    ],
    [
      "red",
      "es "
    ],
    [
      "cri",
      "p"
    ],
    [
      "é ",
      "a "
    ],
    [
      "re",
      "cur"
    ],
    [
      "to",
      "do "
    ],
    [
      "ári",
      "os "
    ],
    [
      "ant",
      "es "
    ],
    [
      "õ",
      "es"
    ],
    [
      "cons",
      "ider"
    ],
    [
      "ais",
      ", "
    ],
    [
      "incl",
      "u"
    ],
    [
      "ant",
      "o, "
    ],
    [
      "u",
      "s "
    ],
    [
      "t",
      "ar"
    ],
    [
      "tr",
      "abalh"
    ],
    [
      "ti",
      "p"
    ],
    [
      "ec",
      "t"
    ],
    [
      "m",
      "en"
    ],
    [
      "ér",
      "tic"
    ],
    [
      "com ",
      "o "
    ],
    [
      "ac",
      "ter"
    ],
    [
      "er",
      "i"
    ],
    [
      "v",
      "értic"
    ],
    [
      "par",
      "t"
    ],
    [
      "fun",
      "ção de "
    ],
    [
      "f",
      "al"
    ],
    [
      "er",
      "t"
    ],
    [
      "C",
      "h"
    ],
    [
      "for",
      "am "
    ],
    [
      "f",
      "az"
    ],
    [
      "di",
      "fic"
    ],
    [
      "i",
      "p"
    ],
    [
      "en",
      "er"
    ],
    [
      "e",
      "g"
    ],
    [
      "n",
      "os "
    ],
    [
      "car",
      "acter"
    ],
    [
      "in",
      "h"
    ],
    [
      "hu",
      "man"
    ],
    [
      "int",
      "elig"
    ],
    [
      "ad",
      "o"
    ],
    [
      "a ",
      "uma "
    ],
    [
      "sist",
      "em"
    ],
    [
      "con",
      "ce"
    ],
    [
      "un",
      "s "
    ],
    [
      "as",
      "si"
    ],
    [
      "el",
      "e "
    ],
    [
      "em ",
      "um "
    ],
    [
      "en",
      "as "
    ],
    [
      "bas",
      "e"
    ],
    [
      "d",
      "ut"
    ],
    [
      "a ",
      "um "
    ],
    [
      "ênci",
      "a de "
    ],
    [
      "á",
      "veis "
    ],
    [
      "a ",
      "o "
    ],
    [
      "re",
      "qu"
    ],
    [
      "é",
      "c"
    ],
    [
      "ex",
      "t"
    ],
    [
      "c",
      "re"
    ],
    [
      "sim",
      "pl"
    ],
    [
      "l",
      "og"
    ],
    [
      "ex",
      "ist"
    ],
    [
      "e",
      "in"
    ],
    [
      "ál",
      "cul"
    ],
    [
      "v",
      "er "
    ],
    [
      "s",
      "in"
    ],
    [
      "ç",
      "ão, "
    ],
    [
      ". ",
      "M"
    ],
    [
      "g",
      "an"
    ],
    [
      "el",
      "e"
    ],
    [
      "sist",
      "emas "
    ],
    [
      "es",
      "cal"
    ],
    [
      "a",
      "ti"
    ],
    [
      "er",
      "n"
    ],
    [
      "it",
      "as "
    ],
    [
      "0",
      " "
    ],
    [
      ". U",
      "m "
    ],
    [
      "it",
      "a "
    ],
    [
      "ar",
      "am "
    ],
    [
      "com",
      "par"
    ],
    [
      "im",
      "pl"
    ],
    [
      "rel",
      "acion"
    ],
    [
      "vet",
      "ores "
    ],
    [
      "sa",
      "í"
    ],
    [
      "pr",
      "ecis"
    ],
    [
      "p",
      "ass"
    ],
    [
      "a",
      ": "
    ],
    [
      "i",
      "gu"
    ],
    [
      "ap",
      "enas "
    ],
    [
      "os ",
      "e "
    ],
    [
      "es",
      "ti"
    ],
    [
      "ser",
      "v"
    ],
    [
      "outr",
      "as "
    ],
    [
      "vet",
      "ori"
    ],
    [
      "do",
      "is "
    ],
    [
      ", ",
      "que "
    ],
    [
      "an",
      "c"
    ],
    [
      "par",
      "tir"
    ],
    [
      "de ",
      "uma "
    ],
    [
      "du",
      "as "
    ],
    [
      "s",
      "em "
    ],
    [
      "p",
      "ut"
    ],
    [
      "l",
      "imit"
    ],
    [
      "an",
      "al"
    ],
    [
      "est",
      "ão "
    ],
    [
      "rel",
      "ação "
    ],
    [
      "ess",
      "o"
    ],
    [
      "ári",
      "as "
    ],
    [
      "o ",
      "("
    ],
    [
      "é",
      "s "
    ],
    [
      "b",
      "i"
    ],
    [
      "em ",
      "uma "
    ],
    [
      "fun",
      "cion"
    ],
    [
      "a ",
      "("
    ],
    [
      "perm",
      "it"
    ],
    [
      "os",
      "tr"
    ],
    [
      "a ",
      "que "
    ],
    [
      "pro",
      "pri"
    ],
    [
      "en",
      "contr"
    ],
    [
      "pro",
      "v"
    ],
    [
      "pro",
      "dut"
    ],
    [
      "GP",
      "T"
    ],
    [
      ". P",
      "ar"
    ],
    [
      "t",
      "est"
    ],
    [
      ", ",
      "o "
    ],
    [
      "al",
      "i"
    ],
    [
      "at",
      "u"
    ],
    [
      "in",
      "v"
    ],
    [
      "res",
      "pon"
    ],
    [
      "us",
      "u"
    ],
    [
      "o",
      ": "
    ],
    [
      "at",
      "ur"
    ],
    [
      "ári",
      "o "
    ],
    [
      "com ",
      "a "
    ],
    [
      "prin",
      "ci"
    ],
    [
      "ni",
      "fic"
    ],
    [
      "1",
      " "
    ],
    [
      "tar",
      "ef"
    ],
    [
      "il",
      "h"
    ],
    [
      "distribuição norm",
      "al "
    ],
    [
      "f",
      " "
    ],
    [
      "u",
      "p"
    ],
    [
      "Q",
      "u"
    ],
    [
      "program",
      "ação "
    ],
    [
      "sig",
      "nific"
    ],
    [
      "probl",
      "emas "
    ],
    [
      "ad",
      "o de "
    ],
    [
      "quant",
      "o "
    ],
    [
      ". E",
      "st"
    ],
    [
      "idad",
      "es "
    ],
    [
      ". ",
      "I"
    ],
    [
      "matem",
      "átic"
    ],
    [
      "e",
      "gr"
    ],
    [
      "s",
      "ti"
    ],
    [
      "í",
      "ni"
    ],
    [
      "lin",
      "h"
    ],
    [
      "x",
      "im"
    ],
    [
      "distribui",
      "ção de "
    ],
    [
      "defin",
      "i"
    ],
    [
      "á",
      "re"
    ],
    [
      "is",
      "s"
    ],
    [
      "outr",
      "os "
    ],
    [
      "f",
      "requ"
    ],
    [
      "a ",
      "do "
    ],
    [
      "en",
      "ç"
    ],
    [
      "t",
      "orn"
    ],
    [
      "20",
      "0"
    ],
    [
      "ad",
      "os"
    ],
    [
      "pr",
      "ó"
    ],
    [
      "est",
      "at"
    ],
    [
      "res",
      "ol"
    ],
    [
      "crip",
      "to"
    ],
    [
      "tem",
      "po "
    ],
    [
      "est",
      "á "
    ],
    [
      "p",
      "esso"
    ],
    [
      "í",
      "ci"
    ],
    [
      "i",
      "ma"
    ],
    [
      "d",
      "im"
    ],
    [
      "A",
      "l"
    ],
    [
      "comput",
      "ação "
    ],
    [
      "ex",
      "press"
    ],
    [
      "b",
      "in"
    ],
    [
      "pes",
      "quis"
    ],
    [
      "ac",
      "ess"
    ],
    [
      "m",
      "i"
    ],
    [
      "em",
      "p"
    ],
    [
      " ",
      "S"
    ],
    [
      "pro",
      "p"
    ],
    [
      "gr",
      "á"
    ],
    [
      "exec",
      "ut"
    ],
    [
      ". A",
      "l"
    ],
    [
      ", ",
      "e "
    ],
    [
      "tr",
      "ein"
    ],
    [
      "desenvolv",
      "iment"
    ],
    [
      "ar",
      "qu"
    ],
    [
      "le",
      "v"
    ],
    [
      "ó",
      "r"
    ],
    [
      "todos ",
      "os "
    ],
    [
      "model",
      "o "
    ],
    [
      "mul",
      "ti"
    ],
    [
      "pos",
      "su"
    ],
    [
      "t",
      "éc"
    ],
    [
      "mu",
      "ito "
    ],
    [
      "idad",
      "e"
    ],
    [
      "po",
      "l"
    ],
    [
      "r",
      "an"
    ],
    [
      "te",
      "oria "
    ],
    [
      "ó",
      "s "
    ],
    [
      "ê",
      "s "
    ],
    [
      "gra",
      "ma "
    ],
    [
      "a",
      "ix"
    ],
    [
      "e",
      "v"
    ],
    [
      "m",
      "b"
    ],
    [
      "iz",
      "ação "
    ],
    [
      "em",
      "os "
    ],
    [
      "Com",
      "put"
    ],
    [
      "us",
      "ando "
    ],
    [
      "f",
      "or "
    ],
    [
      "u",
      "z"
    ],
    [
      "impl",
      "ement"
    ],
    [
      "mem",
      "ória "
    ],
    [
      "or",
      "ig"
    ],
    [
      "j",
      "e"
    ],
    [
      "espaç",
      "o "
    ],
    [
      "em ",
      "19"
    ],
    [
      "ec",
      "n"
    ],
    [
      "a ",
      "é "
    ],
    [
      ". Por ",
      "exemplo, "
    ],
    [
      "de ",
      "um "
    ],
    [
      "im",
      "port"
    ],
    [
      "É",
      " "
    ],
    [
      "princi",
      "p"
    ],
    [
      ". E",
      "l"
    ],
    [
      "seg",
      "ur"
    ],
    [
      "entr",
      "ada "
    ],
    [
      "ad",
      "a"
    ],
    [
      "re",
      "aliz"
    ],
    [
      "vari",
      "ável "
    ],
    [
      "ic",
      "as "
    ],
    [
      "comput",
      "acion"
    ],
    [
      "m",
      "elh"
    ],
    [
      "es",
      "cr"
    ],
    [
      "ob",
      "jet"
    ],
    [
      "d",
      "en"
    ],
    [
      "k",
      " "
    ],
    [
      "n",
      "ov"
    ],
    [
      "c",
      "álcul"
    ],
    [
      "probl",
      "em"
    ],
    [
      "20",
      "1"
    ],
    [
      "un",
      "ic"
    ],
    [
      "matriz",
      "es "
    ],
    [
      "o",
      "ci"
    ],
    [
      "ament",
      "e, "
    ],
    [
      "p",
      "a"
    ],
    [
      "em",
      "ente "
    ],
    [
      "su",
      "per"
    ],
    [
      "p",
      "i"
    ],
    [
      "s",
      "é"
    ],
    [
      "\n",
      "\n"
    ],
    [
      "ess",
      "a "
    ],
    [
      ". E",
      "x"
    ],
    [
      "í",
      "veis "
    ],
    [
      "e ",
      "uma "
    ],
    [
      "como ",
      "o "
    ],
    [
      "pro",
      "jet"
    ],
    [
      "C",
      " "
    ],
    [
      "f",
      "at"
    ],
    [
      "ação ",
      "da "
    ],
    [
      "ada ",
      "por "
    ],
    [
      "atr",
      "av"
    ],
    [
      "comput",
      "ador "
    ],
    [
      "el",
      "ement"
    ],
    [
      "í",
      "tic"
    ],
    [
      "como ",
      "a "
    ],
    [
      "dad",
      "os"
    ],
    [
      "ê",
      "m "
    ],
    [
      "vez",
      " "
    ],
    [
      "line",
      "ar"
    ],
    [
      "si",
      "v"
    ],
    [
      "u",
      "í"
    ],
    [
      "fun",
      "d"
    ],
    [
      "z",
      "en"
    ],
    [
      "e",
      "j"
    ],
    [
      "s",
      "í"
    ],
    [
      "ín",
      "u"
    ],
    [
      "ções ",
      "de "
    ],
    [
      "se",
      "us "
    ],
    [
      "en",
      "c"
    ],
    [
      "ad",
      "o, "
    ],
    [
      "ex",
      "to "
    ],
    [
      "av",
      "ali"
    ],
    [
      "an",
      "h"
    ],
    [
      "cont",
      "ínu"
    ],
    [
      "t",
      "al "
    ],
    [
      "padr",
      "ão "
    ],
    [
      "e",
      "ç"
    ],
    [
      "pro",
      "grama "
    ],
    [
      "re",
      "gr"
    ],
    [
      ". N",
      "o "
    ],
    [
      "re",
      "fer"
    ],
    [
      "ar ",
      "uma "
    ],
    [
      "as ",
      "as "
    ],
    [
      "númer",
      "o de "
    ],
    [
      "N",
      " "
    ],
    [
      "qu",
      "adr"
    ],
    [
      "l",
      "ig"
    ],
    [
      "gr",
      "adi"
    ],
    [
      "tr",
      "ad"
    ],
    [
      "at",
      "é "
    ],
    [
      "gr",
      "an"
    ],
    [
      "qu",
      "al "
    ],
    [
      "cor",
      "r"
    ],
    [
      "ar",
      "ma"
    ],
    [
      "on",
      "al "
    ],
    [
      "p",
      "u"
    ],
    [
      "as",
      "soci"
    ],
    [
      "en",
      "são "
    ],
    [
      "in",
      "d"
    ],
    [
      "a",
      "f"
    ],
    [
      "ic",
      "o "
    ],
    [
      "ab",
      "el"
    ],
    [
      "ac",
      "h"
    ],
    [
      "el",
      "es "
    ],
    [
      "segu",
      "int"
    ],
    [
      "ô",
      "ni"
    ],
    [
      "po",
      "is "
    ],
    [
      "L",
      "e"
    ],
    [
      "ent",
      "emente "
    ],
    [
      "em ",
      "que "
    ],
    [
      "aleat",
      "óri"
    ],
    [
      "atrav",
      "és "
    ],
    [
      "contr",
      "ol"
    ],
    [
      "R",
      "N"
    ],
    [
      "arma",
      "zen"
    ],
    [
      "por ",
      "exemplo, "
    ],
    [
      "difer",
      "entes "
    ],
    [
      "ação ",
      "do "
    ],
    [
      "et",
      " "
    ],
    [
      "A",
      "r"
    ],
    [
      "como ",
      "uma "
    ],
    [
      "su",
      "as "
    ],
    [
      "poss",
      "ível "
    ],
    [
      "in",
      "ici"
    ],
    [
      "\"",
      ", "
    ],
    [
      "de",
      "ve "
    ],
    [
      "g",
      "ener"
    ],
    [
      "co",
      "s"
    ],
    [
      "g",
      "e"
    ],
    [
      "graf",
      "o "
    ],
    [
      "I",
      "A "
    ],
    [
      "con",
      "stru"
    ],
    [
      "R",
      "e"
    ],
    [
      "ob",
      "serv"
    ],
    [
      "primeir",
      "o "
    ],
    [
      "2",
      " "
    ],
    [
      "a ",
      "para "
    ],
    [
      "lóg",
      "ica "
    ],
    [
      "co",
      "dific"
    ],
    [
      "cal",
      "cul"
    ],
    [
      "a",
      "os "
    ],
    [
      "l",
      "oc"
    ],
    [
      "int",
      "egr"
    ],
    [
      "Tur",
      "ing"
    ],
    [
      "ad",
      "as"
    ],
    [
      "id",
      "os "
    ],
    [
      "or",
      "r"
    ],
    [
      "õ",
      "es, "
    ],
    [
      "l",
      "ist"
    ],
    [
      "n",
      "as "
    ],
    [
      "d",
      " "
    ],
    [
      "ul",
      "ar "
    ],
    [
      "lingu",
      "agens "
    ],
    [
      "saí",
      "da "
    ],
    [
      "estat",
      "ístic"
    ],
    [
      "ve",
      "is"
    ],
    [
      "an",
      " "
    ],
    [
      "neur",
      "ais "
    ],
    [
      "propri",
      "ed"
    ],
    [
      "est",
      "as "
    ],
    [
      "us",
      "ado "
    ],
    [
      "us",
      "t"
    ],
    [
      "fin",
      "it"
    ],
    [
      "n",
      "ica "
    ],
    [
      "id",
      "as "
    ],
    [
      "Pr",
      "o"
    ],
    [
      "u",
      "m"
    ],
    [
      "a",
      "qu"
    ],
    [
      "us",
      "c"
    ],
    [
      "com",
      "pon"
    ],
    [
      "ações ",
      "de "
    ],
    [
      "fl",
      "u"
    ],
    [
      "u",
      "ment"
    ],
    [
      "intelig",
      "ência "
    ],
    [
      "deriv",
      "ada "
    ],
    [
      "ecn",
      "olog"
    ],
    [
      "comput",
      "adores "
    ],
    [
      "l",
      "ti"
    ],
    [
      "al",
      "el"
    ],
    [
      "ic",
      "amente "
    ],
    [
      "a ",
      "partir"
    ],
    [
      "ú",
      "lti"
    ],
    [
      "A",
      "n"
    ],
    [
      "d",
      "oc"
    ],
    [
      "posi",
      "ção "
    ],
    [
      "arti",
      "g"
    ],
    [
      "ou ",
      "a "
    ],
    [
      "códig",
      "o "
    ],
    [
      "ad",
      "a, "
    ],
    [
      "a",
      "us"
    ],
    [
      "anális",
      "e "
    ],
    [
      "s",
      "om"
    ],
    [
      "caracter",
      "ístic"
    ],
    [
      "arti",
      "fici"
    ],
    [
      "v",
      "árias "
    ],
    [
      "a",
      "in"
    ],
    [
      "t",
      "êm "
    ],
    [
      "ada ",
      "em "
    ],
    [
      "r",
      "od"
    ],
    [
      "ci",
      "fr"
    ],
    [
      "Ch",
      "at"
    ],
    [
      "fo",
      "nt"
    ],
    [
      "alg",
      "uns "
    ],
    [
      "primeir",
      "a "
    ],
    [
      ". E",
      "ss"
    ],
    [
      "d",
      "ist"
    ],
    [
      "algorit",
      "m"
    ],
    [
      "ch",
      "av"
    ],
    [
      "e ",
      "em "
    ],
    [
      "os ",
      "que "
    ],
    [
      "par",
      "tic"
    ],
    [
      "m",
      "ed"
    ],
    [
      "com",
      "unic"
    ],
    [
      "informa",
      "ções "
    ],
    [
      "n",
      "om"
    ],
    [
      "est",
      "ado "
    ],
    [
      "19",
      "9"
    ],
    [
      "Chat",
      "GPT"
    ],
    [
      "U",
      "ni"
    ],
    [
      "f",
      "il"
    ],
    [
      "id",
      "ent"
    ],
    [
      "ti",
      "cos "
    ],
    [
      "E",
      "st"
    ],
    [
      "emp",
      "enh"
    ],
    [
      "y",
      "th"
    ],
    [
      "r",
      "o"
    ],
    [
      "con",
      "sist"
    ],
    [
      "mai",
      "or "
    ],
    [
      "gu",
      "mas "
    ],
    [
      "en",
      "ção "
    ],
    [
      "é",
      "tr"
    ],
    [
      "man",
      "eir"
    ],
    [
      "par",
      "ci"
    ],
    [
      "p",
      "en"
    ],
    [
      "par",
      "alel"
    ],
    [
      "s",
      "ent"
    ],
    [
      "in",
      "stru"
    ],
    [
      "m",
      "ar"
    ],
    [
      "seg",
      "un"
    ],
    [
      "me",
      "i"
    ],
    [
      "on",
      "g"
    ],
    [
      "ant",
      "eri"
    ],
    [
      "multi",
      "plic"
    ],
    [
      ")",
      ". "
    ],
    [
      "compl",
      "et"
    ],
    [
      "te",
      "or"
    ],
    [
      "exempl",
      "o "
    ],
    [
      "d",
      "ecis"
    ],
    [
      "sej",
      "a, "
    ],
    [
      "doc",
      "ument"
    ],
    [
      "idad",
      "e, "
    ],
    [
      "ord",
      "en"
    ],
    [
      "redes ",
      "neurais "
    ],
    [
      "t",
      " "
    ],
    [
      "os ",
      "da "
    ],
    [
      "ment",
      "e, "
    ],
    [
      "3",
      " "
    ],
    [
      "pro",
      "duz"
    ],
    [
      "as ",
      "que "
    ],
    [
      "ado ",
      "em "
    ],
    [
      "a",
      "y"
    ],
    [
      "númer",
      "os "
    ],
    [
      "vez",
      "es "
    ],
    [
      "á",
      "r"
    ],
    [
      "P",
      "ar"
    ],
    [
      "pr",
      "et"
    ],
    [
      "n",
      "ível "
    ],
    [
      "comp",
      "ort"
    ],
    [
      "tod",
      "as as "
    ],
    [
      "téc",
      "nic"
    ],
    [
      ") ",
      "e "
    ],
    [
      "u",
      "c"
    ],
    [
      "qu",
      "e"
    ],
    [
      "softwar",
      "e "
    ],
    [
      "I",
      " "
    ],
    [
      "aci",
      "dade "
    ],
    [
      "model",
      "os "
    ],
    [
      "algorit",
      "mo "
    ],
    [
      "line",
      "ar "
    ],
    [
      "des",
      "empenh"
    ],
    [
      "a",
      "pro"
    ],
    [
      "or",
      "gan"
    ],
    [
      "ência ",
      "da "
    ],
    [
      "in",
      "fer"
    ],
    [
      "or",
      "a "
    ],
    [
      "a",
      "-se "
    ],
    [
      "al",
      "ter"
    ],
    [
      "dad",
      "os, "
    ],
    [
      "bl",
      "ic"
    ],
    [
      ". Par",
      "a "
    ],
    [
      "cu",
      "j"
    ],
    [
      "ti",
      "m"
    ],
    [
      "b",
      "usc"
    ],
    [
      "em",
      "b"
    ],
    [
      "es",
      "col"
    ],
    [
      "c",
      "er"
    ],
    [
      "ord",
      "em "
    ],
    [
      "sistem",
      "as de "
    ],
    [
      "especi",
      "fic"
    ],
    [
      "ada ",
      "para "
    ],
    [
      "a",
      ". A "
    ],
    [
      "e",
      "fici"
    ],
    [
      "a ",
      "re"
    ],
    [
      "recur",
      "siv"
    ],
    [
      "h",
      " "
    ],
    [
      "-",
      "l"
    ],
    [
      "l",
      "iv"
    ],
    [
      "z",
      " "
    ],
    [
      "process",
      "o de "
    ],
    [
      "je",
      "tiv"
    ],
    [
      "al ",
      "do "
    ],
    [
      "u",
      "tr"
    ],
    [
      "g",
      "enh"
    ],
    [
      "esp",
      "ec"
    ],
    [
      "í",
      "vel"
    ],
    [
      "l",
      " "
    ],
    [
      "d",
      "ens"
    ],
    [
      "ger",
      "almente "
    ],
    [
      "posi",
      "tiv"
    ],
    [
      "ados ",
      "em "
    ],
    [
      "á",
      "vel"
    ],
    [
      "O",
      "pen"
    ],
    [
      "númer",
      "o "
    ],
    [
      "d",
      "om"
    ],
    [
      "e",
      "i"
    ],
    [
      "or",
      "do "
    ],
    [
      "ad",
      "os, "
    ],
    [
      "assi",
      "fic"
    ],
    [
      "dis",
      "c"
    ],
    [
      "ar ",
      "os "
    ],
    [
      "dire",
      "t"
    ],
    [
      "ais ",
      "de "
    ],
    [
      "ent",
      "e"
    ],
    [
      "fer",
      "r"
    ],
    [
      "s",
      "it"
    ],
    [
      "é ",
      "cham"
    ],
    [
      "sej",
      "a "
    ],
    [
      "ab",
      "ord"
    ],
    [
      "M",
      "ar"
    ],
    [
      "não ",
      "é "
    ],
    [
      "h",
      "á "
    ],
    [
      "mé",
      "todo "
    ],
    [
      "E",
      "n"
    ],
    [
      "for",
      "nec"
    ],
    [
      "c",
      "entr"
    ],
    [
      "a",
      ") "
    ],
    [
      "o",
      "nt"
    ],
    [
      "ac",
      "ordo "
    ],
    [
      "pod",
      "er"
    ],
    [
      "ima",
      "g"
    ],
    [
      "me",
      "tr"
    ],
    [
      "n",
      "ot"
    ],
    [
      "er",
      "a "
    ],
    [
      "U",
      "ma "
    ],
    [
      "b",
      "o"
    ],
    [
      "segur",
      "anç"
    ],
    [
      "vértic",
      "es "
    ],
    [
      "o",
      "f "
    ],
    [
      "algorit",
      "mos "
    ],
    [
      "à",
      "s "
    ],
    [
      "ib",
      "li"
    ],
    [
      "adas ",
      "de "
    ],
    [
      "ação ",
      "e "
    ],
    [
      "do ",
      "que "
    ],
    [
      "a",
      "x"
    ],
    [
      "al",
      "ist"
    ],
    [
      "P",
      "yth"
    ],
    [
      "defin",
      "ida "
    ],
    [
      "gradi",
      "ente "
    ],
    [
      "orig",
      "in"
    ],
    [
      "pl",
      "an"
    ],
    [
      "v",
      "ist"
    ],
    [
      "co",
      ", "
    ],
    [
      "vari",
      "áveis "
    ],
    [
      "vi",
      "do "
    ],
    [
      "j",
      "á "
    ],
    [
      "bas",
      "e "
    ],
    [
      "D",
      "e"
    ],
    [
      "di",
      "vers"
    ],
    [
      "n",
      "atur"
    ],
    [
      "o ",
      "a "
    ],
    [
      "m",
      "ostr"
    ],
    [
      "pr",
      "átic"
    ],
    [
      "t",
      "ecnolog"
    ],
    [
      "al",
      "t"
    ],
    [
      "ferr",
      "ament"
    ],
    [
      "ibli",
      "ot"
    ],
    [
      "el",
      "a "
    ],
    [
      "ar ",
      "um "
    ],
    [
      "cor",
      "respon"
    ],
    [
      "o",
      ". "
    ],
    [
      "0",
      ", "
    ],
    [
      "D",
      "i"
    ],
    [
      "ibliot",
      "ec"
    ],
    [
      "como ",
      "um "
    ],
    [
      "gran",
      "de "
    ],
    [
      "m",
      "ic"
    ],
    [
      "tr",
      "at"
    ],
    [
      "i",
      "an"
    ],
    [
      "1",
      ", "
    ],
    [
      "por ",
      "um "
    ],
    [
      "a",
      "j"
    ],
    [
      "en",
      "quanto "
    ],
    [
      "mé",
      "di"
    ],
    [
      "difer",
      "enci"
    ],
    [
      "g",
      "ar"
    ],
    [
      "produt",
      "o "
    ],
    [
      "â",
      "nt"
    ],
    [
      "com",
      "bin"
    ],
    [
      "d",
      "é"
    ],
    [
      "al ",
      "e "
    ],
    [
      ".",
      "."
    ],
    [
      "conce",
      "it"
    ],
    [
      "til",
      "h"
    ],
    [
      "cl",
      "assific"
    ],
    [
      "cos ",
      "de "
    ],
    [
      "â",
      "metr"
    ],
    [
      "am ",
      "a "
    ],
    [
      "us",
      "adas "
    ],
    [
      "c",
      "í"
    ],
    [
      "am",
      "pl"
    ],
    [
      "em",
      "pres"
    ],
    [
      "a",
      "present"
    ],
    [
      ". E",
      "nt"
    ],
    [
      "ênci",
      "as "
    ],
    [
      "mu",
      "itas "
    ],
    [
      "grá",
      "fic"
    ],
    [
      "part",
      "e "
    ],
    [
      "a ",
      "ou "
    ],
    [
      "qu",
      "ais "
    ],
    [
      "conjunt",
      "o "
    ],
    [
      "au",
      "ment"
    ],
    [
      "os",
      ": "
    ],
    [
      "g",
      "i"
    ],
    [
      "par",
      "âmetr"
    ],
    [
      "ess",
      "es "
    ],
    [
      "d",
      "ur"
    ],
    [
      "res",
      "post"
    ],
    [
      "C",
      "on"
    ],
    [
      "ou ",
      "seja, "
    ],
    [
      "ent",
      "anto, "
    ],
    [
      "su",
      "port"
    ],
    [
      "o de ",
      "um "
    ],
    [
      "igu",
      "al "
    ],
    [
      "Uni",
      "vers"
    ],
    [
      "T",
      "h"
    ],
    [
      "sti",
      "t"
    ],
    [
      "inter",
      "pret"
    ],
    [
      "it",
      "et"
    ],
    [
      "G",
      "r"
    ],
    [
      "in",
      "gu"
    ],
    [
      "b",
      "il"
    ],
    [
      "ad",
      "icion"
    ],
    [
      "cl",
      "us"
    ],
    [
      "l",
      "ong"
    ],
    [
      "si",
      "on"
    ],
    [
      "mem",
      "óri"
    ],
    [
      "M",
      " "
    ],
    [
      "d",
      "em"
    ],
    [
      "sol",
      "u"
    ],
    [
      "prop",
      "ag"
    ],
    [
      "com",
      "eç"
    ],
    [
      "un",
      "i"
    ],
    [
      "U",
      "m "
    ],
    [
      "é",
      ", "
    ],
    [
      "itet",
      "ur"
    ],
    [
      "ob",
      "jetiv"
    ],
    [
      "ar",
      "d"
    ],
    [
      "sem",
      "elh"
    ],
    [
      "E",
      " "
    ],
    [
      "co",
      "b"
    ],
    [
      "con",
      "ex"
    ],
    [
      "s",
      "ing"
    ],
    [
      "gr",
      "up"
    ],
    [
      "í",
      "fic"
    ],
    [
      "faz",
      "er "
    ],
    [
      "anal",
      "is"
    ],
    [
      "t",
      "ais "
    ],
    [
      "ânci",
      "a "
    ],
    [
      "res",
      "tr"
    ],
    [
      "escol",
      "h"
    ],
    [
      "ex",
      "tr"
    ],
    [
      "s",
      "p"
    ],
    [
      " ",
      "a "
    ],
    [
      "ão ",
      "de "
    ],
    [
      "dé",
      "cada "
    ],
    [
      "teor",
      "ema "
    ],
    [
      "estu",
      "d"
    ],
    [
      "neur",
      "ôni"
    ],
    [
      "is",
      "tr"
    ],
    [
      "t",
      "exto "
    ],
    [
      "o ",
      "para "
    ],
    [
      "em ",
      "relação "
    ],
    [
      "b",
      "em "
    ],
    [
      "aplic",
      "ações "
    ],
    [
      "n",
      "u"
    ],
    [
      "v",
      "em "
    ],
    [
      "oc",
      "orr"
    ],
    [
      "ain",
      "da "
    ],
    [
      ". O",
      "utr"
    ],
    [
      "e",
      "b"
    ],
    [
      "as ",
      "são "
    ],
    [
      "e ",
      "e "
    ],
    [
      "v",
      "ários "
    ],
    [
      "al",
      "mente, "
    ],
    [
      "complex",
      "idade "
    ],
    [
      "n",
      "ão"
    ],
    [
      "ident",
      "ific"
    ],
    [
      "vetori",
      "al "
    ],
    [
      "men",
      "os "
    ],
    [
      "recur",
      "s"
    ],
    [
      "n",
      "o"
    ],
    [
      "década ",
      "de "
    ],
    [
      ". N",
      "a "
    ],
    [
      "neur",
      "al "
    ],
    [
      "E",
      "x"
    ],
    [
      "di",
      "f"
    ],
    [
      "ament",
      "e"
    ],
    [
      "t",
      "este "
    ],
    [
      "aut",
      "or"
    ],
    [
      "ou ",
      "o "
    ],
    [
      "P",
      "U"
    ],
    [
      "agem ",
      "de "
    ],
    [
      "ver",
      "são "
    ],
    [
      "l",
      "ar"
    ],
    [
      "forma ",
      "de "
    ],
    [
      "N",
      "e"
    ],
    [
      "x",
      " "
    ],
    [
      "ic",
      "l"
    ],
    [
      "l",
      "ic"
    ],
    [
      "it",
      "er"
    ],
    [
      "comp",
      "il"
    ],
    [
      "b",
      "ibliotec"
    ],
    [
      "o",
      "tim"
    ],
    [
      "sí",
      "mb"
    ],
    [
      "símb",
      "ol"
    ],
    [
      "in",
      "u"
    ],
    [
      "conheciment",
      "o de "
    ],
    [
      "ç",
      "ões"
    ],
    [
      "cam",
      "po "
    ],
    [
      "po",
      "t"
    ],
    [
      "us",
      "o de "
    ],
    [
      "int",
      "rod"
    ],
    [
      "ob",
      "r"
    ],
    [
      "estu",
      "do "
    ],
    [
      "sobr",
      "e o "
    ],
    [
      "19",
      "7"
    ],
    [
      "linguagem ",
      "de "
    ],
    [
      "em ",
      "a "
    ],
    [
      "ando ",
      "o "
    ],
    [
      "compar",
      "tilh"
    ],
    [
      "m",
      "ec"
    ],
    [
      "a. ",
      "N"
    ],
    [
      "assi",
      "m "
    ],
    [
      "distribuição de ",
      "probabilidade "
    ],
    [
      "ar ",
      "as "
    ],
    [
      ". ",
      "F"
    ],
    [
      "ár",
      "v"
    ],
    [
      "e ",
      "que "
    ],
    [
      "des",
      "de "
    ],
    [
      "con",
      "ect"
    ],
    [
      "cas",
      "o "
    ],
    [
      "ter",
      "mo "
    ],
    [
      "abil",
      "idade "
    ],
    [
      "outr",
      "o "
    ],
    [
      "ce",
      "b"
    ],
    [
      "di",
      "vid"
    ],
    [
      "a m",
      "es"
    ],
    [
      "el",
      " "
    ],
    [
      "ol",
      "óg"
    ],
    [
      "m",
      "ov"
    ],
    [
      "as ",
      "da "
    ],
    [
      "propried",
      "ad"
    ],
    [
      "j",
      "og"
    ],
    [
      "di",
      "ag"
    ],
    [
      "inter",
      "val"
    ],
    [
      "ó",
      " "
    ],
    [
      "tr",
      "ês "
    ],
    [
      "aplic",
      "ação "
    ],
    [
      "t",
      "am"
    ],
    [
      "a",
      "par"
    ],
    [
      "sem",
      "pr"
    ],
    [
      "ais ",
      "e "
    ],
    [
      "dig",
      "it"
    ],
    [
      "últi",
      "pl"
    ],
    [
      "es",
      "qu"
    ],
    [
      "er",
      "am "
    ],
    [
      "om",
      "ent"
    ],
    [
      "tr",
      "o"
    ],
    [
      "20",
      "2"
    ],
    [
      "m",
      "ens"
    ],
    [
      "escal",
      "ar "
    ],
    [
      "f",
      "is"
    ],
    [
      "anális",
      "e de "
    ],
    [
      "des",
      "envol"
    ],
    [
      "co",
      "s, "
    ],
    [
      "aç",
      "ões"
    ],
    [
      "a mes",
      "ma "
    ],
    [
      "m",
      "et"
    ],
    [
      "p",
      "ú"
    ],
    [
      "acess",
      "o "
    ],
    [
      "ci",
      "ent"
    ],
    [
      ". ",
      "É "
    ],
    [
      "e ",
      "("
    ],
    [
      "qu",
      "e, "
    ],
    [
      "equ",
      "i"
    ],
    [
      "mu",
      "itos "
    ],
    [
      "a",
      "-"
    ],
    [
      "to",
      "k"
    ],
    [
      "si",
      "nt"
    ],
    [
      "a",
      "trib"
    ],
    [
      "trans",
      "forma"
    ],
    [
      "Com",
      "o "
    ],
    [
      "al ",
      "("
    ],
    [
      "cur",
      "s"
    ],
    [
      "e ",
      "um "
    ],
    [
      "m",
      "últipl"
    ],
    [
      "I",
      "A"
    ],
    [
      "m",
      "oment"
    ],
    [
      "liv",
      "r"
    ],
    [
      "4",
      " "
    ],
    [
      "av",
      "a "
    ],
    [
      "entr",
      "adas "
    ],
    [
      "ess",
      "as "
    ],
    [
      "ados ",
      "de "
    ],
    [
      "am",
      "os "
    ],
    [
      "d",
      "in"
    ],
    [
      "al ",
      "da "
    ],
    [
      "on",
      ", "
    ],
    [
      "us",
      "o "
    ],
    [
      "os ",
      "são "
    ],
    [
      "conheci",
      "do "
    ],
    [
      "ente ",
      "de "
    ],
    [
      "comput",
      "ador"
    ],
    [
      "ando ",
      "a "
    ],
    [
      "ver",
      "ific"
    ],
    [
      "pol",
      "ític"
    ],
    [
      "cl",
      "as"
    ],
    [
      "m",
      "ó"
    ],
    [
      "t",
      "ent"
    ],
    [
      "ent",
      "es"
    ],
    [
      "d",
      "ado "
    ],
    [
      "gu",
      "nt"
    ],
    [
      "ar",
      ", "
    ],
    [
      "possu",
      "i "
    ],
    [
      "frequ",
      "entemente "
    ],
    [
      "organ",
      "iz"
    ],
    [
      "gu",
      "ment"
    ],
    [
      "distribui",
      "ções "
    ],
    [
      "sé",
      "ri"
    ],
    [
      "pu",
      "blic"
    ],
    [
      "for",
      "ç"
    ],
    [
      "cap",
      "acidade "
    ],
    [
      "as",
      "e "
    ],
    [
      "tam",
      "anh"
    ],
    [
      "dis",
      "s"
    ],
    [
      "or",
      "es"
    ],
    [
      "si",
      "do "
    ],
    [
      "á",
      "veis"
    ],
    [
      "sej",
      "am "
    ],
    [
      "defini",
      "ção "
    ],
    [
      "b",
      "it"
    ],
    [
      "ar",
      "estas "
    ],
    [
      "ChatGPT",
      " "
    ],
    [
      "eir",
      "o "
    ],
    [
      "dom",
      "íni"
    ],
    [
      "t",
      "om"
    ],
    [
      "dis",
      "pon"
    ],
    [
      "átic",
      "a "
    ],
    [
      "ab",
      "or"
    ],
    [
      "cor",
      "por"
    ],
    [
      "palavr",
      "as "
    ],
    [
      "a",
      "; "
    ],
    [
      "c",
      "at"
    ],
    [
      "ac",
      "k"
    ],
    [
      "I",
      "S"
    ],
    [
      "á",
      "p"
    ],
    [
      "at",
      "a "
    ],
    [
      "ar",
      "gument"
    ],
    [
      "s",
      "ur"
    ],
    [
      "as ",
      "para "
    ],
    [
      "á",
      "s"
    ],
    [
      "aleat",
      "ória "
    ],
    [
      "y",
      ", "
    ],
    [
      "o, ",
      "a "
    ],
    [
      "as",
      "su"
    ],
    [
      "al",
      "gumas "
    ],
    [
      "c",
      "ert"
    ],
    [
      "5",
      " "
    ],
    [
      "des",
      "cob"
    ],
    [
      "c",
      "ess"
    ],
    [
      "e",
      "or"
    ],
    [
      "st",
      "o "
    ],
    [
      "1",
      "0"
    ],
    [
      "teoria ",
      "da "
    ],
    [
      "t",
      "e "
    ],
    [
      "d",
      "est"
    ],
    [
      "v",
      "í"
    ],
    [
      "n",
      "um "
    ],
    [
      "ran",
      "s"
    ],
    [
      "at",
      "enção "
    ],
    [
      "ma",
      "nt"
    ],
    [
      "ant",
      "o "
    ],
    [
      "2",
      ", "
    ],
    [
      "o de ",
      "uma "
    ],
    [
      "ec",
      "tiv"
    ],
    [
      "pro",
      "te"
    ],
    [
      "ar",
      "ia "
    ],
    [
      "ri",
      "g"
    ],
    [
      "r",
      " "
    ],
    [
      "ex",
      "plic"
    ],
    [
      "ist",
      "o "
    ],
    [
      "in",
      "st"
    ],
    [
      "o",
      "ver"
    ],
    [
      "d",
      "ic"
    ],
    [
      "enç",
      "a "
    ],
    [
      "inteligência ",
      "artifici"
    ],
    [
      "sistema ",
      "de "
    ],
    [
      "que ",
      "as "
    ],
    [
      "o",
      ". A "
    ],
    [
      "et",
      "c"
    ],
    [
      "cl",
      "ass"
    ],
    [
      "E",
      "R"
    ],
    [
      "u",
      "b"
    ],
    [
      "m",
      "á"
    ],
    [
      "inclu",
      "indo "
    ],
    [
      "sol",
      "ução "
    ],
    [
      "B",
      "r"
    ],
    [
      "não",
      "-"
    ],
    [
      "con",
      "fi"
    ],
    [
      "Int",
      "ern"
    ],
    [
      "equi",
      "val"
    ],
    [
      "d",
      "icion"
    ],
    [
      "simpl",
      "es"
    ],
    [
      "os ",
      "em "
    ],
    [
      "pos",
      "si"
    ],
    [
      "que ",
      "não "
    ],
    [
      "am",
      "ostr"
    ],
    [
      "idad",
      "es de "
    ],
    [
      "cí",
      "pi"
    ],
    [
      "u",
      "ção de "
    ],
    [
      "ci",
      "r"
    ],
    [
      "S",
      " "
    ],
    [
      "defin",
      "id"
    ],
    [
      "ev",
      "ent"
    ],
    [
      "c",
      "é"
    ],
    [
      "c",
      "icl"
    ],
    [
      "in",
      "vers"
    ],
    [
      "tip",
      "os de "
    ],
    [
      "arqu",
      "itetur"
    ],
    [
      " ",
      "do "
    ],
    [
      "en",
      " "
    ],
    [
      "ados ",
      "para "
    ],
    [
      "inv",
      "esti"
    ],
    [
      "ur",
      "a "
    ],
    [
      "dire",
      "it"
    ],
    [
      "im",
      "p"
    ],
    [
      "ne",
      "g"
    ],
    [
      "cam",
      "inh"
    ],
    [
      "funções ",
      "de "
    ],
    [
      "col",
      "un"
    ],
    [
      "entr",
      "op"
    ],
    [
      "a",
      ". O "
    ],
    [
      "sequ",
      "ência de "
    ],
    [
      "des",
      "cre"
    ],
    [
      "amb",
      "i"
    ],
    [
      "h",
      "i"
    ],
    [
      "com ",
      "um "
    ],
    [
      "perm",
      "i"
    ],
    [
      "ada ",
      "a "
    ],
    [
      "n",
      "ós "
    ],
    [
      "ado ",
      "por "
    ],
    [
      "super",
      "i"
    ],
    [
      "graf",
      "ia "
    ],
    [
      "com",
      "um "
    ],
    [
      "que ",
      "se "
    ],
    [
      "ex",
      "pl"
    ],
    [
      "le",
      "g"
    ],
    [
      "z",
      "er"
    ],
    [
      "vel",
      "oci"
    ],
    [
      "a, ",
      "a "
    ],
    [
      "especi",
      "alist"
    ],
    [
      "f",
      "ór"
    ],
    [
      "ap",
      "ós "
    ],
    [
      "el",
      "l"
    ],
    [
      "que ",
      "os "
    ],
    [
      "ver",
      "dad"
    ],
    [
      "d",
      "ul"
    ],
    [
      "ad",
      "as, "
    ],
    [
      "c",
      "ab"
    ],
    [
      "os ",
      "("
    ],
    [
      "ar ",
      "e "
    ],
    [
      "m",
      "os de "
    ],
    [
      "re",
      "corr"
    ],
    [
      "19",
      "8"
    ],
    [
      "M",
      "od"
    ],
    [
      "rede ",
      "neural "
    ],
    [
      "pr",
      "iv"
    ],
    [
      "m",
      "un"
    ],
    [
      "b",
      "an"
    ],
    [
      "sé",
      "cul"
    ],
    [
      ". S",
      "e "
    ],
    [
      "e",
      "ú"
    ],
    [
      "r",
      "a"
    ],
    [
      "m",
      "on"
    ],
    [
      "conheciment",
      "o "
    ],
    [
      "T",
      " "
    ],
    [
      "es",
      "per"
    ],
    [
      "espaç",
      "o de "
    ],
    [
      "sempr",
      "e "
    ],
    [
      "t",
      "ext"
    ],
    [
      "adas ",
      "por "
    ],
    [
      "U",
      "n"
    ],
    [
      "est",
      "ados "
    ],
    [
      "é",
      "tic"
    ],
    [
      "ular",
      "es "
    ],
    [
      ". ",
      "H"
    ],
    [
      "o",
      "m "
    ],
    [
      "ín",
      "im"
    ],
    [
      "propriedad",
      "es "
    ],
    [
      "cont",
      "eú"
    ],
    [
      "h",
      "om"
    ],
    [
      "ent",
      "e, "
    ],
    [
      "h",
      "ist"
    ],
    [
      "ec",
      "e "
    ],
    [
      "mé",
      "todos "
    ],
    [
      "an",
      "is"
    ],
    [
      "cam",
      "ada "
    ],
    [
      "tip",
      "o de "
    ],
    [
      "ênci",
      "a, "
    ],
    [
      "ões ",
      "de "
    ],
    [
      "proc",
      "ed"
    ],
    [
      "e ",
      "para "
    ],
    [
      "and",
      " "
    ],
    [
      "ser",
      "á "
    ],
    [
      "ul",
      "ti"
    ],
    [
      "L",
      " "
    ],
    [
      "Pro",
      "gram"
    ],
    [
      "p",
      "o de "
    ],
    [
      "C",
      "i"
    ],
    [
      "ag",
      "em"
    ],
    [
      "E",
      "m "
    ],
    [
      "ti",
      "po "
    ],
    [
      "nic",
      "o "
    ],
    [
      "g",
      "in"
    ],
    [
      "tem",
      "po"
    ],
    [
      "iss",
      "o "
    ],
    [
      "grá",
      "fi"
    ],
    [
      "é",
      "ri"
    ],
    [
      "al",
      "idade "
    ],
    [
      "e",
      "di"
    ],
    [
      "lóg",
      "ic"
    ],
    [
      "seguint",
      "e "
    ],
    [
      "introd",
      "uz"
    ],
    [
      "import",
      "ante "
    ],
    [
      "ec",
      "h"
    ],
    [
      "vis",
      "ão "
    ],
    [
      "x",
      "i"
    ],
    [
      "sem",
      "ânt"
    ],
    [
      "á",
      "-l"
    ],
    [
      ". Est",
      "a "
    ],
    [
      "t",
      "abel"
    ],
    [
      "matriz",
      " de "
    ],
    [
      "T",
      "rans"
    ],
    [
      "t",
      "es"
    ],
    [
      "f",
      "am"
    ],
    [
      "per",
      "gunt"
    ],
    [
      "o",
      ". O "
    ],
    [
      "flu",
      "x"
    ],
    [
      "RN",
      "N"
    ],
    [
      "cálcul",
      "o "
    ],
    [
      "l",
      "e "
    ],
    [
      "variável ",
      "aleatória "
    ],
    [
      "en",
      "genh"
    ],
    [
      "an",
      "os "
    ],
    [
      "1",
      "8"
    ],
    [
      ". I",
      "sto "
    ],
    [
      "M",
      "at"
    ],
    [
      " ",
      "da "
    ],
    [
      "máquin",
      "a "
    ],
    [
      "aut",
      "om"
    ],
    [
      "C",
      "PU"
    ],
    [
      "es",
      "cre"
    ],
    [
      "ab",
      "str"
    ],
    [
      "simpl",
      "es "
    ],
    [
      "disc",
      "ret"
    ],
    [
      "i",
      "on"
    ],
    [
      ")",
      ". A "
    ],
    [
      "o, ",
      "o "
    ],
    [
      "ú",
      "nica "
    ],
    [
      "algoritm",
      "o de "
    ],
    [
      "f",
      "ís"
    ],
    [
      "gener",
      "aliz"
    ],
    [
      "din",
      "â"
    ],
    [
      ", ",
      "mas "
    ],
    [
      "n",
      "ul"
    ],
    [
      "m",
      "ica "
    ],
    [
      "po",
      "p"
    ],
    [
      "con",
      "st"
    ],
    [
      "ad",
      "equ"
    ],
    [
      "com ",
      "uma "
    ],
    [
      "inclu",
      "em "
    ],
    [
      "ó",
      "s"
    ],
    [
      "D",
      " "
    ],
    [
      "gar",
      "ant"
    ],
    [
      "cr",
      "it"
    ],
    [
      ", ",
      "então "
    ],
    [
      "o ",
      "ou "
    ],
    [
      "comport",
      "amento "
    ],
    [
      ". ",
      "Qu"
    ],
    [
      "som",
      "ente "
    ],
    [
      "g",
      "ul"
    ],
    [
      "dados ",
      "de "
    ],
    [
      "clas",
      "se "
    ],
    [
      "mó",
      "dul"
    ],
    [
      "possi",
      "bil"
    ],
    [
      "correspon",
      "d"
    ],
    [
      "process",
      "o "
    ],
    [
      "sobr",
      "e a "
    ],
    [
      "os ",
      "para "
    ],
    [
      "con",
      "f"
    ],
    [
      "R",
      "A"
    ],
    [
      "ativ",
      "a "
    ],
    [
      "ar ",
      "de "
    ],
    [
      "su",
      "cess"
    ],
    [
      "sit",
      "u"
    ],
    [
      "l",
      "anç"
    ],
    [
      "â",
      "n"
    ],
    [
      "b",
      "anc"
    ],
    [
      ". Ex",
      "empl"
    ],
    [
      "ef",
      "e"
    ],
    [
      "J",
      "o"
    ],
    [
      "i",
      "a de "
    ],
    [
      "ti",
      "do "
    ],
    [
      "a m",
      "áquin"
    ],
    [
      "e",
      "u "
    ],
    [
      "express",
      "ão "
    ],
    [
      "co",
      "u "
    ],
    [
      "pró",
      "pri"
    ],
    [
      "permit",
      "e "
    ],
    [
      ". Ex",
      "ist"
    ],
    [
      "ados ",
      "por "
    ],
    [
      "f",
      "alh"
    ],
    [
      "ant",
      "e"
    ],
    [
      "ín",
      "gu"
    ],
    [
      "model",
      "o de "
    ],
    [
      "par",
      "ad"
    ],
    [
      "3",
      ", "
    ],
    [
      "ent",
      "es, "
    ],
    [
      ". Est",
      "e "
    ],
    [
      "e ",
      "do "
    ],
    [
      ". C",
      "on"
    ],
    [
      "que ",
      "são "
    ],
    [
      "mai",
      "oria "
    ],
    [
      "os",
      "o"
    ],
    [
      "m",
      "ínim"
    ],
    [
      "f",
      "ac"
    ],
    [
      "máquin",
      "a de "
    ],
    [
      "af",
      "ir"
    ],
    [
      "re",
      "de"
    ],
    [
      "fund",
      "ament"
    ],
    [
      "P",
      " "
    ],
    [
      "o",
      "w"
    ],
    [
      "ati",
      "on"
    ],
    [
      "b",
      "aix"
    ],
    [
      "cap",
      "az"
    ],
    [
      "adas ",
      "em "
    ],
    [
      "d",
      "ec"
    ],
    [
      "am ",
      "o "
    ],
    [
      "as ",
      "em "
    ],
    [
      "d",
      "el"
    ],
    [
      "pont",
      "o "
    ],
    [
      "ex",
      "ig"
    ],
    [
      "v",
      "oc"
    ],
    [
      "n",
      "uma "
    ],
    [
      "den",
      "ot"
    ],
    [
      "g",
      "l"
    ],
    [
      "ed",
      " "
    ],
    [
      "u",
      "aliz"
    ],
    [
      "t",
      "enh"
    ],
    [
      "ç",
      "ões, "
    ],
    [
      "prin",
      "cípi"
    ],
    [
      "ent",
      "es de "
    ],
    [
      "at",
      "óri"
    ],
    [
      "un",
      "d"
    ],
    [
      "fór",
      "mul"
    ],
    [
      "de",
      "vem "
    ],
    [
      "tir",
      " "
    ],
    [
      "sécul",
      "o "
    ],
    [
      "r",
      "aci"
    ],
    [
      "Jo",
      "h"
    ],
    [
      "ari",
      "a de "
    ],
    [
      "S",
      "t"
    ],
    [
      "ve",
      "u "
    ],
    [
      "/",
      " "
    ],
    [
      "process",
      "amento "
    ],
    [
      "l",
      "u"
    ],
    [
      "ad",
      "a. "
    ],
    [
      "O",
      "s "
    ],
    [
      "a",
      ". Em "
    ],
    [
      "dire",
      "cion"
    ],
    [
      "arqu",
      "iv"
    ],
    [
      "M",
      "ic"
    ],
    [
      "br",
      "o de "
    ],
    [
      "iment",
      "o "
    ],
    [
      "r",
      "áp"
    ],
    [
      "as ",
      "do "
    ],
    [
      "ori",
      "ent"
    ],
    [
      "h",
      "ou"
    ],
    [
      "cons",
      "ult"
    ],
    [
      "uma ",
      "função "
    ],
    [
      "chav",
      "e "
    ],
    [
      "log",
      " "
    ],
    [
      "Open",
      "A"
    ],
    [
      "ci",
      "ência da "
    ],
    [
      "or",
      "es, "
    ],
    [
      "as",
      ": "
    ],
    [
      "e",
      "-"
    ],
    [
      "g",
      "e "
    ],
    [
      "to",
      "t"
    ],
    [
      "poss",
      "íveis "
    ],
    [
      "ss",
      "im"
    ],
    [
      "p",
      "ens"
    ],
    [
      "An",
      "ális"
    ],
    [
      "pot",
      "enci"
    ],
    [
      "Pr",
      "oc"
    ],
    [
      "rede ",
      "de "
    ],
    [
      "dis",
      "positiv"
    ],
    [
      "r",
      "ob"
    ],
    [
      "ob",
      "ter "
    ],
    [
      "con",
      "di"
    ],
    [
      "e",
      "p"
    ],
    [
      "tro",
      "propag"
    ],
    [
      "cir",
      "cu"
    ],
    [
      "V",
      " "
    ],
    [
      "auto",
      "valores "
    ],
    [
      "ado ",
      "para "
    ],
    [
      "c",
      "ad"
    ],
    [
      "linguagens ",
      "de "
    ],
    [
      "con",
      "ver"
    ],
    [
      "con",
      "dicion"
    ],
    [
      "taref",
      "as "
    ],
    [
      "cont",
      "inu"
    ],
    [
      "o",
      ") "
    ],
    [
      ")",
      ": "
    ],
    [
      "]",
      " "
    ],
    [
      "dem",
      "on"
    ],
    [
      "result",
      "ado "
    ],
    [
      "e ",
      "os "
    ],
    [
      "Mar",
      "k"
    ],
    [
      "oc",
      "ult"
    ],
    [
      "i",
      "a, "
    ],
    [
      "j",
      "ac"
    ],
    [
      "ma ",
      "de "
    ],
    [
      "?",
      " "
    ],
    [
      ". ",
      "V"
    ],
    [
      "est",
      "abel"
    ],
    [
      "ter",
      "mos "
    ],
    [
      "auto",
      "ma"
    ],
    [
      "ui",
      " "
    ],
    [
      "raci",
      "oc"
    ],
    [
      ". ",
      "L"
    ],
    [
      "trabalh",
      "o "
    ],
    [
      "ec",
      "er "
    ],
    [
      "e",
      "ar"
    ],
    [
      "al",
      "l"
    ],
    [
      "ge",
      "br"
    ],
    [
      "l",
      "íngu"
    ],
    [
      "re",
      "duz"
    ],
    [
      "s",
      "ec"
    ],
    [
      "sent",
      "ido "
    ],
    [
      "dire",
      "itos "
    ],
    [
      "al",
      "to "
    ],
    [
      "norm",
      "almente "
    ],
    [
      "pel",
      "os "
    ],
    [
      "per",
      "t"
    ],
    [
      "in",
      "corpor"
    ],
    [
      "me",
      "di"
    ],
    [
      "anç",
      "a "
    ],
    [
      "ê",
      " "
    ],
    [
      "infer",
      "ência "
    ],
    [
      "demon",
      "str"
    ],
    [
      "m",
      "o de "
    ],
    [
      "árv",
      "or"
    ],
    [
      "D",
      "es"
    ],
    [
      "inter",
      "n"
    ],
    [
      "desenvolviment",
      "o de "
    ],
    [
      "resol",
      "ver "
    ],
    [
      "conheci",
      "da "
    ],
    [
      "h",
      "as"
    ],
    [
      "ed",
      "ade "
    ],
    [
      "19",
      "5"
    ],
    [
      "reg",
      "istr"
    ],
    [
      "ed",
      "uc"
    ],
    [
      "g",
      "over"
    ],
    [
      "espaço ",
      "vetorial "
    ],
    [
      "al",
      "ém "
    ],
    [
      "t",
      "or"
    ],
    [
      "S",
      "o"
    ],
    [
      "outr",
      "a "
    ],
    [
      "v",
      "ir"
    ],
    [
      "om",
      "in"
    ],
    [
      "c",
      "aus"
    ],
    [
      "mu",
      "d"
    ],
    [
      "h",
      "ard"
    ],
    [
      ". Ess",
      "a "
    ],
    [
      "s",
      "ele"
    ],
    [
      "dur",
      "ant"
    ],
    [
      "6",
      " "
    ],
    [
      "r",
      "is"
    ],
    [
      ". I",
      "ss"
    ],
    [
      "melh",
      "or "
    ],
    [
      "ab",
      "aix"
    ],
    [
      "aç",
      "ões, "
    ],
    [
      "poder",
      "ia "
    ],
    [
      "id",
      "a de "
    ],
    [
      "os ",
      "ou "
    ],
    [
      "usu",
      "ários "
    ],
    [
      "esqu",
      "er"
    ],
    [
      "f",
      "aci"
    ],
    [
      "expl",
      "or"
    ],
    [
      "se ",
      "a "
    ],
    [
      "ó",
      "p"
    ],
    [
      "GP",
      "U"
    ],
    [
      "man",
      "ip"
    ],
    [
      "Comput",
      "ação "
    ],
    [
      "a",
      "\""
    ],
    [
      "mo",
      "do "
    ],
    [
      "bas",
      "t"
    ],
    [
      "s",
      "et"
    ],
    [
      "pa",
      "pel"
    ],
    [
      "in",
      "íci"
    ],
    [
      "mec",
      "anis"
    ],
    [
      "de",
      "-se "
    ],
    [
      "trans",
      "form"
    ],
    [
      "re",
      "al "
    ],
    [
      "dim",
      "ensão "
    ],
    [
      "sti",
      "tu"
    ],
    [
      "to",
      "da "
    ],
    [
      "artig",
      "o "
    ],
    [
      "maneir",
      "a "
    ],
    [
      "Mark",
      "ov"
    ],
    [
      "res",
      "p"
    ],
    [
      "as ",
      "("
    ],
    [
      "C",
      "ar"
    ],
    [
      "fal",
      "a "
    ],
    [
      "s",
      "at"
    ],
    [
      "ti",
      "z"
    ],
    [
      "divers",
      "as "
    ],
    [
      "as",
      "p"
    ],
    [
      "ti",
      "d"
    ],
    [
      "ac",
      "e"
    ],
    [
      "ex",
      "per"
    ],
    [
      "racioc",
      "íni"
    ],
    [
      "In",
      "forma"
    ],
    [
      "es ",
      "e "
    ],
    [
      "po",
      "lin"
    ],
    [
      "ô",
      "mi"
    ],
    [
      "r",
      "ic"
    ],
    [
      "m",
      "or"
    ],
    [
      "Pr",
      "ob"
    ],
    [
      "deriv",
      "adas "
    ],
    [
      ". El",
      "e "
    ],
    [
      "conceit",
      "o de "
    ],
    [
      "a partir",
      " de "
    ],
    [
      "faz",
      " "
    ],
    [
      "trad",
      "ução "
    ],
    [
      "or",
      ", "
    ],
    [
      "re",
      "c"
    ],
    [
      "o",
      "-"
    ],
    [
      "im",
      "in"
    ],
    [
      "ado ",
      "a "
    ]
  ],
  "stoi": {
    "<unk>": 0,
    "\n": 1,
    " ": 2,
    "!": 3,
    "\"": 4,
    "%": 5,
    "'": 6,
    "(": 7,
    ")": 8,
    ",": 9,
    "-": 10,
    ".": 11,
    "/": 12,
    "0": 13,
    "1": 14,
    "2": 15,
    "3": 16,
    "4": 17,
    "5": 18,
    "6": 19,
    "7": 20,
    "8": 21,
    "9": 22,
    ":": 23,
    ";": 24,
    "?": 25,
    "A": 26,
    "B": 27,
    "C": 28,
    "D": 29,
    "E": 30,
    "F": 31,
    "G": 32,
    "H": 33,
    "I": 34,
    "J": 35,
    "K": 36,
    "L": 37,
    "M": 38,
    "N": 39,
    "O": 40,
    "P": 41,
    "Q": 42,
    "R": 43,
    "S": 44,
    "T": 45,
    "U": 46,
    "V": 47,
    "W": 48,
    "X": 49,
    "Y": 50,
    "Z": 51,
    "[": 52,
    "]": 53,
    "a": 54,
    "b": 55,
    "c": 56,
    "d": 57,
    "e": 58,
    "f": 59,
    "g": 60,
    "h": 61,
    "i": 62,
    "j": 63,
    "k": 64,
    "l": 65,
    "m": 66,
    "n": 67,
    "o": 68,
    "p": 69,
    "q": 70,
    "r": 71,
    "s": 72,
    "t": 73,
    "u": 74,
    "v": 75,
    "w": 76,
    "x": 77,
    "y": 78,
    "z": 79,
    "«": 80,
    "»": 81,
    "À": 82,
    "Á": 83,
    "Ã": 84,
    "É": 85,
    "Í": 86,
    "Ó": 87,
    "Ú": 88,
    "à": 89,
    "á": 90,
    "â": 91,
    "ã": 92,
    "ä": 93,
    "ç": 94,
    "è": 95,
    "é": 96,
    "ê": 97,
    "í": 98,
    "î": 99,
    "ï": 100,
    "ð": 101,
    "ñ": 102,
    "ó": 103,
    "ô": 104,
    "õ": 105,
    "ö": 106,
    "ø": 107,
    "ú": 108,
    "ü": 109,
    "‘": 110,
    "’": 111,
    "“": 112,
    "”": 113,
    "o ": 114,
    "e ": 115,
    "a ": 116,
    "s ": 117,
    "de ": 118,
    "nt": 119,
    "m ": 120,
    "or": 121,
    ", ": 122,
    "er": 123,
    "ar": 124,
    "es": 125,
    "ad": 126,
    "co": 127,
    "os ": 128,
    "ão ": 129,
    "al": 130,
    "as ": 131,
    ". ": 132,
    "ent": 133,
    "in": 134,
    "qu": 135,
    "ic": 136,
    "pr": 137,
    "es ": 138,
    "is": 139,
    "ção ": 140,
    "em ": 141,
    "tr": 142,
    "ci": 143,
    "re": 144,
    "an": 145,
    "ma ": 146,
    "en": 147,
    "am": 148,
    "do ": 149,
    "el": 150,
    "ti": 151,
    "em": 152,
    "par": 153,
    "com": 154,
    "po": 155,
    "it": 156,
    "id": 157,
    "pro": 158,
    "ma": 159,
    "que ": 160,
    "as": 161,
    "é ": 162,
    "da ": 163,
    "or ": 164,
    "on": 165,
    "ação ": 166,
    "uma ": 167,
    "o de ": 168,
    "um ": 169,
    "ar ": 170,
    "is ": 171,
    "im": 172,
    "con": 173,
    "ou": 174,
    "ex": 175,
    "al ": 176,
    "pl": 177,
    "para ": 178,
    "er ": 179,
    "ri": 180,
    "ur": 181,
    "di": 182,
    "et": 183,
    "ut": 184,
    "un": 185,
    "est": 186,
    "o, ": 187,
    "at": 188,
    "os": 189,
    "ul": 190,
    "ada ": 191,
    "ente ": 192,
    "ess": 193,
    "ec": 194,
    "gr": 195,
    "for": 196,
    "iz": 197,
    "ist": 198,
    "ões ": 199,
    "us": 200,
    "aç": 201,
    "ou ": 202,
    "ol": 203,
    "ant": 204,
    "ados ": 205,
    "se": 206,
    "a de ": 207,
    "ab": 208,
    ". A": 209,
    "ir": 210,
    "ade ": 211,
    "ado ": 212,
    "a, ": 213,
    "il": 214,
    "tic": 215,
    ": ": 216,
    "su": 217,
    "são ": 218,
    "gu": 219,
    "se ": 220,
    "de": 221,
    "como ": 222,
    "com ": 223,
    "od": 224,
    "am ": 225,
    "fic": 226,
    "si": 227,
    "dis": 228,
    "por ": 229,
    "per": 230,
    "om": 231,
    "ob": 232,
    "nci": 233,
    "ib": 234,
    "ag": 235,
    "tiv": 236,
    "int": 237,
    "ament": 238,
    ") ": 239,
    "ac": 240,
    "idade ": 241,
    ". E": 242,
    "des": 243,
    "ais ": 244,
    "fun": 245,
    "ores ": 246,
    "ia ": 247,
    "ser ": 248,
    "ênci": 249,
    "av": 250,
    ". O": 251,
    "cont": 252,
    "na ": 253,
    "e, ": 254,
    "comp": 255,
    "no ": 256,
    "ando ": 257,
    "ui": 258,
    "os de ": 259,
    "vel": 260,
    "entr": 261,
    "adas ": 262,
    "trib": 263,
    "lin": 264,
    "st": 265,
    "ve": 266,
    "não ": 267,
    "res": 268,
    "ig": 269,
    "ver": 270,
    "dos ": 271,
    "cion": 272,
    ". A ": 273,
    "fin": 274,
    "prob": 275,
    "fer": 276,
    "ções ": 277,
    "ári": 278,
    "eci": 279,
    "oc": 280,
    "as de ": 281,
    "distrib": 282,
    "cl": 283,
    "ção de ": 284,
    "ch": 285,
    "ing": 286,
    "ed": 287,
    "to": 288,
    "ment": 289,
    "mais ": 290,
    "sist": 291,
    "ão": 292,
    "eir": 293,
    "i ": 294,
    "distribui": 295,
    "val": 296,
    "forma": 297,
    "comput": 298,
    "esp": 299,
    "amente ": 300,
    "ações ": 301,
    "u ": 302,
    "ter": 303,
    "le": 304,
    "pel": 305,
    " e ": 306,
    "pode ": 307,
    "og": 308,
    "iv": 309,
    "mente ": 310,
    ". O ": 311,
    "por": 312,
    "plic": 313,
    "e de ": 314,
    "os, ": 315,
    "ação de ": 316,
    ". P": 317,
    "ni": 318,
    "tem": 319,
    "óri": 320,
    "vel ": 321,
    "dados ": 322,
    "ém ": 323,
    "proc": 324,
    "ap": 325,
    "mod": 326,
    "ativ": 327,
    "amb": 328,
    "ica ": 329,
    "; ": 330,
    "das ": 331,
    "empl": 332,
    "ál": 333,
    "te": 334,
    "19": 335,
    "vet": 336,
    "ência ": 337,
    "pod": 338,
    "alg": 339,
    "ss": 340,
    "vol": 341,
    "ão, ": 342,
    "gra": 343,
    "ari": 344,
    "fo": 345,
    "á ": 346,
    "ao ": 347,
    "du": 348,
    "ger": 349,
    "triz": 350,
    "so": 351,
    "til": 352,
    "abil": 353,
    "pres": 354,
    "e a ": 355,
    "outr": 356,
    "matriz": 357,
    "agem ": 358,
    "exempl": 359,
    "process": 360,
    "ot": 361,
    "A ": 362,
    "à ": 363,
    "ju": 364,
    "man": 365,
    "a. ": 366,
    "cor": 367,
    "idad": 368,
    " de ": 369,
    "ís": 370,
    "ens": 371,
    "as, ": 372,
    "defin": 373,
    "aut": 374,
    "cos ": 375,
    "acion": 376,
    "ser": 377,
    "es de ": 378,
    "es, ": 379,
    "ito ": 380,
    "conh": 381,
    "inter": 382,
    "model": 383,
    "cri": 384,
    "mer": 385,
    "sob": 386,
    "gram": 387,
    "almente ": 388,
    "mo ": 389,
    "ne": 390,
    "informa": 391,
    "str": 392,
    "mas ": 393,
    "distribuição ": 394,
    "átic": 395,
    "cul": 396,
    "a m": 397,
    "pode ser ": 398,
    "rel": 399,
    "aliz": 400,
    "tran": 401,
    "cr": 402,
    "conheci": 403,
    "ambém ": 404,
    "nor": 405,
    "ce": 406,
    "ador ": 407,
    "junt": 408,
    "lingu": 409,
    "bas": 410,
    "contr": 411,
    "ema ": 412,
    "-se ": 413,
    "tod": 414,
    "), ": 415,
    "vari": 416,
    "ais": 417,
    "entes ": 418,
    " (": 419,
    "to ": 420,
    "min": 421,
    "e o ": 422,
    "prim": 423,
    "pon": 424,
    "fi": 425,
    "foi ": 426,
    "20": 427,
    "dad": 428,
    "adr": 429,
    "ir ": 430,
    "também ": 431,
    "amento ": 432,
    "sim": 433,
    "podem ": 434,
    ". U": 435,
    "óg": 436,
    "mu": 437,
    "dire": 438,
    "nú": 439,
    "conjunt": 440,
    "az": 441,
    "ord": 442,
    "present": 443,
    ". Em ": 444,
    "vers": 445,
    "envol": 446,
    "anç": 447,
    "enh": 448,
    "cada ": 449,
    "port": 450,
    "emas ": 451,
    "cur": 452,
    "compl": 453,
    "ori": 454,
    "ar a ": 455,
    "ult": 456,
    "po ": 457,
    "sobr": 458,
    "probabil": 459,
    "al, ": 460,
    "cham": 461,
    "util": 462,
    "mé": 463,
    "enci": 464,
    "program": 465,
    "war": 466,
    "ici": 467,
    "car": 468,
    "Com": 469,
    "br": 470,
    "entre ": 471,
    "aci": 472,
    "forma ": 473,
    "númer": 474,
    "do": 475,
    "ov": 476,
    ". N": 477,
    "aplic": 478,
    "iment": 479,
    "orit": 480,
    "norm": 481,
    "difer": 482,
    "col": 483,
    "função ": 484,
    "idade de ": 485,
    "trans": 486,
    " é ": 487,
    "adores ": 488,
    "utiliz": 489,
    "quin": 490,
    "a a ": 491,
    "áquin": 492,
    "vi": 493,
    "ístic": 494,
    "cam": 495,
    "cal": 496,
    "equ": 497,
    "ement": 498,
    "o da ": 499,
    "form": 500,
    "det": 501,
    "ing ": 502,
    ". S": 503,
    "vez": 504,
    "der": 505,
    "quer ": 506,
    "ação": 507,
    "cons": 508,
    "ass": 509,
    "itos ": 510,
    "neur": 511,
    "o que ": 512,
    "graf": 513,
    "ín": 514,
    "Tur": 515,
    "ida ": 516,
    "veis ": 517,
    "y ": 518,
    "pre": 519,
    "quant": 520,
    "algorit": 521,
    "primeir": 522,
    "dig": 523,
    "fr": 524,
    "ft": 525,
    "ável ": 526,
    "mes": 527,
    "me": 528,
    "ível ": 529,
    "post": 530,
    "espaç": 531,
    "Pr": 532,
    "cas": 533,
    "alh": 534,
    "fici": 535,
    "segu": 536,
    "sua ": 537,
    "ante ": 538,
    "qual": 539,
    "ens ": 540,
    "al de ": 541,
    "o é ": 542,
    "sub": 543,
    "a e ": 544,
    "envolv": 545,
    "jet": 546,
    ". D": 547,
    "sej": 548,
    "red": 549,
    "probl": 550,
    "li": 551,
    "nec": 552,
    "pont": 553,
    "ális": 554,
    "ret": 555,
    "pes": 556,
    "para a ": 557,
    "exemplo, ": 558,
    "represent": 559,
    "sistema ": 560,
    "rede ": 561,
    "pela ": 562,
    "o do ": 563,
    "seg": 564,
    "posi": 565,
    "sem": 566,
    "estr": 567,
    "on ": 568,
    "pos": 569,
    "ória ": 570,
    "tir": 571,
    "ador": 572,
    "especi": 573,
    "- ": 574,
    "deriv": 575,
    ". C": 576,
    "ermin": 577,
    "ecis": 578,
    "este ": 579,
    "\" ": 580,
    "ef": 581,
    "padr": 582,
    "mul": 583,
    "seu ": 584,
    "tu": 585,
    "determin": 586,
    "poss": 587,
    "elh": 588,
    "th": 589,
    "valores ": 590,
    "oper": 591,
    "cu": 592,
    "utur": 593,
    "mem": 594,
    "complex": 595,
    "mos ": 596,
    "ar o ": 597,
    "mo": 598,
    "linguagem ": 599,
    "ftwar": 600,
    "ér": 601,
    "oria ": 602,
    "pelo ": 603,
    "máquin": 604,
    "tem ": 605,
    "perm": 606,
    "todos ": 607,
    "nic": 608,
    "stru": 609,
    "s, ": 610,
    "ação, ": 611,
    "ido ": 612,
    "o e ": 613,
    "lóg": 614,
    "incl": 615,
    "é um ": 616,
    "ider": 617,
    "pri": 618,
    "onde ": 619,
    "au": 620,
    "vis": 621,
    "podem ser ": 622,
    "que o ": 623,
    ". Os ": 624,
    "matriz ": 625,
    "ific": 626,
    "qualquer ": 627,
    "ódig": 628,
    "auto": 629,
    "valor ": 630,
    "line": 631,
    "quando ": 632,
    "sobre ": 633,
    "err": 634,
    "and": 635,
    "lema ": 636,
    "conheciment": 637,
    "é uma ": 638,
    "pal": 639,
    "GP": 640,
    "pe": 641,
    "elig": 642,
    "arti": 643,
    "quis": 644,
    "anális": 645,
    "é o ": 646,
    "ix": 647,
    "que a ": 648,
    "as e ": 649,
    ". Por ": 650,
    "sol": 651,
    "mai": 652,
    "dade ": 653,
    "desenvolv": 654,
    "orn": 655,
    "estu": 656,
    "bl": 657,
    "agens ": 658,
    ". As ": 659,
    "amento de ": 660,
    "probabilidade ": 661,
    "fl": 662,
    "ada de ": 663,
    "reg": 664,
    "a em ": 665,
    "op": 666,
    "sig": 667,
    "ve ": 668,
    "prin": 669,
    "indo ": 670,
    "result": 671,
    "exec": 672,
    "a da ": 673,
    "Int": 674,
    "vetor ": 675,
    "mesmo ": 676,
    "códig": 677,
    "para o ": 678,
    "ale": 679,
    "sa": 680,
    "então ": 681,
    "esse ": 682,
    "distribuição norm": 683,
    "n ": 684,
    "problema ": 685,
    "hu": 686,
    ", a ": 687,
    "funções ": 688,
    "ort": 689,
    "icion": 690,
    "conjunto de ": 691,
    "fe": 692,
    "In": 693,
    "softwar": 694,
    "estrutur": 695,
    "atr": 696,
    "olog": 697,
    "press": 698,
    "matem": 699,
    "necess": 700,
    "cap": 701,
    "adi": 702,
    "ter ": 703,
    ". Uma ": 704,
    "ular": 705,
    "Turing ": 706,
    "ução ": 707,
    "imit": 708,
    "esta ": 709,
    "avr": 710,
    "ânci": 711,
    "informação ": 712,
    "soci": 713,
    ". T": 714,
    "palavr": 715,
    "aleat": 716,
    "o em ": 717,
    "duz": 718,
    "sequ": 719,
    "ção": 720,
    "vid": 721,
    "abalh": 722,
    "O ": 723,
    "redes ": 724,
    "crip": 725,
    "é a ": 726,
    "recur": 727,
    "todo ": 728,
    "ários ": 729,
    "antes ": 730,
    "ões": 731,
    "consider": 732,
    "ais, ": 733,
    "inclu": 734,
    "anto, ": 735,
    "us ": 736,
    "tar": 737,
    "trabalh": 738,
    "tip": 739,
    "ect": 740,
    "men": 741,
    "értic": 742,
    "com o ": 743,
    "acter": 744,
    "eri": 745,
    "vértic": 746,
    "part": 747,
    "função de ": 748,
    "fal": 749,
    "ert": 750,
    "Ch": 751,
    "foram ": 752,
    "faz": 753,
    "dific": 754,
    "ip": 755,
    "ener": 756,
    "eg": 757,
    "nos ": 758,
    "caracter": 759,
    "inh": 760,
    "human": 761,
    "intelig": 762,
    "ado": 763,
    "a uma ": 764,
    "sistem": 765,
    "conce": 766,
    "uns ": 767,
    "assi": 768,
    "ele ": 769,
    "em um ": 770,
    "enas ": 771,
    "base": 772,
    "dut": 773,
    "a um ": 774,
    "ência de ": 775,
    "áveis ": 776,
    "a o ": 777,
    "requ": 778,
    "éc": 779,
    "ext": 780,
    "cre": 781,
    "simpl": 782,
    "log": 783,
    "exist": 784,
    "ein": 785,
    "álcul": 786,
    "ver ": 787,
    "sin": 788,
    "ção, ": 789,
    ". M": 790,
    "gan": 791,
    "ele": 792,
    "sistemas ": 793,
    "escal": 794,
    "ati": 795,
    "ern": 796,
    "itas ": 797,
    "0 ": 798,
    ". Um ": 799,
    "ita ": 800,
    "aram ": 801,
    "compar": 802,
    "impl": 803,
    "relacion": 804,
    "vetores ": 805,
    "saí": 806,
    "precis": 807,
    "pass": 808,
    "a: ": 809,
    "igu": 810,
    "apenas ": 811,
    "os e ": 812,
    "esti": 813,
    "serv": 814,
    "outras ": 815,
    "vetori": 816,
    "dois ": 817,
    ", que ": 818,
    "anc": 819,
    "partir": 820,
    "de uma ": 821,
    "duas ": 822,
    "sem ": 823,
    "put": 824,
    "limit": 825,
    "anal": 826,
    "estão ": 827,
    "relação ": 828,
    "esso": 829,
    "árias ": 830,
    "o (": 831,
    "és ": 832,
    "bi": 833,
    "em uma ": 834,
    "funcion": 835,
    "a (": 836,
    "permit": 837,
    "ostr": 838,
    "a que ": 839,
    "propri": 840,
    "encontr": 841,
    "prov": 842,
    "produt": 843,
    "GPT": 844,
    ". Par": 845,
    "test": 846,
    ", o ": 847,
    "ali": 848,
    "atu": 849,
    "inv": 850,
    "respon": 851,
    "usu": 852,
    "o: ": 853,
    "atur": 854,
    "ário ": 855,
    "com a ": 856,
    "princi": 857,
    "nific": 858,
    "1 ": 859,
    "taref": 860,
    "ilh": 861,
    "distribuição normal ": 862,
    "f ": 863,
    "up": 864,
    "Qu": 865,
    "programação ": 866,
    "signific": 867,
    "problemas ": 868,
    "ado de ": 869,
    "quanto ": 870,
    ". Est": 871,
    "idades ": 872,
    ". I": 873,
    "matemátic": 874,
    "egr": 875,
    "sti": 876,
    "íni": 877,
    "linh": 878,
    "xim": 879,
    "distribuição de ": 880,
    "defini": 881,
    "áre": 882,
    "iss": 883,
    "outros ": 884,
    "frequ": 885,
    "a do ": 886,
    "enç": 887,
    "torn": 888,
    "200": 889,
    "ados": 890,
    "pró": 891,
    "estat": 892,
    "resol": 893,
    "cripto": 894,
    "tempo ": 895,
    "está ": 896,
    "pesso": 897,
    "íci": 898,
    "ima": 899,
    "dim": 900,
    "Al": 901,
    "computação ": 902,
    "express": 903,
    "bin": 904,
    "pesquis": 905,
    "acess": 906,
    "mi": 907,
    "emp": 908,
    " S": 909,
    "prop": 910,
    "grá": 911,
    "execut": 912,
    ". Al": 913,
    ", e ": 914,
    "trein": 915,
    "desenvolviment": 916,
    "arqu": 917,
    "lev": 918,
    "ór": 919,
    "todos os ": 920,
    "modelo ": 921,
    "multi": 922,
    "possu": 923,
    "téc": 924,
    "muito ": 925,
    "idade": 926,
    "pol": 927,
    "ran": 928,
    "teoria ": 929,
    "ós ": 930,
    "ês ": 931,
    "grama ": 932,
    "aix": 933,
    "ev": 934,
    "mb": 935,
    "ização ": 936,
    "emos ": 937,
    "Comput": 938,
    "usando ": 939,
    "for ": 940,
    "uz": 941,
    "implement": 942,
    "memória ": 943,
    "orig": 944,
    "je": 945,
    "espaço ": 946,
    "em 19": 947,
    "ecn": 948,
    "a é ": 949,
    ". Por exemplo, ": 950,
    "de um ": 951,
    "import": 952,
    "É ": 953,
    "princip": 954,
    ". El": 955,
    "segur": 956,
    "entrada ": 957,
    "ada": 958,
    "realiz": 959,
    "variável ": 960,
    "icas ": 961,
    "computacion": 962,
    "melh": 963,
    "escr": 964,
    "objet": 965,
    "den": 966,
    "k ": 967,
    "nov": 968,
    "cálcul": 969,
    "problem": 970,
    "201": 971,
    "unic": 972,
    "matrizes ": 973,
    "oci": 974,
    "amente, ": 975,
    "pa": 976,
    "emente ": 977,
    "super": 978,
    "pi": 979,
    "sé": 980,
    "\n\n": 981,
    "essa ": 982,
    ". Ex": 983,
    "íveis ": 984,
    "e uma ": 985,
    "como o ": 986,
    "projet": 987,
    "C ": 988,
    "fat": 989,
    "ação da ": 990,
    "ada por ": 991,
    "atrav": 992,
    "computador ": 993,
    "element": 994,
    "ític": 995,
    "como a ": 996,
    "dados": 997,
    "êm ": 998,
    "vez ": 999,
    "linear": 1000,
    "siv": 1001,
    "uí": 1002,
    "fund": 1003,
    "zen": 1004,
    "ej": 1005,
    "sí": 1006,
    "ínu": 1007,
    "ções de ": 1008,
    "seus ": 1009,
    "enc": 1010,
    "ado, ": 1011,
    "exto ": 1012,
    "avali": 1013,
    "anh": 1014,
    "contínu": 1015,
    "tal ": 1016,
    "padrão ": 1017,
    "eç": 1018,
    "programa ": 1019,
    "regr": 1020,
    ". No ": 1021,
    "refer": 1022,
    "ar uma ": 1023,
    "as as ": 1024,
    "número de ": 1025,
    "N ": 1026,
    "quadr": 1027,
    "lig": 1028,
    "gradi": 1029,
    "trad": 1030,
    "até ": 1031,
    "gran": 1032,
    "qual ": 1033,
    "corr": 1034,
    "arma": 1035,
    "onal ": 1036,
    "pu": 1037,
    "associ": 1038,
    "ensão ": 1039,
    "ind": 1040,
    "af": 1041,
    "ico ": 1042,
    "abel": 1043,
    "ach": 1044,
    "eles ": 1045,
    "seguint": 1046,
    "ôni": 1047,
    "pois ": 1048,
    "Le": 1049,
    "entemente ": 1050,
    "em que ": 1051,
    "aleatóri": 1052,
    "através ": 1053,
    "control": 1054,
    "RN": 1055,
    "armazen": 1056,
    "por exemplo, ": 1057,
    "diferentes ": 1058,
    "ação do ": 1059,
    "et ": 1060,
    "Ar": 1061,
    "como uma ": 1062,
    "suas ": 1063,
    "possível ": 1064,
    "inici": 1065,
    "\", ": 1066,
    "deve ": 1067,
    "gener": 1068,
    "cos": 1069,
    "ge": 1070,
    "grafo ": 1071,
    "IA ": 1072,
    "constru": 1073,
    "Re": 1074,
    "observ": 1075,
    "primeiro ": 1076,
    "2 ": 1077,
    "a para ": 1078,
    "lógica ": 1079,
    "codific": 1080,
    "calcul": 1081,
    "aos ": 1082,
    "loc": 1083,
    "integr": 1084,
    "Turing": 1085,
    "adas": 1086,
    "idos ": 1087,
    "orr": 1088,
    "ões, ": 1089,
    "list": 1090,
    "nas ": 1091,
    "d ": 1092,
    "ular ": 1093,
    "linguagens ": 1094,
    "saída ": 1095,
    "estatístic": 1096,
    "veis": 1097,
    "an ": 1098,
    "neurais ": 1099,
    "propried": 1100,
    "estas ": 1101,
    "usado ": 1102,
    "ust": 1103,
    "finit": 1104,
    "nica ": 1105,
    "idas ": 1106,
    "Pro": 1107,
    "um": 1108,
    "aqu": 1109,
    "usc": 1110,
    "compon": 1111,
    "ações de ": 1112,
    "flu": 1113,
    "ument": 1114,
    "inteligência ": 1115,
    "derivada ": 1116,
    "ecnolog": 1117,
    "computadores ": 1118,
    "lti": 1119,
    "alel": 1120,
    "icamente ": 1121,
    "a partir": 1122,
    "últi": 1123,
    "An": 1124,
    "doc": 1125,
    "posição ": 1126,
    "artig": 1127,
    "ou a ": 1128,
    "código ": 1129,
    "ada, ": 1130,
    "aus": 1131,
    "análise ": 1132,
    "som": 1133,
    "característic": 1134,
    "artifici": 1135,
    "várias ": 1136,
    "ain": 1137,
    "têm ": 1138,
    "ada em ": 1139,
    "rod": 1140,
    "cifr": 1141,
    "Chat": 1142,
    "font": 1143,
    "alguns ": 1144,
    "primeira ": 1145,
    ". Ess": 1146,
    "dist": 1147,
    "algoritm": 1148,
    "chav": 1149,
    "e em ": 1150,
    "os que ": 1151,
    "partic": 1152,
    "med": 1153,
    "comunic": 1154,
    "informações ": 1155,
    "nom": 1156,
    "estado ": 1157,
    "199": 1158,
    "ChatGPT": 1159,
    "Uni": 1160,
    "fil": 1161,
    "ident": 1162,
    "ticos ": 1163,
    "Est": 1164,
    "empenh": 1165,
    "yth": 1166,
    "ro": 1167,
    "consist": 1168,
    "maior ": 1169,
    "gumas ": 1170,
    "enção ": 1171,
    "étr": 1172,
    "maneir": 1173,
    "parci": 1174,
    "pen": 1175,
    "paralel": 1176,
    "sent": 1177,
    "instru": 1178,
    "mar": 1179,
    "segun": 1180,
    "mei": 1181,
    "ong": 1182,
    "anteri": 1183,
    "multiplic": 1184,
    "). ": 1185,
    "complet": 1186,
    "teor": 1187,
    "exemplo ": 1188,
    "decis": 1189,
    "seja, ": 1190,
    "document": 1191,
    "idade, ": 1192,
    "orden": 1193,
    "redes neurais ": 1194,
    "t ": 1195,
    "os da ": 1196,
    "mente, ": 1197,
    "3 ": 1198,
    "produz": 1199,
    "as que ": 1200,
    "ado em ": 1201,
    "ay": 1202,
    "números ": 1203,
    "vezes ": 1204,
    "ár": 1205,
    "Par": 1206,
    "pret": 1207,
    "nível ": 1208,
    "comport": 1209,
    "todas as ": 1210,
    "técnic": 1211,
    ") e ": 1212,
    "uc": 1213,
    "que": 1214,
    "software ": 1215,
    "I ": 1216,
    "acidade ": 1217,
    "modelos ": 1218,
    "algoritmo ": 1219,
    "linear ": 1220,
    "desempenh": 1221,
    "apro": 1222,
    "organ": 1223,
    "ência da ": 1224,
    "infer": 1225,
    "ora ": 1226,
    "a-se ": 1227,
    "alter": 1228,
    "dados, ": 1229,
    "blic": 1230,
    ". Para ": 1231,
    "cuj": 1232,
    "tim": 1233,
    "busc": 1234,
    "emb": 1235,
    "escol": 1236,
    "cer": 1237,
    "ordem ": 1238,
    "sistemas de ": 1239,
    "especific": 1240,
    "ada para ": 1241,
    "a. A ": 1242,
    "efici": 1243,
    "a re": 1244,
    "recursiv": 1245,
    "h ": 1246,
    "-l": 1247,
    "liv": 1248,
    "z ": 1249,
    "processo de ": 1250,
    "jetiv": 1251,
    "al do ": 1252,
    "utr": 1253,
    "genh": 1254,
    "espec": 1255,
    "ível": 1256,
    "l ": 1257,
    "dens": 1258,
    "geralmente ": 1259,
    "positiv": 1260,
    "ados em ": 1261,
    "ável": 1262,
    "Open": 1263,
    "número ": 1264,
    "dom": 1265,
    "ei": 1266,
    "ordo ": 1267,
    "ados, ": 1268,
    "assific": 1269,
    "disc": 1270,
    "ar os ": 1271,
    "diret": 1272,
    "ais de ": 1273,
    "ente": 1274,
    "ferr": 1275,
    "sit": 1276,
    "é cham": 1277,
    "seja ": 1278,
    "abord": 1279,
    "Mar": 1280,
    "não é ": 1281,
    "há ": 1282,
    "método ": 1283,
    "En": 1284,
    "fornec": 1285,
    "centr": 1286,
    "a) ": 1287,
    "ont": 1288,
    "acordo ": 1289,
    "poder": 1290,
    "imag": 1291,
    "metr": 1292,
    "not": 1293,
    "era ": 1294,
    "Uma ": 1295,
    "bo": 1296,
    "seguranç": 1297,
    "vértices ": 1298,
    "of ": 1299,
    "algoritmos ": 1300,
    "às ": 1301,
    "ibli": 1302,
    "adas de ": 1303,
    "ação e ": 1304,
    "do que ": 1305,
    "ax": 1306,
    "alist": 1307,
    "Pyth": 1308,
    "definida ": 1309,
    "gradiente ": 1310,
    "origin": 1311,
    "plan": 1312,
    "vist": 1313,
    "co, ": 1314,
    "variáveis ": 1315,
    "vido ": 1316,
    "já ": 1317,
    "base ": 1318,
    "De": 1319,
    "divers": 1320,
    "natur": 1321,
    "o a ": 1322,
    "mostr": 1323,
    "prátic": 1324,
    "tecnolog": 1325,
    "alt": 1326,
    "ferrament": 1327,
    "ibliot": 1328,
    "ela ": 1329,
    "ar um ": 1330,
    "correspon": 1331,
    "o. ": 1332,
    "0, ": 1333,
    "Di": 1334,
    "ibliotec": 1335,
    "como um ": 1336,
    "grande ": 1337,
    "mic": 1338,
    "trat": 1339,
    "ian": 1340,
    "1, ": 1341,
    "por um ": 1342,
    "aj": 1343,
    "enquanto ": 1344,
    "médi": 1345,
    "diferenci": 1346,
    "gar": 1347,
    "produto ": 1348,
    "ânt": 1349,
    "combin": 1350,
    "dé": 1351,
    "al e ": 1352,
    "..": 1353,
    "conceit": 1354,
    "tilh": 1355,
    "classific": 1356,
    "cos de ": 1357,
    "âmetr": 1358,
    "am a ": 1359,
    "usadas ": 1360,
    "cí": 1361,
    "ampl": 1362,
    "empres": 1363,
    "apresent": 1364,
    ". Ent": 1365,
    "ências ": 1366,
    "muitas ": 1367,
    "gráfic": 1368,
    "parte ": 1369,
    "a ou ": 1370,
    "quais ": 1371,
    "conjunto ": 1372,
    "aument": 1373,
    "os: ": 1374,
    "gi": 1375,
    "parâmetr": 1376,
    "esses ": 1377,
    "dur": 1378,
    "respost": 1379,
    "Con": 1380,
    "ou seja, ": 1381,
    "entanto, ": 1382,
    "suport": 1383,
    "o de um ": 1384,
    "igual ": 1385,
    "Univers": 1386,
    "Th": 1387,
    "stit": 1388,
    "interpret": 1389,
    "itet": 1390,
    "Gr": 1391,
    "ingu": 1392,
    "bil": 1393,
    "adicion": 1394,
    "clus": 1395,
    "long": 1396,
    "sion": 1397,
    "memóri": 1398,
    "M ": 1399,
    "dem": 1400,
    "solu": 1401,
    "propag": 1402,
    "começ": 1403,
    "uni": 1404,
    "Um ": 1405,
    "é, ": 1406,
    "itetur": 1407,
    "objetiv": 1408,
    "ard": 1409,
    "semelh": 1410,
    "E ": 1411,
    "cob": 1412,
    "conex": 1413,
    "sing": 1414,
    "grup": 1415,
    "ífic": 1416,
    "fazer ": 1417,
    "analis": 1418,
    "tais ": 1419,
    "ância ": 1420,
    "restr": 1421,
    "escolh": 1422,
    "extr": 1423,
    "sp": 1424,
    " a ": 1425,
    "ão de ": 1426,
    "década ": 1427,
    "teorema ": 1428,
    "estud": 1429,
    "neurôni": 1430,
    "istr": 1431,
    "texto ": 1432,
    "o para ": 1433,
    "em relação ": 1434,
    "bem ": 1435,
    "aplicações ": 1436,
    "nu": 1437,
    "vem ": 1438,
    "ocorr": 1439,
    "ainda ": 1440,
    ". Outr": 1441,
    "eb": 1442,
    "as são ": 1443,
    "e e ": 1444,
    "vários ": 1445,
    "almente, ": 1446,
    "complexidade ": 1447,
    "não": 1448,
    "identific": 1449,
    "vetorial ": 1450,
    "menos ": 1451,
    "recurs": 1452,
    "no": 1453,
    "década de ": 1454,
    ". Na ": 1455,
    "neural ": 1456,
    "Ex": 1457,
    "dif": 1458,
    "amente": 1459,
    "teste ": 1460,
    "autor": 1461,
    "ou o ": 1462,
    "PU": 1463,
    "agem de ": 1464,
    "versão ": 1465,
    "lar": 1466,
    "forma de ": 1467,
    "Ne": 1468,
    "x ": 1469,
    "icl": 1470,
    "lic": 1471,
    "iter": 1472,
    "compil": 1473,
    "bibliotec": 1474,
    "otim": 1475,
    "símb": 1476,
    "símbol": 1477,
    "inu": 1478,
    "conhecimento de ": 1479,
    "ções": 1480,
    "campo ": 1481,
    "pot": 1482,
    "uso de ": 1483,
    "introd": 1484,
    "obr": 1485,
    "estudo ": 1486,
    "sobre o ": 1487,
    "197": 1488,
    "linguagem de ": 1489,
    "em a ": 1490,
    "ando o ": 1491,
    "compartilh": 1492,
    "mec": 1493,
    "a. N": 1494,
    "assim ": 1495,
    "distribuição de probabilidade ": 1496,
    "ar as ": 1497,
    ". F": 1498,
    "árv": 1499,
    "e que ": 1500,
    "desde ": 1501,
    "conect": 1502,
    "caso ": 1503,
    "termo ": 1504,
    "abilidade ": 1505,
    "outro ": 1506,
    "ceb": 1507,
    "divid": 1508,
    "a mes": 1509,
    "el ": 1510,
    "ológ": 1511,
    "mov": 1512,
    "as da ": 1513,
    "propriedad": 1514,
    "jog": 1515,
    "diag": 1516,
    "interval": 1517,
    "ó ": 1518,
    "três ": 1519,
    "aplicação ": 1520,
    "tam": 1521,
    "apar": 1522,
    "sempr": 1523,
    "ais e ": 1524,
    "digit": 1525,
    "últipl": 1526,
    "esqu": 1527,
    "eram ": 1528,
    "oment": 1529,
    "tro": 1530,
    "202": 1531,
    "mens": 1532,
    "escalar ": 1533,
    "fis": 1534,
    "análise de ": 1535,
    "desenvol": 1536,
    "cos, ": 1537,
    "ações": 1538,
    "a mesma ": 1539,
    "met": 1540,
    "pú": 1541,
    "acesso ": 1542,
    "cient": 1543,
    ". É ": 1544,
    "e (": 1545,
    "que, ": 1546,
    "equi": 1547,
    "muitos ": 1548,
    "a-": 1549,
    "tok": 1550,
    "sint": 1551,
    "atrib": 1552,
    "transforma": 1553,
    "Como ": 1554,
    "al (": 1555,
    "curs": 1556,
    "e um ": 1557,
    "múltipl": 1558,
    "IA": 1559,
    "moment": 1560,
    "livr": 1561,
    "4 ": 1562,
    "ava ": 1563,
    "entradas ": 1564,
    "essas ": 1565,
    "ados de ": 1566,
    "amos ": 1567,
    "din": 1568,
    "al da ": 1569,
    "on, ": 1570,
    "uso ": 1571,
    "os são ": 1572,
    "conhecido ": 1573,
    "ente de ": 1574,
    "computador": 1575,
    "ando a ": 1576,
    "verific": 1577,
    "polític": 1578,
    "clas": 1579,
    "mó": 1580,
    "tent": 1581,
    "entes": 1582,
    "dado ": 1583,
    "gunt": 1584,
    "ar, ": 1585,
    "possui ": 1586,
    "frequentemente ": 1587,
    "organiz": 1588,
    "gument": 1589,
    "distribuições ": 1590,
    "séri": 1591,
    "public": 1592,
    "forç": 1593,
    "capacidade ": 1594,
    "ase ": 1595,
    "tamanh": 1596,
    "diss": 1597,
    "ores": 1598,
    "sido ": 1599,
    "áveis": 1600,
    "sejam ": 1601,
    "definição ": 1602,
    "bit": 1603,
    "arestas ": 1604,
    "ChatGPT ": 1605,
    "eiro ": 1606,
    "domíni": 1607,
    "tom": 1608,
    "dispon": 1609,
    "ática ": 1610,
    "abor": 1611,
    "corpor": 1612,
    "palavras ": 1613,
    "a; ": 1614,
    "cat": 1615,
    "ack": 1616,
    "IS": 1617,
    "áp": 1618,
    "ata ": 1619,
    "argument": 1620,
    "sur": 1621,
    "as para ": 1622,
    "ás": 1623,
    "aleatória ": 1624,
    "y, ": 1625,
    "o, a ": 1626,
    "assu": 1627,
    "algumas ": 1628,
    "cert": 1629,
    "5 ": 1630,
    "descob": 1631,
    "cess": 1632,
    "eor": 1633,
    "sto ": 1634,
    "10": 1635,
    "teoria da ": 1636,
    "te ": 1637,
    "dest": 1638,
    "ví": 1639,
    "num ": 1640,
    "rans": 1641,
    "atenção ": 1642,
    "mant": 1643,
    "anto ": 1644,
    "2, ": 1645,
    "o de uma ": 1646,
    "ectiv": 1647,
    "prote": 1648,
    "aria ": 1649,
    "rig": 1650,
    "r ": 1651,
    "explic": 1652,
    "isto ": 1653,
    "inst": 1654,
    "over": 1655,
    "dic": 1656,
    "ença ": 1657,
    "inteligência artifici": 1658,
    "sistema de ": 1659,
    "que as ": 1660,
    "o. A ": 1661,
    "etc": 1662,
    "class": 1663,
    "ER": 1664,
    "ub": 1665,
    "má": 1666,
    "incluindo ": 1667,
    "solução ": 1668,
    "Br": 1669,
    "não-": 1670,
    "confi": 1671,
    "Intern": 1672,
    "equival": 1673,
    "dicion": 1674,
    "simples": 1675,
    "os em ": 1676,
    "possi": 1677,
    "que não ": 1678,
    "amostr": 1679,
    "idades de ": 1680,
    "cípi": 1681,
    "ução de ": 1682,
    "cir": 1683,
    "S ": 1684,
    "definid": 1685,
    "event": 1686,
    "cé": 1687,
    "cicl": 1688,
    "invers": 1689,
    "tipos de ": 1690,
    "arquitetur": 1691,
    " do ": 1692,
    "en ": 1693,
    "ados para ": 1694,
    "investi": 1695,
    "ura ": 1696,
    "direit": 1697,
    "imp": 1698,
    "neg": 1699,
    "caminh": 1700,
    "funções de ": 1701,
    "colun": 1702,
    "entrop": 1703,
    "a. O ": 1704,
    "sequência de ": 1705,
    "descre": 1706,
    "ambi": 1707,
    "hi": 1708,
    "com um ": 1709,
    "permi": 1710,
    "ada a ": 1711,
    "nós ": 1712,
    "ado por ": 1713,
    "superi": 1714,
    "grafia ": 1715,
    "comum ": 1716,
    "que se ": 1717,
    "expl": 1718,
    "leg": 1719,
    "zer": 1720,
    "veloci": 1721,
    "a, a ": 1722,
    "especialist": 1723,
    "fór": 1724,
    "após ": 1725,
    "ell": 1726,
    "que os ": 1727,
    "verdad": 1728,
    "dul": 1729,
    "adas, ": 1730,
    "cab": 1731,
    "os (": 1732,
    "ar e ": 1733,
    "mos de ": 1734,
    "recorr": 1735,
    "198": 1736,
    "Mod": 1737,
    "rede neural ": 1738,
    "priv": 1739,
    "mun": 1740,
    "ban": 1741,
    "sécul": 1742,
    ". Se ": 1743,
    "eú": 1744,
    "ra": 1745,
    "mon": 1746,
    "conhecimento ": 1747,
    "T ": 1748,
    "esper": 1749,
    "espaço de ": 1750,
    "sempre ": 1751,
    "text": 1752,
    "adas por ": 1753,
    "Un": 1754,
    "estados ": 1755,
    "étic": 1756,
    "ulares ": 1757,
    ". H": 1758,
    "om ": 1759,
    "ínim": 1760,
    "propriedades ": 1761,
    "conteú": 1762,
    "hom": 1763,
    "ente, ": 1764,
    "hist": 1765,
    "ece ": 1766,
    "métodos ": 1767,
    "anis": 1768,
    "camada ": 1769,
    "tipo de ": 1770,
    "ência, ": 1771,
    "ões de ": 1772,
    "proced": 1773,
    "e para ": 1774,
    "and ": 1775,
    "será ": 1776,
    "ulti": 1777,
    "L ": 1778,
    "Program": 1779,
    "po de ": 1780,
    "Ci": 1781,
    "agem": 1782,
    "Em ": 1783,
    "tipo ": 1784,
    "nico ": 1785,
    "gin": 1786,
    "tempo": 1787,
    "isso ": 1788,
    "gráfi": 1789,
    "éri": 1790,
    "alidade ": 1791,
    "edi": 1792,
    "lógic": 1793,
    "seguinte ": 1794,
    "introduz": 1795,
    "importante ": 1796,
    "ech": 1797,
    "visão ": 1798,
    "xi": 1799,
    "semânt": 1800,
    "á-l": 1801,
    ". Esta ": 1802,
    "tabel": 1803,
    "matriz de ": 1804,
    "Trans": 1805,
    "tes": 1806,
    "fam": 1807,
    "pergunt": 1808,
    "o. O ": 1809,
    "flux": 1810,
    "RNN": 1811,
    "cálculo ": 1812,
    "le ": 1813,
    "variável aleatória ": 1814,
    "engenh": 1815,
    "anos ": 1816,
    "18": 1817,
    ". Isto ": 1818,
    "Mat": 1819,
    " da ": 1820,
    "máquina ": 1821,
    "autom": 1822,
    "CPU": 1823,
    "escre": 1824,
    "abstr": 1825,
    "simples ": 1826,
    "discret": 1827,
    "ion": 1828,
    "). A ": 1829,
    "o, o ": 1830,
    "única ": 1831,
    "algoritmo de ": 1832,
    "fís": 1833,
    "generaliz": 1834,
    "dinâ": 1835,
    ", mas ": 1836,
    "nul": 1837,
    "mica ": 1838,
    "pop": 1839,
    "const": 1840,
    "adequ": 1841,
    "com uma ": 1842,
    "incluem ": 1843,
    "ós": 1844,
    "D ": 1845,
    "garant": 1846,
    "crit": 1847,
    ", então ": 1848,
    "o ou ": 1849,
    "comportamento ": 1850,
    ". Qu": 1851,
    "somente ": 1852,
    "gul": 1853,
    "dados de ": 1854,
    "classe ": 1855,
    "módul": 1856,
    "possibil": 1857,
    "correspond": 1858,
    "processo ": 1859,
    "sobre a ": 1860,
    "os para ": 1861,
    "conf": 1862,
    "RA": 1863,
    "ativa ": 1864,
    "ar de ": 1865,
    "sucess": 1866,
    "situ": 1867,
    "lanç": 1868,
    "ân": 1869,
    "banc": 1870,
    ". Exempl": 1871,
    "efe": 1872,
    "Jo": 1873,
    "ia de ": 1874,
    "tido ": 1875,
    "a máquin": 1876,
    "eu ": 1877,
    "expressão ": 1878,
    "cou ": 1879,
    "própri": 1880,
    "permite ": 1881,
    ". Exist": 1882,
    "ados por ": 1883,
    "falh": 1884,
    "ante": 1885,
    "íngu": 1886,
    "modelo de ": 1887,
    "parad": 1888,
    "3, ": 1889,
    "entes, ": 1890,
    ". Este ": 1891,
    "e do ": 1892,
    ". Con": 1893,
    "que são ": 1894,
    "maioria ": 1895,
    "oso": 1896,
    "mínim": 1897,
    "fac": 1898,
    "máquina de ": 1899,
    "afir": 1900,
    "rede": 1901,
    "fundament": 1902,
    "P ": 1903,
    "ow": 1904,
    "ation": 1905,
    "baix": 1906,
    "capaz": 1907,
    "adas em ": 1908,
    "dec": 1909,
    "am o ": 1910,
    "as em ": 1911,
    "del": 1912,
    "ponto ": 1913,
    "exig": 1914,
    "voc": 1915,
    "numa ": 1916,
    "denot": 1917,
    "gl": 1918,
    "ed ": 1919,
    "ualiz": 1920,
    "tenh": 1921,
    "ções, ": 1922,
    "princípi": 1923,
    "entes de ": 1924,
    "atóri": 1925,
    "und": 1926,
    "fórmul": 1927,
    "devem ": 1928,
    "tir ": 1929,
    "século ": 1930,
    "raci": 1931,
    "Joh": 1932,
    "aria de ": 1933,
    "St": 1934,
    "veu ": 1935,
    "/ ": 1936,
    "processamento ": 1937,
    "lu": 1938,
    "ada. ": 1939,
    "Os ": 1940,
    "a. Em ": 1941,
    "direcion": 1942,
    "arquiv": 1943,
    "Mic": 1944,
    "bro de ": 1945,
    "imento ": 1946,
    "ráp": 1947,
    "as do ": 1948,
    "orient": 1949,
    "hou": 1950,
    "consult": 1951,
    "uma função ": 1952,
    "chave ": 1953,
    "log ": 1954,
    "OpenA": 1955,
    "ciência da ": 1956,
    "ores, ": 1957,
    "as: ": 1958,
    "e-": 1959,
    "ge ": 1960,
    "tot": 1961,
    "possíveis ": 1962,
    "ssim": 1963,
    "pens": 1964,
    "Anális": 1965,
    "potenci": 1966,
    "Proc": 1967,
    "rede de ": 1968,
    "dispositiv": 1969,
    "rob": 1970,
    "obter ": 1971,
    "condi": 1972,
    "ep": 1973,
    "tropropag": 1974,
    "circu": 1975,
    "V ": 1976,
    "autovalores ": 1977,
    "ado para ": 1978,
    "cad": 1979,
    "linguagens de ": 1980,
    "conver": 1981,
    "condicion": 1982,
    "tarefas ": 1983,
    "continu": 1984,
    "o) ": 1985,
    "): ": 1986,
    "] ": 1987,
    "demon": 1988,
    "resultado ": 1989,
    "e os ": 1990,
    "Mark": 1991,
    "ocult": 1992,
    "ia, ": 1993,
    "jac": 1994,
    "ma de ": 1995,
    "? ": 1996,
    ". V": 1997,
    "estabel": 1998,
    "termos ": 1999,
    "automa": 2000,
    "ui ": 2001,
    "racioc": 2002,
    ". L": 2003,
    "trabalho ": 2004,
    "ecer ": 2005,
    "ear": 2006,
    "all": 2007,
    "gebr": 2008,
    "língu": 2009,
    "reduz": 2010,
    "sec": 2011,
    "sentido ": 2012,
    "direitos ": 2013,
    "alto ": 2014,
    "normalmente ": 2015,
    "pelos ": 2016,
    "pert": 2017,
    "incorpor": 2018,
    "medi": 2019,
    "ança ": 2020,
    "ê ": 2021,
    "inferência ": 2022,
    "demonstr": 2023,
    "mo de ": 2024,
    "árvor": 2025,
    "Des": 2026,
    "intern": 2027,
    "desenvolvimento de ": 2028,
    "resolver ": 2029,
    "conhecida ": 2030,
    "has": 2031,
    "edade ": 2032,
    "195": 2033,
    "registr": 2034,
    "educ": 2035,
    "gover": 2036,
    "espaço vetorial ": 2037,
    "além ": 2038,
    "tor": 2039,
    "So": 2040,
    "outra ": 2041,
    "vir": 2042,
    "omin": 2043,
    "caus": 2044,
    "mud": 2045,
    "hard": 2046,
    ". Essa ": 2047,
    "sele": 2048,
    "durant": 2049,
    "6 ": 2050,
    "ris": 2051,
    ". Iss": 2052,
    "melhor ": 2053,
    "abaix": 2054,
    "ações, ": 2055,
    "poderia ": 2056,
    "ida de ": 2057,
    "os ou ": 2058,
    "usuários ": 2059,
    "esquer": 2060,
    "faci": 2061,
    "explor": 2062,
    "se a ": 2063,
    "óp": 2064,
    "GPU": 2065,
    "manip": 2066,
    "Computação ": 2067,
    "a\"": 2068,
    "modo ": 2069,
    "bast": 2070,
    "set": 2071,
    "papel": 2072,
    "iníci": 2073,
    "mecanis": 2074,
    "de-se ": 2075,
    "transform": 2076,
    "real ": 2077,
    "dimensão ": 2078,
    "stitu": 2079,
    "toda ": 2080,
    "artigo ": 2081,
    "maneira ": 2082,
    "Markov": 2083,
    "resp": 2084,
    "as (": 2085,
    "Car": 2086,
    "fala ": 2087,
    "sat": 2088,
    "tiz": 2089,
    "diversas ": 2090,
    "asp": 2091,
    "tid": 2092,
    "ace": 2093,
    "exper": 2094,
    "raciocíni": 2095,
    "Informa": 2096,
    "es e ": 2097,
    "polin": 2098,
    "ômi": 2099,
    "ric": 2100,
    "mor": 2101,
    "Prob": 2102,
    "derivadas ": 2103,
    ". Ele ": 2104,
    "conceito de ": 2105,
    "a partir de ": 2106,
    "faz ": 2107,
    "tradução ": 2108,
    "or, ": 2109,
    "rec": 2110,
    "o-": 2111,
    "imin": 2112,
    "ado a ": 2113
  }
}