{
  "version": "1.0",
  "truncation": null,
  "padding": null,
  "added_tokens": [
    {
      "id": 0,
      "content": "<unk>",
      "single_word": false,
      "lstrip": false,
      "rstrip": false,
      "normalized": false,
      "special": true
    },
    {
      "id": 1,
      "content": "<bos>",
      "single_word": false,
      "lstrip": false,
      "rstrip": false,
      "normalized": false,
      "special": true
    },
    {
      "id": 2,
      "content": "<eos>",
      "single_word": false,
      "lstrip": false,
      "rstrip": false,
      "normalized": false,
      "special": true
    },
    {
      "id": 3,
      "content": "<par>",
      "single_word": false,
      "lstrip": false,
      "rstrip": false,
      "normalized": false,
      "special": true
    }
  ],
  "normalizer": null,
  "pre_tokenizer": {
    "type": "ByteLevel",
    "add_prefix_space": false,
    "trim_offsets": true,
    "use_regex": true
  },
  "post_processor": null,
  "decoder": {
    "type": "ByteLevel",
    "add_prefix_space": true,
    "trim_offsets": true,
    "use_regex": true
  },
  "model": {
    "type": "BPE",
    "dropout": null,
    "unk_token": "<unk>",
    "continuing_subword_prefix": null,
    "end_of_word_suffix": null,
    "fuse_unk": false,
    "byte_fallback": false,
    "ignore_merges": false,
    "vocab": {
      "<unk>": 0,
      "<bos>": 1,
      "<eos>": 2,
      "<par>": 3,
      "!": 4,
      "\"": 5,
      "#": 6,
      "$": 7,
      "%": 8,
      "&": 9,
      "'": 10,
      "(": 11,
      ")": 12,
      "*": 13,
      "+": 14,
      ",": 15,
      "-": 16,
      ".": 17,
      "/": 18,
      "0": 19,
      "1": 20,
      "2": 21,
      "3": 22,
      "4": 23,
      "5": 24,
      "6": 25,
      "7": 26,
      "8": 27,
      "9": 28,
      ":": 29,
      ";": 30,
      "<": 31,
      "=": 32,
      ">": 33,
      "?": 34,
      "@": 35,
      "A": 36,
      "B": 37,
      "C": 38,
      "D": 39,
      "E": 40,
      "F": 41,
      "G": 42,
      "H": 43,
      "I": 44,
      "J": 45,
      "K": 46,
      "L": 47,
      "M": 48,
      "N": 49,
      "O": 50,
      "P": 51,
      "Q": 52,
      "R": 53,
      "S": 54,
      "T": 55,
      "U": 56,
      "V": 57,
      "W": 58,
      "X": 59,
      "Y": 60,
      "Z": 61,
      "[": 62,
      "\\": 63,
      "]": 64,
      "^": 65,
      "_": 66,
      "`": 67,
      "a": 68,
      "b": 69,
      "c": 70,
      "d": 71,
      "e": 72,
      "f": 73,
      "g": 74,
      "h": 75,
      "i": 76,
      "j": 77,
      "k": 78,
      "l": 79,
      "m": 80,
      "n": 81,
      "o": 82,
      "p": 83,
      "q": 84,
      "r": 85,
      "s": 86,
      "t": 87,
      "u": 88,
      "v": 89,
      "w": 90,
      "x": 91,
      "y": 92,
      "z": 93,
      "{": 94,
      "|": 95,
      "}": 96,
      "~": 97,
      "¡": 98,
      "¢": 99,
      "£": 100,
      "¤": 101,
      "¥": 102,
      "¦": 103,
      "§": 104,
      "¨": 105,
      "©": 106,
      "ª": 107,
      "«": 108,
      "¬": 109,
      "®": 110,
      "¯": 111,
      "°": 112,
      "±": 113,
      "²": 114,
      "³": 115,
      "´": 116,
      "µ": 117,
      "¶": 118,
      "·": 119,
      "¸": 120,
      "¹": 121,
      "º": 122,
      "»": 123,
      "¼": 124,
      "½": 125,
      "¾": 126,
      "¿": 127,
      "À": 128,
      "Á": 129,
      "Â": 130,
      "Ã": 131,
      "Ä": 132,
      "Å": 133,
      "Æ": 134,
      "Ç": 135,
      "È": 136,
      "É": 137,
      "Ê": 138,
      "Ë": 139,
      "Ì": 140,
      "Í": 141,
      "Î": 142,
      "Ï": 143,
      "Ð": 144,
      "Ñ": 145,
      "Ò": 146,
      "Ó": 147,
      "Ô": 148,
      "Õ": 149,
      "Ö": 150,
      "×": 151,
      "Ø": 152,
      "Ù": 153,
      "Ú": 154,
      "Û": 155,
      "Ü": 156,
      "Ý": 157,
      "Þ": 158,
      "ß": 159,
      "à": 160,
      "á": 161,
      "â": 162,
      "ã": 163,
      "ä": 164,
      "å": 165,
      "æ": 166,
      "ç": 167,
      "è": 168,
      "é": 169,
      "ê": 170,
      "ë": 171,
      "ì": 172,
      "í": 173,
      "î": 174,
      "ï": 175,
      "ð": 176,
      "ñ": 177,
      "ò": 178,
      "ó": 179,
      "ô": 180,
      "õ": 181,
      "ö": 182,
      "÷": 183,
      "ø": 184,
      "ù": 185,
      "ú": 186,
      "û": 187,
      "ü": 188,
      "ý": 189,
      "þ": 190,
      "ÿ": 191,
      "Ā": 192,
      "ā": 193,
      "Ă": 194,
      "ă": 195,
      "Ą": 196,
      "ą": 197,
      "Ć": 198,
      "ć": 199,
      "Ĉ": 200,
      "ĉ": 201,
      "Ċ": 202,
      "ċ": 203,
      "Č": 204,
      "č": 205,
      "Ď": 206,
      "ď": 207,
      "Đ": 208,
      "đ": 209,
      "Ē": 210,
      "ē": 211,
      "Ĕ": 212,
      "ĕ": 213,
      "Ė": 214,
      "ė": 215,
      "Ę": 216,
      "ę": 217,
      "Ě": 218,
      "ě": 219,
      "Ĝ": 220,
      "ĝ": 221,
      "Ğ": 222,
      "ğ": 223,
      "Ġ": 224,
      "ġ": 225,
      "Ģ": 226,
      "ģ": 227,
      "Ĥ": 228,
      "ĥ": 229,
      "Ħ": 230,
      "ħ": 231,
      "Ĩ": 232,
      "ĩ": 233,
      "Ī": 234,
      "ī": 235,
      "Ĭ": 236,
      "ĭ": 237,
      "Į": 238,
      "į": 239,
      "İ": 240,
      "ı": 241,
      "Ĳ": 242,
      "ĳ": 243,
      "Ĵ": 244,
      "ĵ": 245,
      "Ķ": 246,
      "ķ": 247,
      "ĸ": 248,
      "Ĺ": 249,
      "ĺ": 250,
      "Ļ": 251,
      "ļ": 252,
      "Ľ": 253,
      "ľ": 254,
      "Ŀ": 255,
      "ŀ": 256,
      "Ł": 257,
      "ł": 258,
      "Ń": 259,
      "Ġe": 260,
      "de": 261,
      "Ġp": 262,
      "Ġa": 263,
      "co": 264,
      "te": 265,
      "re": 266,
      "ma": 267,
      "ar": 268,
      "Ġs": 269,
      "Ġde": 270,
      "Ã§": 271,
      "Ġco": 272,
      "do": 273,
      "Ġo": 274,
      "es": 275,
      "is": 276,
      "ta": 277,
      "mp": 278,
      "or": 279,
      "er": 280,
      "os": 281,
      "ca": 282,
      "Ã§Ã": 283,
      "da": 284,
      "en": 285,
      "Ġf": 286,
      "Ġu": 287,
      "Ġre": 288,
      "Ã¡": 289,
      "£o": 290,
      "ti": 291,
      "so": 292,
      "mpl": 293,
      "ra": 294,
      "to": 295,
      "Ġi": 296,
      "ci": 297,
      "Ã§Ã£o": 298,
      "di": 299,
      "nte": 300,
      "Ġcon": 301,
      "Ġm": 302,
      "Ġpo": 303,
      "ua": 304,
      "Ġpr": 305,
      "Ġex": 306,
      "li": 307,
      "Ġem": 308,
      "as": 309,
      "µes": 310,
      "Ġcom": 311,
      "Ã©": 312,
      "Ġdi": 313,
      "Ġsi": 314,
      "ĠE": 315,
      "Ġes": 316,
      "lh": 317,
      "Ġse": 318,
      "Ġpode": 319,
      "Ġn": 320,
      "Ġma": 321,
      "ri": 322,
      "Ġexe": 323,
      "Ġexempl": 324,
      "tica": 325,
      "Ã§Ãµes": 326,
      "Ġin": 327,
      "erv": 328,
      "un": 329,
      "ĠEs": 330,
      "ce": 331,
      "Ġuma": 332,
      "gi": 333,
      "Ġte": 334,
      "tu": 335,
      "Ġpar": 336,
      "Ã¡tica": 337,
      "men": 338,
      "Ġb": 339,
      "Ġca": 340,
      "Ġap": 341,
      "orma": 342,
      "ĠN": 343,
      "Ġob": 344,
      "Ġsimpl": 345,
      "Ġsimples": 346,
      "Ġdo": 347,
      "qu": 348,
      "Ġmais": 349,
      "esso": 350,
      "le": 351,
      "Ġpro": 352,
      "se": 353,
      "der": 354,
      "serv": 355,
      "Ġobserv": 356,
      "Ġexemplo": 357,
      "cis": 358,
      "Ġforma": 359,
      "na": 360,
      "Ġc": 361,
      "ni": 362,
      "sa": 363,
      "Ġpre": 364,
      "Ġcomp": 365,
      "cor": 366,
      "Ġobserva": 367,
      "gu": 368,
      "Ġprecis": 369,
      "ol": 370,
      "Ġinf": 371,
      "Ġt": 372,
      "Ġpesso": 373,
      "uan": 374,
      "ĠÃ©": 375,
      "nÃ§": 376,
      "la": 377,
      "tos": 378,
      "em": 379,
      "Ġfa": 380,
      "ve": 381,
      "Ġestu": 382,
      "res": 383,
      "Ġum": 384,
      "Ġpessoa": 385,
      "tado": 386,
      "uda": 387,
      "Ġno": 388,
      "ĠNo": 389,
      "vi": 390,
      "gita": 391,
      "Ġdigita": 392,
      "ui": 393,
      "fi": 394,
      "cia": 395,
      "uando": 396,
      "Ġcaso": 397,
      "Ġprecisar": 398,
      "Ġcomun": 399,
      "ĠEste": 400,
      "Ġrecor": 401,
      "Ġrecorte": 402,
      "ro": 403,
      "tas": 404,
      "si": 405,
      "ĠprÃ¡tica": 406,
      "ec": 407,
      "Ġaj": 408,
      "Ġajuda": 409,
      "nder": 410,
      "Ġq": 411,
      "ga": 412,
      "ĠEsse": 413,
      "mas": 414,
      "tua": 415,
      "cos": 416,
      "nÃ§a": 417,
      "Ã£o": 418,
      "Ġme": 419,
      "orm": 420,
      "gra": 421,
      "Ġpara": 422,
      "Ġmelh": 423,
      "ntes": 424,
      "Ġda": 425,
      "ĠA": 426,
      "aÃ§Ã£o": 427,
      "ĠO": 428,
      "Ġmelhor": 429,
      "Ġal": 430,
      "Ġsegu": 431,
      "Ġcomuns": 432,
      "Ġta": 433,
      "ormÃ¡tica": 434,
      "ĠinformÃ¡tica": 435,
      "Ã³": 436,
      "om": 437,
      "cei": 438,
      "bi": 439,
      "Ġuso": 440,
      "mento": 441,
      "are": 442,
      "Ġconcei": 443,
      "lica": 444,
      "Ãª": 445,
      "ente": 446,
      "lu": 447,
      "su": 448,
      "Ã©m": 449,
      "Ġcompu": 450,
      "ten": 451,
      "Ġcomputado": 452,
      "dade": 453,
      "Ġaplica": 454,
      "mos": 455,
      "al": 456,
      "ncia": 457,
      "Ġd": 458,
      "Ġdigitais": 459,
      "Ġtra": 460,
      "Ġsem": 461,
      "lo": 462,
      "Ġexemplos": 463,
      "Ġna": 464,
      "alh": 465,
      "orta": 466,
      "niz": 467,
      "Ġor": 468,
      "Ġli": 469,
      "das": 470,
      "Ġimp": 471,
      "Ãªncia": 472,
      "dos": 473,
      "balh": 474,
      "Ġtrabalh": 475,
      "Ġv": 476,
      "Ġorga": 477,
      "Ġorganiz": 478,
      "vos": 479,
      "iste": 480,
      "arece": 481,
      "ensa": 482,
      "cio": 483,
      "Ã¡ri": 484,
      "lar": 485,
      "Ġsitua": 486,
      "ica": 487,
      "Ġmo": 488,
      "ÃŃ": 489,
      "Ġen": 490,
      "Ġaparece": 491,
      "Ġquando": 492,
      "Ġimporta": 493,
      "Ġdia": 494,
      "uto": 495,
      "Ġg": 496,
      "Ġimportante": 497,
      "Ġparte": 498,
      "ranÃ§a": 499,
      "Ġtrabalho": 500,
      "ntender": 501,
      "Ġserv": 502,
      "Ġper": 503,
      "Ġservi": 504,
      "ecer": 505,
      "ĠseguranÃ§a": 506,
      "Ġauto": 507,
      "Ġou": 508,
      "Ġmui": 509,
      "hecer": 510,
      "ĠP": 511,
      "eti": 512,
      "nto": 513,
      "Ãµes": 514,
      "Ġfun": 515,
      "isso": 516,
      "ais": 517,
      "cu": 518,
      "ciona": 519,
      "Ġfaz": 520,
      "ĠsituaÃ§Ãµes": 521,
      "mo": 522,
      "Ġestudo": 523,
      "ĠalÃ©m": 524,
      "ble": 525,
      "Ġreais": 526,
      "Ġsiste": 527,
      "tenÃ§Ã£o": 528,
      "Ġconceitos": 529,
      "ia": 530,
      "Ġser": 531,
      "ros": 532,
      "ĠorganizaÃ§Ã£o": 533,
      "fe": 534,
      "Ãº": 535,
      "car": 536,
      "Ġevi": 537,
      "Ġer": 538,
      "Ġso": 539,
      "Ġevita": 540,
      "Ġ1": 541,
      "Ġproble": 542,
      "Ġar": 543,
      "eÃ§": 544,
      "gen": 545,
      "ne": 546,
      "Ġsol": 547,
      "dado": 548,
      "Ġcui": 549,
      "po": 550,
      "Ġantes": 551,
      "tra": 552,
      "Ġclar": 553,
      "fere": 554,
      "Quando": 555,
      "qui": 556,
      "Ġrep": 557,
      "Ġfo": 558,
      "Ġsolu": 559,
      "Ã¡rio": 560,
      "Ġle": 561,
      "Ġdifere": 562,
      "Ġesco": 563,
      "Ġas": 564,
      "Ã§os": 565,
      "Ġsistemas": 566,
      "Ġusu": 567,
      "Ġ2": 568,
      "Ġproc": 569,
      "Ġter": 570,
      "mente": 571,
      "Ġcuidado": 572,
      "Ġinte": 573,
      "Ġfaci": 574,
      "lita": 575,
      "Ġfacilita": 576,
      "va": 577,
      "Ġqu": 578,
      "entes": 579,
      "ĠC": 580,
      "Ġh": 581,
      "Ġrepeti": 582,
      "gia": 583,
      "ĠQuando": 584,
      "Ġfica": 585,
      "Ã¡si": 586,
      "ĠbÃ¡si": 587,
      "tar": 588,
      "quÃªncia": 589,
      "Ġcomputador": 590,
      "Ġestuda": 591,
      "Ġfoi": 592,
      "taÃ§Ã£o": 593,
      "ĠserviÃ§os": 594,
      "pre": 595,
      "Ġres": 596,
      "fo": 597,
      "gens": 598,
      "Ġmelhora": 599,
      "Ġdigital": 600,
      "ĠNes": 601,
      "grafo": 602,
      "Ġpor": 603,
      "Ġ3": 604,
      "Ġbem": 605,
      "Ġerros": 606,
      "ĠatenÃ§Ã£o": 607,
      "Ġam": 608,
      "ĠusuÃ¡rio": 609,
      "lidade": 610,
      "ĠsequÃªncia": 611,
      "Ġante": 612,
      "ĠparÃ¡": 613,
      "rior": 614,
      "ĠparÃ¡grafo": 615,
      "Ġambi": 616,
      "Ġcomputadores": 617,
      "Ġanterior": 618,
      "Ġblo": 619,
      "tr": 620,
      "ĠNeste": 621,
      "Ġpensa": 622,
      "Ġbloco": 623,
      "Ġrepetir": 624,
      "Ġpensado": 625,
      "Ġconec": 626,
      "vol": 627,
      "ĠfunÃ§Ã£o": 628,
      "Ġtec": 629,
      "Ġrela": 630,
      "Ġcada": 631,
      "unto": 632,
      "Ġambientes": 633,
      "Ġtermos": 634,
      "ĠcomeÃ§": 635,
      "con": 636,
      "tivos": 637,
      "mb": 638,
      "Ġ4": 639,
      "Ġescolh": 640,
      "ciente": 641,
      "Ġdire": 642,
      "Ġtema": 643,
      "Ġmas": 644,
      "Ġtex": 645,
      "Ġproblemas": 646,
      "tura": 647,
      "Ġdes": 648,
      "ĠM": 649,
      "ĠprÃ¡ticas": 650,
      "Ġsob": 651,
      "nom": 652,
      "Ġentender": 653,
      "olo": 654,
      "Ġsobre": 655,
      "Ġponto": 656,
      "Ġinc": 657,
      "gir": 658,
      "he": 659,
      "ref": 660,
      "ologia": 661,
      "per": 662,
      "Ġtaref": 663,
      "Em": 664,
      "rar": 665,
      "Ġtecn": 666,
      "ĠCom": 667,
      "cil": 668,
      "ĠfÃ¡": 669,
      "Ġcompar": 670,
      "du": 671,
      "nomia": 672,
      "ĠfÃ¡cil": 673,
      "Ġautonomia": 674,
      "Ġque": 675,
      "Ġtecnologia": 676,
      "Ġesse": 677,
      "Ġsen": 678,
      "Ġinclu": 679,
      "Ġger": 680,
      "Ġdados": 681,
      "conhecer": 682,
      "Ġtor": 683,
      "Ġresu": 684,
      "Ġdecor": 685,
      "Ġpas": 686,
      "Ġtarefas": 687,
      "Ġdecorar": 688,
      "ĠhÃ¡": 689,
      "ĠaplicaÃ§Ãµes": 690,
      "Apre": 691,
      "Ġass": 692,
      "reen": 693,
      "Aprender": 694,
      "Ġpodem": 695,
      "Ġcompl": 696,
      "Ġtorna": 697,
      "Ġdisso": 698,
      "Ġresul": 699,
      "Ġbas": 700,
      "lhas": 701,
      "reender": 702,
      "Ġgeral": 703,
      "enas": 704,
      "heci": 705,
      "Ġmuitas": 706,
      "Ġresultado": 707,
      "ficiente": 708,
      "Ã³ri": 709,
      "dores": 710,
      "Ġpe": 711,
      "Ġconheci": 712,
      "pos": 713,
      "Ġprecisa": 714,
      "ĠOs": 715,
      "esmo": 716,
      "ĠPor": 717,
      "Ġconfi": 718,
      "ĠnÃ£o": 719,
      "qua": 720,
      "Ġeficiente": 721,
      "Ġbase": 722,
      "ara": 723,
      "Ġprocesso": 724,
      "nos": 725,
      "cri": 726,
      "Ġrelaciona": 727,
      "Ġade": 728,
      "ĠNa": 729,
      "sar": 730,
      "quivos": 731,
      "Ġadequa": 732,
      "volve": 733,
      "tamente": 734,
      "Ġconhecimento": 735,
      "ĠEle": 736,
      "Ġexi": 737,
      "ciar": 738,
      "Ġclara": 739,
      "Ġfazer": 740,
      "Ġincluem": 741,
      "ĠdiferenÃ§a": 742,
      "Ġescolher": 743,
      "Ġconfigu": 744,
      "Ġconceito": 745,
      "tor": 746,
      "ĠMesmo": 747,
      "dar": 748,
      "Ġir": 749,
      "ĠsoluÃ§Ãµes": 750,
      "icar": 751,
      "Ġreconhecer": 752,
      "Na": 753,
      "ĠbÃ¡sicos": 754,
      "Ġaplicado": 755,
      "Ġexigir": 756,
      "Ġmuitos": 757,
      "Ġadequadas": 758,
      "Ġusar": 759,
      "Ġcomplicar": 760,
      "Ġmensa": 761,
      "Ġinflu": 762,
      "Ġmoder": 763,
      "Ġinfluen": 764,
      "Ġdiretamente": 765,
      "us": 766,
      "Qu": 767,
      "Ġmodernos": 768,
      "Ġconecta": 769,
      "Ġassunto": 770,
      "Ġseguro": 771,
      "Ġide": 772,
      "ĠnoÃ§Ãµes": 773,
      "Ġconhecer": 774,
      "Ġinfluenciar": 775,
      "Quem": 776,
      "Entender": 777,
      "amento": 778,
      "Ġdocu": 779,
      "Ġdocumen": 780,
      "par": 781,
      "Ġisso": 782,
      "Ġenvolve": 783,
      "Ġarquivos": 784,
      "Ġlida": 785,
      "Ġobservado": 786,
      "Ġcompreender": 787,
      "Ġlidamos": 788,
      "Ġlei": 789,
      "Ġtes": 790,
      "mi": 791,
      "bilidade": 792,
      "Ġpla": 793,
      "nal": 794,
      "Ġpa": 795,
      "<par": 796,
      "Ġpequ": 797,
      "Ġmensagens": 798,
      "Ġava": 799,
      "Ġinter": 800,
      "tÃ³ri": 801,
      "maÃ§Ã£o": 802,
      "Ġdeve": 803,
      "Ġquan": 804,
      "pon": 805,
      "til": 806,
      "Ġfra": 807,
      "in": 808,
      "Ġdis": 809,
      "raÃ§Ãµes": 810,
      "ĠU": 811,
      "Ġini": 812,
      "Ġinicia": 813,
      "ĠconfiguraÃ§Ãµes": 814,
      "Ġquanto": 815,
      "Ġcasa": 816,
      "Ġ5": 817,
      "Ġon": 818,
      "Ġtanto": 819,
      "Ġaos": 820,
      "Ġestudar": 821,
      "Ġrecu": 822,
      "Ġiniciantes": 823,
      "ul": 824,
      "ĠsÃ£o": 825,
      "ĠcomeÃ§ar": 826,
      "ĠPara": 827,
      "Ġrespon": 828,
      "ver": 829,
      "sos": 830,
      "Ġusa": 831,
      "Ġpou": 832,
      "Ġpoucos": 833,
      "mbÃ©m": 834,
      "Ã¡ve": 835,
      "Ġfalhas": 836,
      "vo": 837,
      "Ġrede": 838,
      "ĠavanÃ§": 839,
      "Ġtexto": 840,
      "Ġideal": 841,
      "Ġfi": 842,
      "ĠavanÃ§ar": 843,
      "ĠtambÃ©m": 844,
      "Ġcomo": 845,
      "line": 846,
      "ĠÃº": 847,
      "Ġonline": 848,
      "Ġcomparar": 849,
      "Ġ6": 850,
      "Ġcomunica": 851,
      "Ġcons": 852,
      "Ġperce": 853,
      "ĠcomunicaÃ§Ã£o": 854,
      "duz": 855,
      "side": 856,
      "Ġ7": 857,
      "Ġve": 858,
      "tras": 859,
      "ĠÃ": 860,
      "Ġr": 861,
      "Ġtestar": 862,
      "vida": 863,
      "za": 864,
      "ĠÃºtil": 865,
      "Ġver": 866,
      "Ġto": 867,
      "Ġlin": 868,
      "sÃµes": 869,
      "stu": 870,
      "crita": 871,
      "tido": 872,
      "nitor": 873,
      "Ġmonitor": 874,
      "nico": 875,
      "zar": 876,
      "Ġsentido": 877,
      "ha": 878,
      "Ġclaro": 879,
      "vis": 880,
      "Ġris": 881,
      "erra": 882,
      "tro": 883,
      "Ġ8": 884,
      "Ġriscos": 885,
      "gem": 886,
      "erramen": 887,
      "Ġobservar": 888,
      "ĠsoluÃ§Ã£o": 889,
      "xi": 890,
      "erramentas": 891,
      "âĢ": 892,
      "mpo": 893,
      "Ġ9": 894,
      "ber": 895,
      "ĠT": 896,
      "Ġleitura": 897,
      "ĠdocumentaÃ§Ã£o": 898,
      "an": 899,
      "tru": 900,
      "Ġinforma": 901,
      "Ġobj": 902,
      "ts": 903,
      "pois": 904,
      "ĠI": 905,
      "ĠUm": 906,
      "Ġrevis": 907,
      "Ġtempo": 908,
      "Ġdepois": 909,
      "Ġlo": 910,
      "utenÃ§Ã£o": 911,
      "ft": 912,
      "ware": 913,
      "dr": 914,
      "ĠF": 915,
      "vidade": 916,
      "Ġoper": 917,
      "Ġescrita": 918,
      "posi": 919,
      "Ġalte": 920,
      "Ã¡vel": 921,
      "ftware": 922,
      "ĠhÃ¡bi": 923,
      "Ġro": 924,
      "Ġvez": 925,
      "Ġproblema": 926,
      "Ġsoftware": 927,
      "Ġpadr": 928,
      "eb": 929,
      "Ġconside": 930,
      "nÃ§as": 931,
      "Ġperceber": 932,
      "Ġman": 933,
      "mentos": 934,
      "Ġconsidera": 935,
      "Ġindi": 936,
      "Ġpequenas": 937,
      "gua": 938,
      "ĠautomaÃ§Ã£o": 939,
      "Ġapenas": 940,
      "ora": 941,
      "Ã¡rios": 942,
      "ĠprÃ³": 943,
      "Ġobjeti": 944,
      "Ġw": 945,
      "Ã´": 946,
      "ĠpadrÃµes": 947,
      "Ġproces": 948,
      "Ġdiferentes": 949,
      "Ġoutras": 950,
      "Ġprogra": 951,
      "tifi": 952,
      "ĠrevisÃ£o": 953,
      "ĠdÃº": 954,
      "positivos": 955,
      "ĠdÃºvida": 956,
      "Ġapre": 957,
      "tores": 958,
      "Ġaplicativos": 959,
      "Ġweb": 960,
      "pe": 961,
      "ĠÃī": 962,
      "ĠmanutenÃ§Ã£o": 963,
      "tre": 964,
      "Ġpessoas": 965,
      "Ġcostu": 966,
      "Ġobjetivo": 967,
      "Ġcostuma": 968,
      "Ġmuda": 969,
      "Ġdesde": 970,
      "Ġdecis": 971,
      "ĠEm": 972,
      "Ġfunciona": 973,
      "Ġpri": 974,
      "Ġexce": 975,
      "Ġbom": 976,
      "Ġpasso": 977,
      "tudo": 978,
      "ĠcomeÃ§o": 979,
      "sÃ¡vel": 980,
      "ĠW": 981,
      "ĠresponsÃ¡vel": 982,
      "Ġconsiderada": 983,
      "ĠmudanÃ§as": 984,
      "Ġreduz": 985,
      "Ġvi": 986,
      "ĠexceÃ§Ãµes": 987,
      "Ġalterar": 988,
      "Ġtudo": 989,
      "Ġusadas": 990,
      "Ġcontas": 991,
      "madas": 992,
      "ĠhÃ¡bito": 993,
      "tros": 994,
      "sÃ£o": 995,
      "has": 996,
      "Ġperda": 997,
      "Ġerro": 998,
      "mis": 999,
      "ximo": 1000,
      "dor": 1001,
      "Ã©c": 1002,
      "ĠdecisÃµes": 1003,
      "Ġindicar": 1004,
      "Ġequi": 1005,
      "ĠtÃ©c": 1006,
      "Ġnave": 1007,
      "Ġnavega": 1008,
      "ĠprÃ³ximo": 1009,
      "Ġfuncionam": 1010,
      "Ġpermis": 1011,
      "Ġtomadas": 1012,
      "Ġlemb": 1013,
      "ĠFerramentas": 1014,
      "ĠpermissÃµes": 1015,
      "Ġlembrar": 1016,
      "las": 1017,
      "cas": 1018,
      "Ġaten": 1019,
      "Ġos": 1020,
      "ces": 1021,
      "enta": 1022,
      "Ġele": 1023,
      "Ġdispositivos": 1024,
      "Ġl": 1025,
      "Ġrecur": 1026,
      "ĠbÃ¡sica": 1027,
      "Ġestudante": 1028,
      "ses": 1029,
      "zen": 1030,
      "Ġarma": 1031,
      "Ġarmazen": 1032,
      "ĠtÃ©cnico": 1033,
      "Ġfrase": 1034,
      "Ġvir": 1035,
      "Ġqua": 1036,
      "Ġao": 1037,
      "cre": 1038,
      "Ġ(": 1039,
      "forma": 1040,
      "Ġarmazenamento": 1041,
      "Ġdom": 1042,
      "Ġan": 1043,
      "Ġmos": 1044,
      "Ġce": 1045,
      "Ġredes": 1046,
      "net": 1047,
      "tividade": 1048,
      "Ġmostra": 1049,
      "Ġrespos": 1050,
      "Ġregra": 1051,
      "tes": 1052,
      "lab": 1053,
      "Ġedi": 1054,
      "los": 1055,
      "cidade": 1056,
      "dimento": 1057,
      "Ġvirtua": 1058,
      "Ġcelu": 1059,
      "Ã¡l": 1060,
      "man": 1061,
      "Ġloj": 1062,
      "Ġrespostas": 1063,
      "Ġatendimento": 1064,
      "je": 1065,
      "Ġescre": 1066,
      "Ġcor": 1067,
      "pa": 1068,
      "Ġsu": 1069,
      "trutura": 1070,
      "trÃ´": 1071,
      "Ġvar": 1072,
      "Ġvis": 1073,
      "ĠeletrÃ´": 1074,
      "resenta": 1075,
      "pi": 1076,
      "Ġfrases": 1077,
      "ĠTI": 1078,
      "Ġexp": 1079,
      "Ġpastas": 1080,
      "orte": 1081,
      "Ã©ri": 1082,
      "Ġsistema": 1083,
      "cionais": 1084,
      "Ġopera": 1085,
      "Ġatua": 1086,
      "Ãªs": 1087,
      "stica": 1088,
      "Ġdesen": 1089,
      "Ã¡lis": 1090,
      "Ġmode": 1091,
      "Ġrecursos": 1092,
      "Ġpequen": 1093,
      "Re": 1094,
      "Ã¡lise": 1095,
      "ĠÃ¡": 1096,
      "rÃ¡": 1097,
      "tÃ³rios": 1098,
      "Ġatuali": 1099,
      "ito": 1100,
      "gn": 1101,
      "Ġprote": 1102,
      "Ġentre": 1103,
      "ÃŃn": 1104,
      "Ġrecuper": 1105,
      "Ġprocessos": 1106,
      "junto": 1107,
      "quis": 1108,
      "vacidade": 1109,
      "Ġproje": 1110,
      "if": 1111,
      "ĠvÃŃ": 1112,
      "Ã©ricos": 1113,
      "Ġima": 1114,
      "PI": 1115,
      "tÃ³rio": 1116,
      "resentaÃ§Ãµes": 1117,
      "ĠanÃ¡lise": 1118,
      "Ġprogramas": 1119,
      "Ġoperacionais": 1120,
      "Ġsenhas": 1121,
      "Ġmonitoramento": 1122,
      "tugu": 1123,
      "PIs": 1124,
      "eÃ§as": 1125,
      "nilhas": 1126,
      "ifÃ©ricos": 1127,
      "des": 1128,
      "Ġportugu": 1129,
      "Ġlingua": 1130,
      "ras": 1131,
      "ĠportuguÃªs": 1132,
      "Ġtextos": 1133,
      "Ġimagens": 1134,
      "Ġescola": 1135,
      "ual": 1136,
      "ven": 1137,
      "rÃ¡fi": 1138,
      "Ġprojeto": 1139,
      "tri": 1140,
      "Ġdas": 1141,
      "Ġescrever": 1142,
      "fia": 1143,
      "me": 1144,
      "ntro": 1145,
      "âĢĿ": 1146,
      "ĠâĢ": 1147,
      "ĠâĢľ": 1148,
      "grafia": 1149,
      "ĠgrÃ¡fi": 1150,
      "xos": 1151,
      "cial": 1152,
      "tifica": 1153,
      "Co": 1154,
      "dio": 1155,
      "erÃªncia": 1156,
      "Ġvari": 1157,
      "Ġemp": 1158,
      "ĠWi": 1159,
      "Ġintegra": 1160,
      "adores": 1161,
      "nc": 1162,
      "Ġqualidade": 1163,
      "tografia": 1164,
      "Ġpequena": 1165,
      "Ġinterpre": 1166,
      "ĠinformaÃ§Ãµes": 1167,
      "ori": 1168,
      "quisi": 1169,
      "ĠgrÃ¡ficos": 1170,
      "ergia": 1171,
      "Ġenergia": 1172,
      "Ġcab": 1173,
      "ĠL": 1174,
      "pes": 1175,
      "Ġform": 1176,
      "Ġcri": 1177,
      "mer": 1178,
      "Ã³pi": 1179,
      "crip": 1180,
      "Ġrequisi": 1181,
      "Fi": 1182,
      "Ġrote": 1183,
      "ĠintegraÃ§Ã£o": 1184,
      "udio": 1185,
      "Ġvisual": 1186,
      "mÃ¡tica": 1187,
      "Ġservidores": 1188,
      "ĠinterpretaÃ§Ã£o": 1189,
      "ĠÃ¡udio": 1190,
      "Inte": 1191,
      "Ġscrip": 1192,
      "Ġroteadores": 1193,
      "ĠS": 1194,
      "Ġnavegadores": 1195,
      "Ġscripts": 1196,
      "ndi": 1197,
      "Ġprodu": 1198,
      "Ġgol": 1199,
      "Ġformul": 1200,
      "Ġgolpes": 1201,
      "ĠformulÃ¡rios": 1202,
      "Ġdesenvol": 1203,
      "ĠsituaÃ§Ã£o": 1204,
      "Ġbo": 1205,
      "ix": 1206,
      "taforma": 1207,
      "Ġplataforma": 1208,
      "Ġempre": 1209,
      "Ã©r": 1210,
      "Ġins": 1211,
      "zado": 1212,
      "Ġdesenvolvi": 1213,
      "Ġempresa": 1214,
      "Ġprivacidade": 1215,
      "Ġinterf": 1216,
      "Ġconte": 1217,
      "gÃªncia": 1218,
      "tina": 1219,
      "ĠD": 1220,
      "Ġpessoal": 1221,
      "vas": 1222,
      "Ġvirtual": 1223,
      "Ġservidor": 1224,
      "labora": 1225,
      "Ġcoman": 1226,
      "Ġcorri": 1227,
      "ho": 1228,
      "ĠnÃº": 1229,
      "ĠAPIs": 1230,
      "Ġcelular": 1231,
      "ĠperifÃ©ricos": 1232,
      "Ġplanilhas": 1233,
      "Ġeditores": 1234,
      "Ġequipe": 1235,
      "Ġlabora": 1236,
      "ĠpeÃ§as": 1237,
      "Ġprin": 1238,
      "ĠapresentaÃ§Ãµes": 1239,
      "Ġloja": 1240,
      "ĠlaboratÃ³rio": 1241,
      "cip": 1242,
      "Ġrotina": 1243,
      "ĠdomÃ©": 1244,
      "ĠdomÃ©stica": 1245,
      "Ġalg": 1246,
      "ns": 1247,
      "ĠnÃºmer": 1248,
      "ex": 1249,
      "Ġdesenvolvimento": 1250,
      "Ġcha": 1251,
      "Ġaprender": 1252,
      "Ġimpl": 1253,
      "tim": 1254,
      "usten": 1255,
      "ustenta": 1256,
      "ndizado": 1257,
      "ĠinformaÃ§Ã£o": 1258,
      "Ġprincip": 1259,
      "zaÃ§Ã£o": 1260,
      "Ġaprendizado": 1261,
      "cen": 1262,
      "tÃ£o": 1263,
      "minal": 1264,
      "am": 1265,
      "Ġinternet": 1266,
      "lado": 1267,
      "ado": 1268,
      "pen": 1269,
      "up": 1270,
      "Ġdentro": 1271,
      "nha": 1272,
      "veis": 1273,
      "pri": 1274,
      "Ġprincipal": 1275,
      "il": 1276,
      "ĠcomparaÃ§Ã£o": 1277,
      "go": 1278,
      "Ã³gi": 1279,
      "ĠH": 1280,
      "dia": 1281,
      "Ġcontr": 1282,
      "ligÃªncia": 1283,
      "Ġ19": 1284,
      "Ġatividade": 1285,
      "sio": 1286,
      "ĠnÃºmero": 1287,
      "mei": 1288,
      "nalis": 1289,
      "Ġatividades": 1290,
      "Ġga": 1291,
      "Ġ20": 1292,
      "Pro": 1293,
      "nej": 1294,
      "Ġref": 1295,
      "Ġpassa": 1296,
      "Ġreal": 1297,
      "timi": 1298,
      "Ġplanej": 1299,
      "orit": 1300,
      "Ġcontrol": 1301,
      "sti": 1302,
      "ĠusuÃ¡rios": 1303,
      "Ġprimei": 1304,
      "Ġparti": 1305,
      "rin": 1306,
      "tificial": 1307,
      "ir": 1308,
      "Ġmen": 1309,
      "Ġmem": 1310,
      "Ġotimi": 1311,
      "mati": 1312,
      "Ġanalis": 1313,
      "Inter": 1314,
      "nicas": 1315,
      "Ġalgorit": 1316,
      "Ġartificial": 1317,
      "Ġdepen": 1318,
      "Ġdepende": 1319,
      "ifi": 1320,
      "mail": 1321,
      "Ġgra": 1322,
      "Ġnotar": 1323,
      "ĠconteÃº": 1324,
      "Ġimplan": 1325,
      "Ġganha": 1326,
      "Ġconex": 1327,
      "tilh": 1328,
      "Ġinsta": 1329,
      "ger": 1330,
      "ĠimplantaÃ§Ã£o": 1331,
      "tados": 1332,
      "ÃŃni": 1333,
      "Ġentra": 1334,
      "Ġcompartilh": 1335,
      "gs": 1336,
      "Ġcar": 1337,
      "ĠmÃ³": 1338,
      "ÃŃsi": 1339,
      "ĠconteÃºdo": 1340,
      "Ġautomati": 1341,
      "ptografia": 1342,
      "ĠversÃ£o": 1343,
      "cenÃ§": 1344,
      "ĠAs": 1345,
      "ĠconexÃµes": 1346,
      "over": 1347,
      "Ġverifi": 1348,
      "ĠfÃŃsi": 1349,
      "Ġorganizar": 1350,
      "Ġequipa": 1351,
      "ĠoperaÃ§Ã£o": 1352,
      "sibilidade": 1353,
      "ĠrelatÃ³rios": 1354,
      "Ġconsciente": 1355,
      "ĠsÃ³": 1356,
      "Ġatualizar": 1357,
      "Ġotimizar": 1358,
      "Ġdois": 1359,
      "Ġrecuperar": 1360,
      "Ġcorrigir": 1361,
      "Ġplanejar": 1362,
      "Ġequipamentos": 1363,
      "Ġautomatizar": 1364,
      "Ġinstalar": 1365,
      "Ã³gica": 1366,
      "ac": 1367,
      "nas": 1368,
      "Ġverificar": 1369,
      "Ġanalisar": 1370,
      "ĠIs": 1371,
      "Ġcois": 1372,
      "be": 1373,
      "ndo": 1374,
      "cenÃ§as": 1375,
      "estrutura": 1376,
      "Ã³ria": 1377,
      "overna": 1378,
      "ÃŃdia": 1379,
      "Ã§a": 1380,
      "ĠeletrÃ´nico": 1381,
      "Ġfio": 1382,
      "raestrutura": 1383,
      "ĠmÃ³veis": 1384,
      "aces": 1385,
      "Ã¡veis": 1386,
      "Ġcontrolar": 1387,
      "Ġcoisas": 1388,
      "Ã©rcio": 1389,
      "Ġconectar": 1390,
      "Ġproteger": 1391,
      "ĠfÃŃsicas": 1392,
      "Ġmonitorar": 1393,
      "Ġcompartilhar": 1394,
      "Ġestrutura": 1395,
      "ĠnavegaÃ§Ã£o": 1396,
      "ĠmemÃ³ria": 1397,
      "overnanÃ§a": 1398,
      "ĠeletrÃ´nicas": 1399,
      "ultim": 1400,
      "cessibilidade": 1401,
      "ultimÃŃdia": 1402,
      "Ġterminal": 1403,
      "ves": 1404,
      "Ġdocumentar": 1405,
      "Ġconfigurar": 1406,
      "ustentabilidade": 1407,
      "Ġtestes": 1408,
      "Ġconf": 1409,
      "Ġprocessa": 1410,
      "ĠfunÃ§Ãµes": 1411,
      "usca": 1412,
      "ĠvÃŃr": 1413,
      "Ã¢": 1414,
      "Ġmodelos": 1415,
      "Ġoutros": 1416,
      "Ġentrada": 1417,
      "Ġbusca": 1418,
      "ÃŃnio": 1419,
      "ĠAn": 1420,
      "truÃ§Ã£o": 1421,
      "ĠIsso": 1422,
      "Ġliv": 1423,
      "Ġtextua": 1424,
      "orÃ§a": 1425,
      "Ġproduz": 1426,
      "Ġcont": 1427,
      "Ġassi": 1428,
      "ĠlÃ³gica": 1429,
      "Ġprimeira": 1430,
      "ĠEssa": 1431,
      "Ġvo": 1432,
      "lares": 1433,
      "tivas": 1434,
      "Ġpol": 1435,
      "Ġpon": 1436,
      "Ġtrans": 1437,
      "ĠreforÃ§a": 1438,
      "tuaÃ§Ã£o": 1439,
      "Ġval": 1440,
      "et": 1441,
      "Ġliga": 1442,
      "ĠdomÃŃnio": 1443,
      "Ġalgoritmos": 1444,
      "istas": 1445,
      "namento": 1446,
      "Ġdos": 1447,
      "ÃŃtica": 1448,
      "Ġlinguagens": 1449,
      "Ġleitor": 1450,
      "Ġforte": 1451,
      "Ġcer": 1452,
      "Ġreg": 1453,
      "peri": 1454,
      "dro": 1455,
      "fica": 1456,
      "Ġquem": 1457,
      "ĠcontÃŃn": 1458,
      "Ġban": 1459,
      "Ġpropri": 1460,
      "id": 1461,
      "ados": 1462,
      "ores": 1463,
      "ÃŃngua": 1464,
      "Ġproduzir": 1465,
      "99": 1466,
      "Ġ10": 1467,
      "ĠlÃŃngua": 1468,
      "Ġlinguagem": 1469,
      "Ġefe": 1470,
      "ux": 1471,
      "indo": 1472,
      "ĠvariÃ¡veis": 1473,
      "ĠcontÃŃnua": 1474,
      "ĠconstruÃ§Ã£o": 1475,
      "ĠprogramaÃ§Ã£o": 1476,
      "ĠautomÃ¡tica": 1477,
      "dados": 1478,
      "cientes": 1479,
      "stico": 1480,
      "mes": 1481,
      "ĠLin": 1482,
      "ĠcÃ©": 1483,
      "75": 1484,
      "Ġcole": 1485,
      "droid": 1486,
      "20": 1487,
      "Ġconsu": 1488,
      "Ġtro": 1489,
      "Ã³r": 1490,
      "Ġprincipalmente": 1491,
      "ĠAndroid": 1492,
      "ĠpolÃŃtica": 1493,
      "ks": 1494,
      "71": 1495,
      "pÃ§Ã£o": 1496,
      "cic": 1497,
      "Ġferramentas": 1498,
      "ĠUma": 1499,
      "Ġlinhas": 1500,
      "43": 1501,
      "estÃ£o": 1502,
      "Ġcuidados": 1503,
      "23": 1504,
      "83": 1505,
      "Ã£": 1506,
      "Ġaparecem": 1507,
      "Ġhis": 1508,
      "Ġflu": 1509,
      "Ġexplica": 1510,
      "Ġeven": 1511,
      "toco": 1512,
      "ack": 1513,
      "63": 1514,
      "Ġcontra": 1515,
      "lav": 1516,
      "Ġpessoais": 1517,
      "Comp": 1518,
      "ĠproduÃ§Ã£o": 1519,
      "Ġescolhas": 1520,
      "ĠpontuaÃ§Ã£o": 1521,
      "Ġregis": 1522,
      "Ġexten": 1523,
      "Ġquer": 1524,
      "Ġefeito": 1525,
      "Ġjunto": 1526,
      "oraÃ§Ã£o": 1527,
      "Ġpassagem": 1528,
      "Ġvida": 1529,
      "Ġdela": 1530,
      "Ġexperi": 1531,
      "istemas": 1532,
      "Ġformar": 1533,
      "ncial": 1534,
      "Ġfoco": 1535,
      "Estu": 1536,
      "âĢĿ,": 1537,
      "Ġestudado": 1538,
      "Ġorganizado": 1539,
      "Ġcuidadosa": 1540,
      "ĠcÃ©lu": 1541,
      "ĠhistÃ³ri": 1542,
      "Ġj": 1543,
      "Ġservir": 1544,
      "ĠpercepÃ§Ã£o": 1545,
      "Estudar": 1546,
      "Ġprotoco": 1547,
      "Ġmodelo": 1548,
      "sora": 1549,
      "Ġtre": 1550,
      "Ġtrabalham": 1551,
      "Ġpartida": 1552,
      "Ġ16": 1553,
      "Ġdocumentos": 1554,
      "OS": 1555,
      "Ã¡gi": 1556,
      "Ġobservamos": 1557,
      "Ġligado": 1558,
      "Ġpistas": 1559,
      "lagem": 1560,
      "Ġtabe": 1561,
      "Ġfil": 1562,
      "Reconhecer": 1563,
      "tÃµes": 1564,
      "Ġconscientes": 1565,
      "Ġlivre": 1566,
      "ĠautomÃ¡ticas": 1567,
      "Compreender": 1568,
      "use": 1569,
      "Ġpalav": 1570,
      "Ġras": 1571,
      "Ġfinal": 1572,
      "deo": 1573,
      "Ġconjunto": 1574,
      "Ġ40": 1575,
      "hes": 1576,
      "ws": 1577,
      "85": 1578,
      "Ġsinal": 1579,
      "81": 1580,
      "Ġ36": 1581,
      "Ġbancos": 1582,
      "95": 1583,
      "ĠfÃ³r": 1584,
      "Redes": 1585,
      "21": 1586,
      "91": 1587,
      "25": 1588,
      "70": 1589,
      "Ġrespe": 1590,
      "cam": 1591,
      "ĠproteÃ§Ã£o": 1592,
      "mul": 1593,
      "Ġ44": 1594,
      "Ġprotocolos": 1595,
      "gri": 1596,
      "venÃ§Ã£o": 1597,
      "Ġeventos": 1598,
      "sores": 1599,
      "Ġbra": 1600,
      "istentes": 1601,
      "Ġrespeito": 1602,
      "cs": 1603,
      "ĠvÃŃdeo": 1604,
      "ĠpolÃŃticas": 1605,
      "PS": 1606,
      "Ġcontras": 1607,
      "poni": 1608,
      "Ġchaves": 1609,
      "Ġprocessador": 1610,
      "cer": 1611,
      "73": 1612,
      "Ġane": 1613,
      "ĠinteligÃªncia": 1614,
      "Ġrequisitos": 1615,
      "nizaÃ§Ã£o": 1616,
      "Ġcontraste": 1617,
      "sividade": 1618,
      "ĠgestÃ£o": 1619,
      "Ġdisponi": 1620,
      "Ġresponsa": 1621,
      "ĠediÃ§Ã£o": 1622,
      "ĠcÃ©lulas": 1623,
      "ĠpÃ¡gi": 1624,
      "damentos": 1625,
      "sim": 1626,
      "Ġimpres": 1627,
      "Ġconectados": 1628,
      "Ġcaix": 1629,
      "Ġnomes": 1630,
      "indows": 1631,
      "ĠWindows": 1632,
      "gridade": 1633,
      "mÃ£": 1634,
      "Ġback": 1635,
      "ĠtÃ³pi": 1636,
      "ĠatualizaÃ§Ã£o": 1637,
      "ĠHT": 1638,
      "Ġcoleta": 1639,
      "ĠexperiÃªncia": 1640,
      "ĠrecuperaÃ§Ã£o": 1641,
      "Ġtroca": 1642,
      "Ġintegridade": 1643,
      "ĠLinux": 1644,
      "ĠpÃ¡ginas": 1645,
      "ĠIP": 1646,
      "ĠcabeÃ§": 1647,
      "eza": 1648,
      "Ġconsumo": 1649,
      "Ġresponsabilidade": 1650,
      "laboraÃ§Ã£o": 1651,
      "ĠvÃŃrus": 1652,
      "Ġtabelas": 1653,
      "Ġplaca": 1654,
      "ĠAssim": 1655,
      "ĠhistÃ³rico": 1656,
      "Ġsites": 1657,
      "Ġdescar": 1658,
      "Ġcelulares": 1659,
      "gnÃ³": 1660,
      "Ġmelhoria": 1661,
      "Ġregistros": 1662,
      "Ġestil": 1663,
      "Ġsup": 1664,
      "Ġfluxos": 1665,
      "gnÃ³stico": 1666,
      "Ġsensores": 1667,
      "Ġpropriet": 1668,
      "ĠdiagnÃ³stico": 1669,
      "ĠinclusÃ£o": 1670,
      "Ġpaga": 1671,
      "Ġvirtuais": 1672,
      "Ġcabos": 1673,
      "Ġcertifica": 1674,
      "ĠtÃ³picos": 1675,
      "Ġestilos": 1676,
      "Ġsigi": 1677,
      "natura": 1678,
      "Ġtable": 1679,
      "Ġ50": 1680,
      "Ġrastre": 1681,
      "ertas": 1682,
      "Ġformatos": 1683,
      "Ġlimp": 1684,
      "ncro": 1685,
      "Ġassinatura": 1686,
      "Ġdisponibilidade": 1687,
      "ĠproprietÃ¡rio": 1688,
      "Ġtablets": 1689,
      "Sistemas": 1690,
      "Ġsincro": 1691,
      "Ġtela": 1692,
      "Ġteclado": 1693,
      "ĠfÃ³rmul": 1694,
      "ĠHTT": 1695,
      "Ġsigilo": 1696,
      "ĠfÃ³rmulas": 1697,
      "ĠcolaboraÃ§Ã£o": 1698,
      "ĠAl": 1699,
      "ĠdiretÃ³rios": 1700,
      "Ġusabilidade": 1701,
      "Ġlinks": 1702,
      "Ġexporta": 1703,
      "ĠextensÃµes": 1704,
      "on": 1705,
      "dere": 1706,
      "Ġapar": 1707,
      "Ġ14": 1708,
      "Ġassistentes": 1709,
      "mits": 1710,
      "Ġfiltros": 1711,
      "Ġbackup": 1712,
      "Ġlimpeza": 1713,
      "ĠsincronizaÃ§Ã£o": 1714,
      "ĠexportaÃ§Ã£o": 1715,
      "Ġmac": 1716,
      "ĠcÃ³pi": 1717,
      "ĠprevenÃ§Ã£o": 1718,
      "Progra": 1719,
      "rinho": 1720,
      "mÃ£e": 1721,
      "ĠaparÃªncia": 1722,
      "ĠcÃ³pias": 1723,
      "Ġcode": 1724,
      "Ġreside": 1725,
      "Ġlojas": 1726,
      "Ġcomando": 1727,
      "Ġpos": 1728,
      "ĠformataÃ§Ã£o": 1729,
      "Ġwebcam": 1730,
      "Internet": 1731,
      "Ġbranc": 1732,
      "Ġcertificados": 1733,
      "ĠHTTPS": 1734,
      "lides": 1735,
      "Ġcommits": 1736,
      "Ġnotifica": 1737,
      "Ġmouse": 1738,
      "gendas": 1739,
      "Ġlegendas": 1740,
      "Ġrepetitivas": 1741,
      "Ġleitores": 1742,
      "ĠinterferÃªncia": 1743,
      "sionamento": 1744,
      "ciclagem": 1745,
      "Ġanexos": 1746,
      "ĠcabeÃ§alh": 1747,
      "Ġdescarte": 1748,
      "Ġpagamentos": 1749,
      "Ġrastreamento": 1750,
      "Ġbackups": 1751,
      "ĠmacOS": 1752,
      "Ġresidencial": 1753,
      "13": 1754,
      "53": 1755,
      "Ġagen": 1756,
      "Ġslides": 1757,
      "tante": 1758,
      "Ġreciclagem": 1759,
      "Ġalertas": 1760,
      "Ġendere": 1761,
      "Ġresponsividade": 1762,
      "Ġversionamento": 1763,
      "ĠrequisiÃ§Ãµes": 1764,
      "ĠbotÃµes": 1765,
      "Ġmenus": 1766,
      "Ġcarrinho": 1767,
      "Ġbuscadores": 1768,
      "Ġimpressora": 1769,
      "Ġcaixas": 1770,
      "Ġcodecs": 1771,
      "Ġbranches": 1772,
      "ĠnotificaÃ§Ãµes": 1773,
      "ĠcabeÃ§alhos": 1774,
      "Ġagendamentos": 1775,
      "ĠendereÃ§os": 1776,
      "Ġ26": 1777,
      "Ġ\"": 1778,
      "Ġ34": 1779,
      "ĠB": 1780,
      "93": 1781,
      "80": 1782,
      "Ġdesi": 1783,
      "33": 1784,
      "lare": 1785,
      "sas": 1786,
      "ter": 1787,
      "Ġclare": 1788,
      "90": 1789,
      "ĠG": 1790,
      "Ġcontro": 1791,
      "86": 1792,
      "ĠÃł": 1793,
      "Ġpalavras": 1794,
      "trib": 1795,
      "74": 1796,
      "Ġcontrole": 1797,
      "26": 1798,
      "Ġcriptografia": 1799,
      "ur": 1800,
      "ĠÃ©tica": 1801,
      "Ġtransforma": 1802,
      "Ġsuporte": 1803,
      "fini": 1804,
      "Ġ13": 1805,
      "Ġampl": 1806,
      "Ġ12": 1807,
      "Ġ25": 1808,
      "Ġ17": 1809,
      "Ġ21": 1810,
      "Ġsa": 1811,
      "Ġnorma": 1812,
      "Ġ45": 1813,
      "Ġ32": 1814,
      "Ġdesign": 1815,
      "Ġ28": 1816,
      "Ġ33": 1817,
      "Ġ29": 1818,
      "Ġ41": 1819,
      "ge": 1820,
      "Ġ37": 1821,
      "Ġ48": 1822,
      "94": 1823,
      "ura": 1824,
      "Ãªn": 1825,
      "ĠlicenÃ§as": 1826,
      "Ġ11": 1827,
      "Ġad": 1828,
      "65": 1829,
      "Ġinfraestrutura": 1830,
      "Ġ18": 1831,
      "61": 1832,
      "Ġprodutividade": 1833,
      "Ġ15": 1834,
      "Ġfre": 1835,
      "ĠcomÃ©rcio": 1836,
      "Ġboa": 1837,
      "Ġinterfaces": 1838,
      "Ġ23": 1839,
      "45": 1840,
      "Ġcomandos": 1841,
      "78": 1842,
      "ĠgovernanÃ§a": 1843,
      "41": 1844,
      "ĠmultimÃŃdia": 1845,
      "Ġavali": 1846,
      "Ġacessibilidade": 1847,
      "Ġ35": 1848,
      "Ġlogs": 1849,
      "Ġsustentabilidade": 1850,
      "Ġ31": 1851,
      "Ġ22": 1852,
      "Ġ38": 1853,
      "Ġ39": 1854,
      "Ġ47": 1855,
      "Ġdefini": 1856,
      "Ġsub": 1857,
      "22": 1858,
      "60": 1859,
      "triz": 1860,
      "Ġamplia": 1861,
      "98": 1862,
      "ba": 1863,
      "no": 1864,
      "Ġori": 1865,
      "40": 1866,
      "vel": 1867,
      ").": 1868,
      "46": 1869,
      "tribui": 1870,
      "ĠAlÃ©m": 1871,
      "Ã´ni": 1872,
      "oria": 1873,
      "menta": 1874,
      "Ġtextual": 1875,
      "Ġmatriz": 1876,
      "Ġvoca": 1877,
      "ias": 1878,
      "ada": 1879,
      "27": 1880,
      "Ġescolha": 1881,
      "ÃŃstica": 1882,
      "66": 1883,
      "Ã¡ria": 1884,
      "51": 1885,
      "ula": 1886,
      "ÃŃvel": 1887,
      "ĠvariaÃ§Ã£o": 1888,
      "uas": 1889,
      "Ġoutro": 1890,
      "Ġcres": 1891,
      "Ġdeix": 1892,
      "Ġmensagem": 1893,
      "Ġrees": 1894,
      "Ġideia": 1895,
      "ali": 1896,
      "ĠR": 1897,
      "Ġti": 1898,
      "Ġprof": 1899,
      "Ġregras": 1900,
      "Ġconver": 1901,
      "Ġortografia": 1902,
      "ĠcoerÃªncia": 1903,
      "esÃ£o": 1904,
      "Ġcal": 1905,
      "Ġreescrita": 1906,
      "),": 1907,
      "Ġideias": 1908,
      "Ġparece": 1909,
      "Ġargu": 1910,
      "Ġconfus": 1911,
      "ĠcoesÃ£o": 1912,
      "arra": 1913,
      "50": 1914,
      "Ġdistribui": 1915,
      "79": 1916,
      "Ġalun": 1917,
      "ĠmÃ¡": 1918,
      "Ġcria": 1919,
      "talh": 1920,
      "Ġconstante": 1921,
      "untas": 1922,
      "Ġcorre": 1923,
      "Ġci": 1924,
      "Ġcomple": 1925,
      "Ġdetalh": 1926,
      "ĠgramÃ¡tica": 1927,
      "Ġpare": 1928,
      "Ġnarra": 1929,
      "tivo": 1930,
      "Ġvalor": 1931,
      "Ġne": 1932,
      "Ġaluno": 1933,
      "11": 1934,
      "76": 1935,
      "24": 1936,
      "96": 1937,
      "Ġlado": 1938,
      "ino": 1939,
      "Ġbi": 1940,
      "ĠfrequÃªncia": 1941,
      "Ġrecurso": 1942,
      "Ġvaria": 1943,
      "28": 1944,
      "bul": 1945,
      "Ġesta": 1946,
      "cional": 1947,
      "usa": 1948,
      "48": 1949,
      "Ġdetalhes": 1950,
      "bulÃ¡rio": 1951,
      "ĠIA": 1952,
      "ĠvocabulÃ¡rio": 1953,
      "Ġmelhores": 1954,
      "nde": 1955,
      "para": 1956,
      "Ġaco": 1957,
      "Ġqual": 1958,
      "ĠgÃªn": 1959,
      "ĠgÃªner": 1960,
      "tiva": 1961,
      "quer": 1962,
      "Ġtrei": 1963,
      "Ġconversas": 1964,
      "ÃŃci": 1965,
      "44": 1966,
      "Ġclareza": 1967,
      "55": 1968,
      "nf": 1969,
      "Ġdiretas": 1970,
      "Ã¢ncia": 1971,
      "egu": 1972,
      "Ġparecer": 1973,
      "Ġtextuais": 1974,
      "Ġcur": 1975,
      "ĠgÃªneros": 1976,
      "Ġdeixa": 1977,
      "Dados": 1978,
      "68": 1979,
      "les": 1980,
      "Ġteoria": 1981,
      "nifica": 1982,
      "Ġconfusas": 1983,
      "ja": 1984,
      "Ġsoltas": 1985,
      "ĠhÃ¡bitos": 1986,
      "ĠDes": 1987,
      "eguranÃ§a": 1988,
      "Ar": 1989,
      "tili": 1990,
      "Ġmes": 1991,
      "tÃ¡": 1992,
      "gar": 1993,
      "Ãī": 1994,
      "Ġreve": 1995,
      "Ġnormal": 1996,
      "ĠdiÃ¡ria": 1997,
      "ĠmÃ¡qui": 1998,
      "Li": 1999,
      "Ġmai": 2000,
      "64": 2001,
      "Ġmodo": 2002,
      "nar": 2003,
      "rit": 2004,
      "Qua": 2005,
      "Ã§o": 2006,
      "Ã¡ticas": 2007,
      "Ġvetor": 2008,
      "Com": 2009,
      "Ġapro": 2010,
      "Ap": 2011,
      "riptografia": 2012,
      "Ãītica": 2013,
      "rivacidade": 2014,
      "dutividade": 2015,
      "Per": 2016,
      "Lo": 2017,
      "ign": 2018,
      "ntrole": 2019,
      "Des": 2020,
      "Ġorganiza": 2021,
      "ispositivos": 2022,
      "Qualidade": 2023,
      "ĠaplicaÃ§Ã£o": 2024,
      "anutenÃ§Ã£o": 2025,
      "InteligÃªncia": 2026,
      "ProgramaÃ§Ã£o": 2027,
      "Privacidade": 2028,
      "uporte": 2029,
      "Inf": 2030,
      "rÃ¡ticas": 2031,
      "lece": 2032,
      "Ġorienta": 2033,
      "Auto": 2034,
      "APIs": 2035,
      "Criptografia": 2036,
      "SeguranÃ§a": 2037,
      "faces": 2038,
      "Ġutili": 2039,
      "LicenÃ§as": 2040,
      "Logs": 2041,
      "Acessibilidade": 2042,
      "Dispositivos": 2043,
      "Edi": 2044,
      "GovernanÃ§a": 2045,
      "MultimÃŃdia": 2046,
      "ManutenÃ§Ã£o": 2047,
      "Pla": 2048,
      "PeÃ§as": 2049,
      "PrÃ¡ticas": 2050,
      "Sustentabilidade": 2051,
      "Suporte": 2052,
      "mandos": 2053,
      "Controle": 2054,
      "Comandos": 2055,
      "Produtividade": 2056,
      "Interfaces": 2057,
      "Programas": 2058,
      "Arquivos": 2059,
      "ComÃ©rcio": 2060,
      "ApresentaÃ§Ãµes": 2061,
      "PerifÃ©ricos": 2062,
      "Design": 2063,
      "Infraestrutura": 2064,
      "AutomaÃ§Ã£o": 2065,
      "Editores": 2066,
      "Planilhas": 2067,
      "Ġescreve": 2068,
      "Ġrevelar": 2069,
      "36": 2070,
      "88": 2071,
      "que": 2072,
      "cou": 2073,
      "Ġvariados": 2074,
      "ĠTu": 2075,
      "ring": 2076,
      "ou": 2077,
      "ĠmÃ©": 2078,
      "Ġatenta": 2079,
      "Ġsua": 2080,
      "issio": 2081,
      "Ġhu": 2082,
      "ĠV": 2083,
      "Ġreda": 2084,
      "Ġduas": 2085,
      "Ġprofissio": 2086,
      "Ġ,": 2087,
      "Ġdesenvolve": 2088,
      "ĠdistribuiÃ§Ã£o": 2089,
      "Ġprepara": 2090,
      "xima": 2091,
      "Ġconfusa": 2092,
      "Ġcalma": 2093,
      "Ġnarrativos": 2094,
      "00": 2095,
      "Ġforta": 2096,
      "Ġfortalece": 2097,
      "Ġnovo": 2098,
      "ĠCo": 2099,
      "Ġler": 2100,
      "ĠJ": 2101,
      "Ġvista": 2102,
      "Ġposs": 2103,
      "Ġproba": 2104,
      "Ġespa": 2105,
      "Ġalta": 2106,
      "Ġobje": 2107,
      "ĠTuring": 2108,
      "Ġclas": 2109,
      "77": 2110,
      "56": 2111,
      "84": 2112,
      "Ġmesma": 2113,
      "Ġsig": 2114,
      "um": 2115,
      "Ġpela": 2116,
      "ĠSe": 2117,
      "16": 2118,
      "mina": 2119,
      "29": 2120,
      "iÃ§Ã£o": 2121,
      "tin": 2122,
      "Ġchama": 2123,
      "Ġvoz": 2124,
      "Ġseu": 2125,
      "tÃŃ": 2126,
      "Ġtreino": 2127,
      "Ġaltera": 2128,
      "Ġprobabilidade": 2129,
      "Ġprovas": 2130,
      "ĠNesse": 2131,
      "ÃŃcios": 2132,
      "ritmo": 2133,
      "Ġritmo": 2134,
      "mpan": 2135,
      "Ġfor": 2136,
      "Ġcurtas": 2137,
      "Ġab": 2138,
      "ĠInte": 2139,
      "Ġprofissional": 2140,
      "Ġ-": 2141,
      "Ġargumenta": 2142,
      "97": 2143,
      "cebi": 2144,
      "ch": 2145,
      "Ġdif": 2146,
      "Ġtodo": 2147,
      "31": 2148,
      "Ġespe": 2149,
      "erc": 2150,
      "Ġpelo": 2151,
      "fina": 2152,
      "Ġpassam": 2153,
      "72": 2154,
      "92": 2155,
      "Ġsustenta": 2156,
      "Ġexerc": 2157,
      "Ġsin": 2158,
      "Ġescolares": 2159,
      "Ġsala": 2160,
      "Ġestim": 2161,
      "Ġlido": 2162,
      "ĠDesse": 2163,
      "Ġjuntas": 2164,
      "cebidos": 2165,
      "ĠexercÃŃcios": 2166,
      "Ġestimula": 2167,
      "urante": 2168,
      "ertÃ³rio": 2169,
      "Ġrefina": 2170,
      "ĠrepertÃ³rio": 2171,
      "Ġdesper": 2172,
      "Ġcorrige": 2173,
      "Ġexplicativos": 2174,
      "Ġclareia": 2175,
      "ĠredaÃ§Ãµes": 2176,
      "Ġargumentativos": 2177,
      "Ġdespercebidos": 2178,
      "bo": 2179,
      "ĠprÃ³pri": 2180,
      "Ġtreina": 2181,
      "Ġtem": 2182,
      "ĠPro": 2183,
      "Ġconstr": 2184,
      "Ġsignifica": 2185,
      "Ġche": 2186,
      "Ġacompan": 2187,
      "Ġaproxima": 2188,
      "Ġra": 2189,
      "Ġau": 2190,
      "30": 2191,
      "Ġfora": 2192,
      "Ġresultados": 2193,
      "Ġtarefa": 2194,
      "ĠmÃ¡quina": 2195,
      "eces": 2196,
      "Ã³di": 2197,
      "Ġpes": 2198,
      "ĠdifÃŃ": 2199,
      "ĠobservaÃ§Ã£o": 2200,
      "Ġonde": 2201,
      "Ġmate": 2202,
      "Ġ80": 2203,
      "49": 2204,
      "Ġderi": 2205,
      "tÃ©": 2206,
      "Ġfina": 2207,
      "Ġacompanha": 2208,
      "Ġneces": 2209,
      "ceis": 2210,
      "Ġfe": 2211,
      "Ġpermi": 2212,
      "Ġnominal": 2213,
      "Ġformal": 2214,
      "Ġ60": 2215,
      "Ġcontex": 2216,
      "Ġdeter": 2217,
      "gura": 2218,
      "Ġ.": 2219,
      "Ã¢n": 2220,
      "pec": 2221,
      "oriza": 2222,
      "aram": 2223,
      "Ã³i": 2224,
      "Ġdurante": 2225,
      "Ġfala": 2226,
      "Ġqualquer": 2227,
      "69": 2228,
      "Ġcresce": 2229,
      "10": 2230,
      "stitu": 2231,
      "37": 2232,
      "58": 2233,
      "sidade": 2234,
      "Ġmesmo": 2235,
      "Ġneura": 2236,
      "val": 2237,
      "ĠconstrÃ³i": 2238,
      "32": 2239,
      "idade": 2240,
      "tip": 2241,
      "ĠestÃ¡": 2242,
      "Ġsubstitu": 2243,
      "Ã¡lo": 2244,
      "ĠDe": 2245,
      "Ġutiliza": 2246,
      "ĠespaÃ§o": 2247,
      "54": 2248,
      "io": 2249,
      "Ġreso": 2250,
      "Ġdefinida": 2251,
      "Ã³digo": 2252,
      "Ġnatura": 2253,
      "Ġfix": 2254,
      "Ġvaloriza": 2255,
      "Ġacompanhado": 2256,
      "Ġuni": 2257,
      "Ġseja": 2258,
      "Ġmelhorar": 2259,
      "edade": 2260,
      "lha": 2261,
      "Ġtipo": 2262,
      "ng": 2263,
      "Ġprecisam": 2264,
      "ĠprÃ³prio": 2265,
      "12": 2266,
      "gun": 2267,
      "Ġencon": 2268,
      "Ã³s": 2269,
      "ĠcomputaÃ§Ã£o": 2270,
      "ĠdifÃŃceis": 2271,
      "Ġhuma": 2272,
      "culas": 2273,
      "Ġbastante": 2274,
      "Ġcara": 2275,
      "Para": 2276,
      "culo": 2277,
      "tico": 2278,
      "Ã¡logo": 2279,
      "89": 2280,
      "Ġobjeto": 2281,
      "Ġderiva": 2282,
      "52": 2283,
      "aria": 2284,
      "daÃ§Ã£o": 2285,
      "Ġcontexto": 2286,
      "ral": 2287,
      "Ġexecu": 2288,
      "ĠmÃ©to": 2289,
      "57": 2290,
      "Ġcombi": 2291,
      "ĠversÃµes": 2292,
      "Ġnatural": 2293,
      "ista": 2294,
      "ciais": 2295,
      "Ãªm": 2296,
      "Ġcostumam": 2297,
      "ru": 2298,
      "ĠEx": 2299,
      "fei": 2300,
      "Ġ30": 2301,
      "ciados": 2302,
      "ĠentÃ£o": 2303,
      "17": 2304,
      "Uma": 2305,
      "bal": 2306,
      "ĠdiÃ¡logo": 2307,
      "Ãºs": 2308,
      "Ġnos": 2309,
      "ĠcÃ³digo": 2310,
      "Ġline": 2311,
      "Ġfigura": 2312,
      "cias": 2313,
      "Ġdiferen": 2314,
      "Ġ70": 2315,
      "Ġ90": 2316,
      "Ġcarac": 2317,
      "vem": 2318,
      "ÃŃda": 2319,
      "Ġconcor": 2320,
      "Ġmuito": 2321,
      "Ġfixar": 2322,
      "Ġmul": 2323,
      "ĠexplicaÃ§Ã£o": 2324,
      "Ġarti": 2325,
      "Ġrevisa": 2326,
      "ĠRe": 2327,
      "ĠvÃŃrgu": 2328,
      "ressÃ£o": 2329,
      "Ġcarta": 2330,
      "Ġalgu": 2331,
      "Ġgen": 2332,
      "Ġteste": 2333,
      "odo": 2334,
      "ĠInter": 2335,
      "iro": 2336,
      "gou": 2337,
      "Ġpartir": 2338,
      "ceita": 2339,
      "Ġinformal": 2340,
      "Ġforam": 2341,
      "bli": 2342,
      "Ã¡rias": 2343,
      "ĠEn": 2344,
      "Ġenun": 2345,
      "Ġprograma": 2346,
      "Ġcombina": 2347,
      "Ã©s": 2348,
      "Ġcrescer": 2349,
      "Ġobservados": 2350,
      "ĠavaliaÃ§Ã£o": 2351,
      "dÃ¢ncia": 2352,
      "Ġecon": 2353,
      "ÃŃveis": 2354,
      "Ġavaliados": 2355,
      "ĠfinanÃ§as": 2356,
      "ĠperÃŃ": 2357,
      "Ãºsculas": 2358,
      "Ġvali": 2359,
      "Ã©rti": 2360,
      "Ġchegou": 2361,
      "Ġdiferenciar": 2362,
      "Ġdese": 2363,
      "Ġligar": 2364,
      "ing": 2365,
      "ĠcorreÃ§Ãµes": 2366,
      "Ġresol": 2367,
      "Ġenunciados": 2368,
      "jun": 2369,
      "Ġac": 2370,
      "Ġatra": 2371,
      "ĠvÃ©rti": 2372,
      "Ġtodos": 2373,
      "Ġalgoritmo": 2374,
      "Ġenfei": 2375,
      "ĠperÃŃodo": 2376,
      "Ġenfeites": 2377,
      "rem": 2378,
      "Ġdetermina": 2379,
      "tion": 2380,
      "mentaÃ§Ã£o": 2381,
      "Ġale": 2382,
      "nica": 2383,
      "resen": 2384,
      "ĠCon": 2385,
      "xidade": 2386,
      "lmente": 2387,
      "ĠatÃ©": 2388,
      "osto": 2389,
      "Ġcomputa": 2390,
      "Ġreceita": 2391,
      "Ġmedi": 2392,
      "Ġesca": 2393,
      "Ġaprende": 2394,
      "Ġmatrizes": 2395,
      "ĠconcordÃ¢ncia": 2396,
      "ira": 2397,
      "trar": 2398,
      "min": 2399,
      "Ġvalores": 2400,
      "pro": 2401,
      "Ġpoe": 2402,
      "nais": 2403,
      "ĠrelaÃ§Ã£o": 2404,
      "duÃ§Ã£o": 2405,
      "Ġresumo": 2406,
      "mpu": 2407,
      "lui": 2408,
      "por": 2409,
      "ĠUni": 2410,
      "vÃ©s": 2411,
      "Ġhi": 2412,
      "Ġcomplexidade": 2413,
      "ĠvalidaÃ§Ã£o": 2414,
      "rvo": 2415,
      "PT": 2416,
      "Ġnu": 2417,
      "Ġcapa": 2418,
      "ĠvÃŃrgula": 2419,
      "Ġgrafo": 2420,
      "Ġdescri": 2421,
      "Ġverbal": 2422,
      "Ġeconom": 2423,
      "Ġlimi": 2424,
      "Ã´nimo": 2425,
      "Ġvetores": 2426,
      "Ġartigo": 2427,
      "Ġvetori": 2428,
      "ĠK": 2429,
      "ĠpossÃŃvel": 2430,
      "Ġmi": 2431,
      "Ġseus": 2432,
      "ĠsemÃ¢n": 2433,
      "Ġconsiderado": 2434,
      "Ġsuficiente": 2435,
      "gos": 2436,
      "ĠsÃŃ": 2437,
      "difica": 2438,
      "lizaÃ§Ã£o": 2439,
      "Ġcr": 2440,
      "Ãªncias": 2441,
      "ĠInternet": 2442,
      "caÃ§Ã£o": 2443,
      "ĠtÃªm": 2444,
      "Ġpesquis": 2445,
      "ĠrÃ¡": 2446,
      "era": 2447,
      "ĠregÃªncia": 2448,
      "ĠestÃ£o": 2449,
      "tÃŃcia": 2450,
      "Ġera": 2451,
      "quente": 2452,
      "ĠnotÃŃcia": 2453,
      "ĠnÃŃvel": 2454,
      "cado": 2455,
      "Ġpermite": 2456,
      "Ġpequeno": 2457,
      "clu": 2458,
      "dem": 2459,
      "Ġficou": 2460,
      "Ġassim": 2461,
      "Ġadjunto": 2462,
      "Ġalea": 2463,
      "Ġconjun": 2464,
      "tidade": 2465,
      "Ġigua": 2466,
      "guntas": 2467,
      "uanto": 2468,
      "Ġmenos": 2469,
      "Ġusada": 2470,
      "Ġusando": 2471,
      "ĠÃ¡re": 2472,
      "Ġhumana": 2473,
      "Ġeconomi": 2474,
      "ĠrÃ¡pi": 2475,
      "th": 2476,
      "guidade": 2477,
      "Ġla": 2478,
      "Ġente": 2479,
      "Ġag": 2480,
      "Ġperguntas": 2481,
      "Ġlingu": 2482,
      "Ã¡lculo": 2483,
      "Ġreali": 2484,
      "ĠAr": 2485,
      "ĠnÃºmeros": 2486,
      "Ġmu": 2487,
      "nomi": 2488,
      "Ġusado": 2489,
      "\",": 2490,
      "\".": 2491,
      "Ġrepresenta": 2492,
      "Ġmultip": 2493,
      "Ġeconomizar": 2494,
      "duto": 2495,
      "el": 2496,
      "ĠatravÃ©s": 2497,
      "42": 2498,
      "59": 2499,
      "87": 2500,
      "sta": 2501,
      "Ġacen": 2502,
      "Ġavaliado": 2503,
      "82": 2504,
      "ĠdecisÃ£o": 2505,
      "Ġimple": 2506,
      "Ġpu": 2507,
      "Ġrepresen": 2508,
      "Ġ200": 2509,
      "Ã´nica": 2510,
      "Ġares": 2511,
      "Ġsegui": 2512,
      "Ġvezes": 2513,
      "ÃŃsticas": 2514,
      "Ġespecial": 2515,
      "47": 2516,
      "Ġambiguidade": 2517,
      "Ġinclui": 2518,
      "Ġtodas": 2519,
      "ando": 2520,
      "uns": 2521,
      "Ġcus": 2522,
      "ĠÃ¡rvo": 2523,
      "ĠCompu": 2524,
      "Ġlinear": 2525,
      "Ġprimeiro": 2526,
      "tÃ¢ncia": 2527,
      "tima": 2528,
      "ticos": 2529,
      "raÃ§Ã£o": 2530,
      "Ġespec": 2531,
      "Ġproduto": 2532,
      "ĠinferÃªncia": 2533,
      "Ġgrande": 2534,
      "Ġderivada": 2535,
      "Ġadi": 2536,
      "Ġsuas": 2537,
      "tanto": 2538,
      "Ġnas": 2539,
      "ĠreferÃªncia": 2540,
      "Ġchamada": 2541,
      "Ġx": 2542,
      "Ġestado": 2543,
      "Ġdado": 2544,
      "bri": 2545,
      "Ġcaracter": 2546,
      "Ġexiste": 2547,
      "ĠTra": 2548,
      "Ġlog": 2549,
      "ĠDi": 2550,
      "Ġfrequente": 2551,
      "Ġclasses": 2552,
      "ĠmatemÃ¡tica": 2553,
      "ndes": 2554,
      "tada": 2555,
      "ĠOu": 2556,
      "Ġva": 2557,
      "quite": 2558,
      "Ġinten": 2559,
      "Ġverdade": 2560,
      "ĠsaÃŃda": 2561,
      "Ġnecess": 2562,
      "oo": 2563,
      "mpen": 2564,
      "Ġgrandes": 2565,
      "quanto": 2566,
      "Ġdiver": 2567,
      "ĠEla": 2568,
      "Ġquais": 2569,
      "Ġadj": 2570,
      "nta": 2571,
      "posiÃ§Ã£o": 2572,
      "Ġcontin": 2573,
      "Ġtal": 2574,
      "Ġmaior": 2575,
      "mica": 2576,
      "Ġformalidade": 2577,
      "orme": 2578,
      "cionar": 2579,
      "ĠsubstituiÃ§Ã£o": 2580,
      "Ġfato": 2581,
      "hat": 2582,
      "Ġlivro": 2583,
      "Ġacesso": 2584,
      "ita": 2585,
      "Ġocor": 2586,
      "Ġnum": 2587,
      "sem": 2588,
      "Ġcu": 2589,
      "Ġgru": 2590,
      "cular": 2591,
      "quitetura": 2592,
      "Ġeste": 2593,
      "Ġcampo": 2594,
      "Ġvol": 2595,
      "ÃŃdo": 2596,
      "conheci": 2597,
      "ard": 2598,
      "Ġdeno": 2599,
      "Ġasso": 2600,
      "Ġiden": 2601,
      "Ġalguns": 2602,
      "Ġgradi": 2603,
      "Ġsignificado": 2604,
      "Ġneurais": 2605,
      "ares": 2606,
      "adas": 2607,
      "ore": 2608,
      "sen": 2609,
      "mada": 2610,
      "Ãºn": 2611,
      "Ġha": 2612,
      "drÃ£o": 2613,
      "Ġneural": 2614,
      "ĠmÃ©todos": 2615,
      "ĠcombinaÃ§Ã£o": 2616,
      "eu": 2617,
      "Ġconclu": 2618,
      "ĠvÃ¡rias": 2619,
      "Ġpassos": 2620,
      "ĠanÃºn": 2621,
      "ĠsemÃ¢ntica": 2622,
      "ĠrÃ¡pido": 2623,
      "mÃ¡": 2624,
      "Ġmin": 2625,
      "tribu": 2626,
      "ĠvÃ©rtices": 2627,
      "ĠanÃºncio": 2628,
      "blica": 2629,
      "elha": 2630,
      "ode": 2631,
      "zer": 2632,
      "tir": 2633,
      "Ġcompreen": 2634,
      "cul": 2635,
      "PU": 2636,
      "fen": 2637,
      "nia": 2638,
      "gaÃ§Ã£o": 2639,
      "ĠrelaÃ§Ãµes": 2640,
      "Ġsuje": 2641,
      "it": 2642,
      "pas": 2643,
      "cada": 2644,
      "Ġsemelha": 2645,
      "hon": 2646,
      "Ġaconte": 2647,
      "Ġencontrar": 2648,
      "ĠespecÃŃ": 2649,
      "orda": 2650,
      "ria": 2651,
      "Ġcomporta": 2652,
      "Ġimportantes": 2653,
      "ĠMa": 2654,
      "ĠvariÃ¡vel": 2655,
      "ixo": 2656,
      "Ã´nimos": 2657,
      "Ġcorreta": 2658,
      "Ġdesempen": 2659,
      "Ġvetorial": 2660,
      "Ã©tri": 2661,
      "locidade": 2662,
      "padrÃ£o": 2663,
      "Ġpequenos": 2664,
      "ĠSo": 2665,
      "Ġchamado": 2666,
      "ĠdescriÃ§Ã£o": 2667,
      "GPT": 2668,
      "Ġintro": 2669,
      "Ġenquanto": 2670,
      "inda": 2671,
      "Ġcomputacional": 2672,
      "Ġis": 2673,
      "Ġof": 2674,
      "Ġpredi": 2675,
      "Ġporque": 2676,
      "ĠdefiniÃ§Ã£o": 2677,
      "Ġfigurado": 2678,
      "bus": 2679,
      "lhe": 2680,
      "Ġmar": 2681,
      "ĠChat": 2682,
      "Ġvelocidade": 2683,
      "ĠjÃ¡": 2684,
      "Ġtreinamento": 2685,
      "Ġcusto": 2686,
      "Ġnes": 2687,
      "Ġmane": 2688,
      "Ġcompon": 2689,
      "ĠIn": 2690,
      "Ġmultiplica": 2691,
      "ote": 2692,
      "vÃ©r": 2693,
      "Ġconsi": 2694,
      "Ġcen": 2695,
      "formaÃ§Ã£o": 2696,
      "ĠLe": 2697,
      "Ġprocessamento": 2698,
      "Ġfez": 2699,
      "Ġunidade": 2700,
      "stan": 2701,
      "Ġgeralmente": 2702,
      "Ġgradiente": 2703,
      "ĠcompreensÃ£o": 2704,
      "ĠChatGPT": 2705,
      "bro": 2706,
      "dena": 2707,
      "Ġant": 2708,
      "ĠÃłs": 2709,
      "ĠmaiÃºsculas": 2710,
      "Ġhip": 2711,
      "ser": 2712,
      "Ġeli": 2713,
      "Ġcasos": 2714,
      "Ġparale": 2715,
      "Ġperso": 2716,
      "zada": 2717,
      "ĠpadrÃ£o": 2718,
      "Ġpassou": 2719,
      "Ġempres": 2720,
      "Ġigual": 2721,
      "Ġtermo": 2722,
      "Ġconectivos": 2723,
      "ndida": 2724,
      "ĠlinguÃŃstica": 2725,
      "ĠÃ¡rvore": 2726,
      "ck": 2727,
      "ntem": 2728,
      "Ġescri": 2729,
      "Ġindire": 2730,
      "ĠinstruÃ§Ã£o": 2731,
      "Ġtipos": 2732,
      "Ġhuman": 2733,
      "Ġcapacidade": 2734,
      "Ġsujeito": 2735,
      "jam": 2736,
      "thon": 2737,
      "ython": 2738,
      "Ġdevem": 2739,
      "ram": 2740,
      "Ġfini": 2741,
      "ĠcrÃ´nica": 2742,
      "ismo": 2743,
      "Ġsegun": 2744,
      "ĠcÃ¡lculo": 2745,
      "Ġlite": 2746,
      "Ġcedo": 2747,
      "Ġobjetos": 2748,
      "Ġdesempenho": 2749,
      "ĠpÃº": 2750,
      "mar": 2751,
      "rase": 2752,
      "Ġba": 2753,
      "ĠdÃ©": 2754,
      "ducaÃ§Ã£o": 2755,
      "ĠdistribuiÃ§Ãµes": 2756,
      "ĠmÃ¡quinas": 2757,
      "hi": 2758,
      "Ġacor": 2759,
      "Ġainda": 2760,
      "titu": 2761,
      "ĠmÃº": 2762,
      "Ġcomum": 2763,
      "Ġdesco": 2764,
      "Ġinstru": 2765,
      "Ġentradas": 2766,
      "Ġpropriedade": 2767,
      "tivamente": 2768,
      "vÃ©rbi": 2769,
      "ken": 2770,
      "pto": 2771,
      "tun": 2772,
      "Ġopi": 2773,
      "ĠhÃŃ": 2774,
      "Ġopini": 2775,
      "tÃ³ria": 2776,
      "Ġdisser": 2777,
      "Ġexpli": 2778,
      "Ġ201": 2779,
      "Ġclasse": 2780,
      "Ġaborda": 2781,
      "Ġespeci": 2782,
      "Ġescalar": 2783,
      "Ġcontinua": 2784,
      "amente": 2785,
      "iu": 2786,
      "Ġcondi": 2787,
      "ĠOpen": 2788,
      "Ġmanual": 2789,
      "Ġjo": 2790,
      "Ġestava": 2791,
      "ĠmÃ©todo": 2792,
      "Ġmudar": 2793,
      "nce": 2794,
      "Ġeles": 2795,
      "tio": 2796,
      "sifica": 2797,
      "Ġmeio": 2798,
      "Ġapareceu": 2799,
      "Ġpartes": 2800,
      "Ġcomplex": 2801,
      "Ġconfiar": 2802,
      "Ġassocia": 2803,
      "gle": 2804,
      "ini": 2805,
      "ĠX": 2806,
      "Ġontem": 2807,
      "Ġdimen": 2808,
      "ĠEsta": 2809,
      "ÃŃpi": 2810,
      "Ġentanto": 2811,
      "Ġge": 2812,
      "ĠÃ´": 2813,
      "Ġmenino": 2814,
      "Ġpoeta": 2815,
      "Ġarestas": 2816,
      "Ġacontece": 2817,
      "Ġacordo": 2818,
      "tÃŃstica": 2819,
      "Ġ0": 2820,
      "tal": 2821,
      "Ġescolheu": 2822,
      "Ġverbo": 2823,
      "vista": 2824,
      "Ġexpres": 2825,
      "Ġplanejamento": 2826,
      "Ġsubstan": 2827,
      "Ġforne": 2828,
      "Ġmedida": 2829,
      "Ġpesquisa": 2830,
      "Ġentendida": 2831,
      "Ġempresas": 2832,
      "Eles": 2833,
      "Maria": 2834,
      "empl": 2835,
      "Ġet": 2836,
      "Ġoral": 2837,
      "erali": 2838,
      "enha": 2839,
      "Ġconse": 2840,
      "nibus": 2841,
      "Ġcomposto": 2842,
      "Ġautoval": 2843,
      "Ġleu": 2844,
      "ĠCa": 2845,
      "ĠMar": 2846,
      "Ġrevisaram": 2847,
      "Ġindicou": 2848,
      "Ġnecessidade": 2849,
      "ĠÃ´nibus": 2850,
      "bra": 2851,
      "hu": 2852,
      "Ġrece": 2853,
      "ĠPython": 2854,
      "nome": 2855,
      "ĠDa": 2856,
      "Ġconforme": 2857,
      "nificaÃ§Ã£o": 2858,
      "Ġadjeti": 2859,
      "ĠopiniÃ£o": 2860,
      "fora": 2861,
      "Ġessa": 2862,
      "Ġtese": 2863,
      "Ġcamada": 2864,
      "Ġnome": 2865,
      "Ġquantidade": 2866,
      "Ġexpl": 2867,
      "ĠGoo": 2868,
      "ĠadvÃ©rbi": 2869,
      "bliote": 2870,
      "ĠacentuaÃ§Ã£o": 2871,
      "Ġconsider": 2872,
      "fa": 2873,
      "Ġequa": 2874,
      "mpos": 2875,
      "ortanto": 2876,
      "Ġlista": 2877,
      "Ġresposta": 2878,
      "Ġcif": 2879,
      "ĠsinÃ´nimo": 2880,
      "Ġencontra": 2881,
      "ĠUniver": 2882,
      "orema": 2883,
      "Ġpredicado": 2884,
      "tuning": 2885,
      "ĠhÃŃfen": 2886,
      "mpre": 2887,
      "Ġcrase": 2888,
      "Ġdireto": 2889,
      "ĠComo": 2890,
      "Ġcomplemento": 2891,
      "fos": 2892,
      "Ġsim": 2893,
      "Ġtr": 2894,
      "siva": 2895,
      "Ġcontrolada": 2896,
      "Ġpossui": 2897,
      "Ġnumer": 2898,
      "Ġexa": 2899,
      "ĠvÃ¡rios": 2900,
      "Ġarquitetura": 2901,
      "ĠrepetiÃ§Ã£o": 2902,
      "Ġcripto": 2903,
      "Ġpalavra": 2904,
      "Ġorigi": 2905,
      "Ġgenerali": 2906,
      "ĠGoogle": 2907,
      "dra": 2908,
      "Ã©tica": 2909,
      "Ġapresenta": 2910,
      "Ġtraves": 2911,
      "peia": 2912,
      "Ġcorres": 2913,
      "ĠTrans": 2914,
      "Um": 2915,
      "ic": 2916,
      "pse": 2917,
      "pia": 2918,
      "ĠÃ³": 2919,
      "Ġela": 2920,
      "cessa": 2921,
      "Ġentrevista": 2922,
      "ĠciÃªncia": 2923,
      "conhecimento": 2924,
      "Ġliteral": 2925,
      "ĠdissertaÃ§Ã£o": 2926,
      "Ġaci": 2927,
      "Ġmun": 2928,
      "lin": 2929,
      "ĠmetÃ¡": 2930,
      "Ġtran": 2931,
      "genh": 2932,
      "Ġgera": 2933,
      "Ġusados": 2934,
      "ĠExempl": 2935,
      "ĠsÃŃmb": 2936,
      "ed": 2937,
      "ila": 2938,
      "oma": 2939,
      "Ġestados": 2940,
      "Ġfal": 2941,
      "Ġordem": 2942,
      "cula": 2943,
      "ĠgeraÃ§Ã£o": 2944,
      "ĠminÃºsculas": 2945,
      "Ġmaneira": 2946,
      "ĠmetÃ¡fora": 2947,
      "genharia": 2948,
      "itos": 2949,
      "Ġanos": 2950,
      "vido": 2951,
      "Ġtornar": 2952,
      "Ġtoken": 2953,
      "Ġsur": 2954,
      "Ġalgumas": 2955,
      "ĠpersonificaÃ§Ã£o": 2956,
      "Ġcorrespon": 2957,
      "ĠQ": 2958,
      "Ġ[": 2959,
      "Ġconto": 2960,
      "Ġsempre": 2961,
      "Ġtaman": 2962,
      "Ġaspas": 2963,
      "Ġresenha": 2964,
      "Ã¢me": 2965,
      "Ġadver": 2966,
      "Ġbibliote": 2967,
      "Ġindireto": 2968,
      "ĠeducaÃ§Ã£o": 2969,
      "ist": 2970,
      "Ġsido": 2971,
      "Ġformais": 2972,
      "ronia": 2973,
      "Ġtais": 2974,
      "ano": 2975,
      "Ġvocativo": 2976,
      "Ġbilhe": 2977,
      "bole": 2978,
      "Ġpoema": 2979,
      "ĠconjunÃ§Ã£o": 2980,
      "Ġelipse": 2981,
      "ĠdÃ©cada": 2982,
      "Ġespecifica": 2983,
      "Ġadjetivo": 2984,
      "ĠtravessÃ£o": 2985,
      "Ġbilhete": 2986,
      "Ġdeco": 2987,
      "ĠparÃ¢me": 2988,
      "Ġpronome": 2989,
      "ĠpreposiÃ§Ã£o": 2990,
      "volu": 2991,
      "Ġinformalidade": 2992,
      "Ã©rbole": 2993,
      "ĠnormalizaÃ§Ã£o": 2994,
      "Ġadnomi": 2995,
      "ĠnarraÃ§Ã£o": 2996,
      "ĠmatemÃ¡": 2997,
      "Ġocorre": 2998,
      "ĠespecÃŃfi": 2999,
      "ĠinstruÃ§Ãµes": 3000,
      "ĠadvÃ©rbio": 3001,
      "Ġadnominal": 3002,
      "otaÃ§Ã£o": 3003,
      "Ġy": 3004,
      "Ġajus": 3005,
      "zados": 3006,
      "ĠÃ¡rea": 3007,
      "Ġacima": 3008,
      "Ġafe": 3009,
      "Ġcol": 3010,
      "ĠoraÃ§Ã£o": 3011,
      "Ġpois": 3012,
      "ĠEles": 3013,
      "Ġesti": 3014,
      "icamente": 3015,
      "Ġevitar": 3016,
      "Ġrestri": 3017,
      "Ġvariedade": 3018,
      "Ġcaracte": 3019,
      "ĠconclusÃ£o": 3020,
      "stra": 3021,
      "Ġcoti": 3022,
      "dir": 3023,
      "mentar": 3024,
      "Ġdistin": 3025,
      "Ġfine": 3026,
      "Ġelementos": 3027,
      "ĠargumentaÃ§Ã£o": 3028,
      "Ġclassifica": 3029,
      "Ġsingu": 3030,
      "Ġ:": 3031,
      "Ġpi": 3032,
      "issem": 3033,
      "damente": 3034,
      "ĠmÃŃni": 3035,
      "Ġsinais": 3036,
      "Ġesses": 3037,
      "Ġsejam": 3038,
      "ĠnÃ³s": 3039,
      "ĠAp": 3040,
      "cialmente": 3041,
      "ĠLa": 3042,
      "ĠcaracterÃŃsticas": 3043,
      "Ġcomportamento": 3044,
      "form": 3045,
      "ltip": 3046,
      "xo": 3047,
      "Ġeta": 3048,
      "tidos": 3049,
      "Ġdiz": 3050,
      "mons": 3051,
      "Ġdiferente": 3052,
      "Ġconstru": 3053,
      "Ġlinha": 3054,
      "ĠlÃ³gi": 3055,
      "jeiÃ§Ã£o": 3056,
      "ĠoperaÃ§Ãµes": 3057,
      "ĠLo": 3058,
      "Ġautor": 3059,
      "ĠintenÃ§Ã£o": 3060,
      "ĠmultiplicaÃ§Ã£o": 3061,
      "ER": 3062,
      "len": 3063,
      "var": 3064,
      "Â«": 3065,
      "Â»": 3066,
      "Ġlu": 3067,
      "ĠÂ«": 3068,
      "eri": 3069,
      "Ġgara": 3070,
      "urÃ´ni": 3071,
      "Ġfrequentemente": 3072,
      "Ġacer": 3073,
      "Ġregi": 3074,
      "Ġironia": 3075,
      "Ġobjetividade": 3076,
      "Ġquadra": 3077,
      "ĠconfusÃ£o": 3078,
      "Ġmaioria": 3079,
      "Ġlineares": 3080,
      "ĠmÃºltip": 3081,
      "ĠtrÃªs": 3082,
      "Ġtamanho": 3083,
      "issemia": 3084,
      "AI": 3085,
      "hn": 3086,
      "pu": 3087,
      "ĠNe": 3088,
      "Ġformas": 3089,
      "Ġconhecido": 3090,
      "pontos": 3091,
      "ĠtÃ©cnicas": 3092,
      "Ġpolissemia": 3093,
      "ĠneurÃ´ni": 3094,
      "ĠJa": 3095,
      "ĠJo": 3096,
      "ĠdenotaÃ§Ã£o": 3097,
      "Ġcentra": 3098,
      "ĠhipÃ©rbole": 3099,
      "Ġsubstantivo": 3100,
      "Ġfornece": 3101,
      "Ġconsiderar": 3102,
      "bora": 3103,
      "cios": 3104,
      "ĠconotaÃ§Ã£o": 3105,
      "Ġsepar": 3106,
      "Ġinver": 3107,
      "gias": 3108,
      "Ġteorema": 3109,
      "Ġaposto": 3110,
      "bial": 3111,
      "cur": 3112,
      "Ġrelato": 3113,
      "Ġusam": 3114,
      "Ġconsiste": 3115,
      "gonal": 3116,
      "ulaÃ§Ã£o": 3117,
      "ĠantÃ´nimo": 3118,
      "Ġnumeral": 3119,
      "Ġadverbial": 3120,
      "tam": 3121,
      "topeia": 3122,
      "Ġessas": 3123,
      "Ġessen": 3124,
      "Ġtenta": 3125,
      "ĠPa": 3126,
      "Ãºde": 3127,
      "Ġdesta": 3128,
      "ĠinterjeiÃ§Ã£o": 3129,
      "Ġdiscre": 3130,
      "Ġonoma": 3131,
      "200": 3132,
      "Ġresolver": 3133,
      "Ġcuj": 3134,
      "Ġonomatopeia": 3135,
      "tem": 3136,
      "ismos": 3137,
      "Ġmal": 3138,
      "Ġoutra": 3139,
      "ĠLi": 3140,
      "Ġparticular": 3141,
      "Ġposi": 3142,
      "ĠsaÃºde": 3143,
      "Ġcir": 3144,
      "Ġcien": 3145,
      "ĠExiste": 3146,
      "ĠvÃ©rtice": 3147,
      "ĠÃ¡reas": 3148,
      "Ġoriginal": 3149,
      "har": 3150,
      "vaÃ§Ã£o": 3151,
      "Ġaces": 3152,
      "ĠsÃ©": 3153,
      "Ġcodifica": 3154,
      "ciÃªncia": 3155,
      "fir": 3156,
      "mou": 3157,
      "Ġlon": 3158,
      "Ġalgo": 3159,
      "ĠespaÃ§os": 3160,
      "Ġincluindo": 3161,
      "Ġcomponentes": 3162,
      "Ġhumano": 3163,
      "..": 3164,
      "ĠsÃ©ri": 3165,
      "ran": 3166,
      "ÃŃcio": 3167,
      "Ġfunda": 3168,
      "Ġinteres": 3169,
      "Ġloca": 3170,
      "Ġgrafos": 3171,
      "Ġestruturas": 3172,
      "Ġpossu": 3173,
      "nou": 3174,
      "ĠProgra": 3175,
      "Ġetc": 3176,
      "NN": 3177,
      "grÃ¡fi": 3178,
      "Ġdele": 3179,
      "Ġconta": 3180,
      "Ġcomu": 3181,
      "Ġdivi": 3182,
      "Ġtrata": 3183,
      "ĠPer": 3184,
      "ĠTa": 3185,
      "Ġfuncional": 3186,
      "vesti": 3187,
      "ĠestatÃŃstica": 3188,
      "Ġhumanos": 3189,
      "Ġpublica": 3190,
      "ĠlogÃŃstica": 3191,
      "AN": 3192,
      "Ġaca": 3193,
      "olÃ³gi": 3194,
      "Ġentro": 3195,
      "ĠserÃ¡": 3196,
      "Ġinfluencia": 3197,
      "visÃ£o": 3198,
      "ĠAnÃ¡lise": 3199,
      "ĠexecuÃ§Ã£o": 3200,
      "Ġverdadeiro": 3201,
      "Ġisto": 3202,
      "Ġpropriedades": 3203,
      "Ġcolun": 3204,
      "iros": 3205,
      "Ġcic": 3206,
      "Ġaber": 3207,
      "Ġincor": 3208,
      "Ġsomente": 3209,
      "Ġevitam": 3210,
      "Ġdescre": 3211,
      "ĠÃºnica": 3212,
      "ĠTe": 3213,
      "ĠTo": 3214,
      "ĠexpressÃ£o": 3215,
      "Ġprofun": 3216,
      "Ġmundo": 3217,
      "Ġcorresponde": 3218,
      "No": 3219,
      "nÃ¢": 3220,
      "ub": 3221,
      "Ġafir": 3222,
      "tou": 3223,
      "Ġinfini": 3224,
      "minar": 3225,
      "Ġprincipais": 3226,
      "ĠBa": 3227,
      "ĠpossÃŃveis": 3228,
      "Ġseguinte": 3229,
      "199": 3230,
      "AM": 3231,
      "ad": 3232,
      "cÃŃpi": 3233,
      "iras": 3234,
      "ko": 3235,
      "can": 3236,
      "Ġinde": 3237,
      "Ġtemp": 3238,
      "Ġcompila": 3239,
      "Ġtoda": 3240,
      "ĠprincÃŃpi": 3241,
      "ĠIsto": 3242,
      "Ġcifra": 3243,
      "ĠparÃ¢metros": 3244,
      "zes": 3245,
      "Ġelas": 3246,
      "ĠapÃ³s": 3247,
      "Ġtri": 3248,
      "lan": 3249,
      "Ġpelos": 3250,
      "Ġdispon": 3251,
      "ĠtÃ©cnica": 3252,
      "ĠrepresentaÃ§Ã£o": 3253,
      "Ġgrupo": 3254,
      "hos": 3255,
      "rup": 3256,
      "Ġremo": 3257,
      "Ġinvesti": 3258,
      "Ġtemos": 3259,
      "Ġprop": 3260,
      "Ġproce": 3261,
      "culos": 3262,
      "Ġsuper": 3263,
      "Ġpontos": 3264,
      "Ġpossa": 3265,
      "Ġdesej": 3266,
      "former": 3267,
      "Ġetapa": 3268,
      "Ġcirc": 3269,
      "tis": 3270,
      "tando": 3271,
      "ase": 3272,
      "Ġcamin": 3273,
      "ficar": 3274,
      "iam": 3275,
      "Ġsoma": 3276,
      "ĠCi": 3277,
      "ĠMui": 3278,
      "Ġequival": 3279,
      "Ġplataformas": 3280,
      "Ġdeixar": 3281,
      "Ġcomplexos": 3282,
      "Ġdiversas": 3283,
      "ĠsÃ©culo": 3284,
      "Ġentropia": 3285,
      "ido": 3286,
      "ty": 3287,
      "tÃ©ri": 3288,
      "Ġ/": 3289,
      "mple": 3290,
      "Ġparcial": 3291,
      "Ġfuncionar": 3292,
      "ĠregressÃ£o": 3293,
      "Ġbanco": 3294,
      "baixo": 3295,
      "ting": 3296,
      "Ġpesos": 3297,
      "Ġderivadas": 3298,
      "propa": 3299,
      "ĠaleatÃ³ria": 3300,
      "Ġgrupos": 3301,
      "Ġautovalores": 3302,
      "gma": 3303,
      "ida": 3304,
      "Ġestar": 3305,
      "unho": 3306,
      "Ġfonte": 3307,
      "Ġadequado": 3308,
      "Ġtom": 3309,
      "ĠThe": 3310,
      "ĠIns": 3311,
      "Ġvia": 3312,
      "Ġsuperi": 3313,
      "Ġestabe": 3314,
      "Ġsubstitui": 3315,
      "Ġresolve": 3316,
      "ĠComputaÃ§Ã£o": 3317,
      "ĠUniversidade": 3318,
      "ĠExemplos": 3319,
      "ĠExistem": 3320,
      "cesso": 3321,
      "eraÃ§Ã£o": 3322,
      "Ġrefere": 3323,
      "Ġmani": 3324,
      "Ġcausa": 3325,
      "Ġcli": 3326,
      "Ġcompos": 3327,
      "Ġnovos": 3328,
      "cion": 3329,
      "traÃ§Ã£o": 3330,
      "ĠMic": 3331,
      "Ġanti": 3332,
      "mental": 3333,
      "Ġalgum": 3334,
      "Ġidentifica": 3335,
      "Ġabordagem": 3336,
      "ĠdimensÃ£o": 3337,
      "for": 3338,
      "teg": 3339,
      "Ġocul": 3340,
      "Ġretor": 3341,
      "Ġesper": 3342,
      "Ġsele": 3343,
      "Ġtenha": 3344,
      "Ġand": 3345,
      "ĠmÃ³du": 3346,
      "Ġ100": 3347,
      "ĠnecessÃ¡rio": 3348,
      "ĠpÃºbli": 3349,
      "cle": 3350,
      "com": 3351,
      "Ġdeci": 3352,
      "Ġretro": 3353,
      "Ġreconhecimento": 3354,
      "lia": 3355,
      "ĠdinÃ¢": 3356,
      "lho": 3357,
      "Ġcl": 3358,
      "ĠPri": 3359,
      "Ġques": 3360,
      "ĠCPU": 3361,
      "ĠMode": 3362,
      "ĠTes": 3363,
      "Ġabstra": 3364,
      "Ġchega": 3365,
      "ĠimplementaÃ§Ã£o": 3366,
      "Ġsegundo": 3367,
      "ERT": 3368,
      "Ġcircui": 3369,
      "rna": 3370,
      "ys": 3371,
      "Ġzer": 3372,
      "Ġcos": 3373,
      "Ġpoderia": 3374,
      "cel": 3375,
      "Ġbin": 3376,
      "Ġajudam": 3377,
      "Ġdada": 3378,
      "ĠdireÃ§Ã£o": 3379,
      "ĠIS": 3380,
      "Ġelemento": 3381,
      "orizaÃ§Ã£o": 3382,
      "ĠDis": 3383,
      "Ġpermiti": 3384,
      "ĠintroduÃ§Ã£o": 3385,
      "ĠOpenAI": 3386,
      "):": 3387,
      "zul": 3388,
      "Ġk": 3389,
      "ĠaÃ§Ã£o": 3390,
      "matica": 3391,
      "Ġalto": 3392,
      "ĠtraduÃ§Ã£o": 3393,
      "ĠCada": 3394,
      "Ġcomplica": 3395,
      "ĠÃºl": 3396,
      "zadas": 3397,
      "ebra": 3398,
      "Ġcorpo": 3399,
      "ĠcriaÃ§Ã£o": 3400,
      "Ġchave": 3401,
      "Ġchamou": 3402,
      "Ġcalcula": 3403,
      "ĠredaÃ§Ã£o": 3404,
      "Ġprobabilidades": 3405,
      "Ã©trica": 3406,
      "Ġintroduz": 3407,
      "Ġdescobri": 3408,
      "Ġconsegu": 3409,
      ");": 3410,
      "NA": 3411,
      "lli": 3412,
      "ĠY": 3413,
      "Ġportanto": 3414,
      "Ġdefi": 3415,
      "ton": 3416,
      "lig": 3417,
      "lhÃµes": 3418,
      "Ġnem": 3419,
      "Ġcateg": 3420,
      "sivas": 3421,
      "logia": 3422,
      "Ġexige": 3423,
      "ins": 3424,
      "Ġindica": 3425,
      "Ġconsul": 3426,
      "Ġorigem": 3427,
      "Ġprofes": 3428,
      "ĠEntre": 3429,
      "ĠlanÃ§a": 3430,
      "Ġafetar": 3431,
      "195": 3432,
      "67": 3433,
      "799": 3434,
      "nt": 3435,
      "Ġpra": 3436,
      "Ġamos": 3437,
      "Ġabaixo": 3438,
      "Ġden": 3439,
      "Ġregu": 3440,
      "Ġrequer": 3441,
      "Ġpodemos": 3442,
      "ĠinÃŃcio": 3443,
      "Ġprova": 3444,
      "Ġprepar": 3445,
      "tador": 3446,
      "via": 3447,
      "Ã´mi": 3448,
      "Ġjar": 3449,
      "ĠRo": 3450,
      "Ġracio": 3451,
      "Ġvetoriais": 3452,
      "Ġvale": 3453,
      "cioso": 3454,
      "ĠsÃ©rie": 3455,
      "Ġpossuem": 3456,
      "cro": 3457,
      "izaÃ§Ã£o": 3458,
      "sÃŃvel": 3459,
      "Ġaque": 3460,
      "Ġazul": 3461,
      "ĠnÃ³": 3462,
      "Ġdata": 3463,
      "ÃŃstico": 3464,
      "Ġhard": 3465,
      "Ġambiente": 3466,
      "Ġdireita": 3467,
      "ĠFun": 3468,
      "ĠSi": 3469,
      "diana": 3470,
      "Ġtroux": 3471,
      "ĠGra": 3472,
      "Ġnormalmente": 3473,
      "guns": 3474,
      "Ġsemelhantes": 3475,
      "Ġseparar": 3476,
      "39": 3477,
      "62": 3478,
      "EE": 3479,
      "bos": 3480,
      "mais": 3481,
      "taÃ§Ãµes": 3482,
      "tadas": 3483,
      "dim": 3484,
      "Ġembora": 3485,
      "Ġpropor": 3486,
      "gumas": 3487,
      "Ġleva": 3488,
      "Ġsendo": 3489,
      "pel": 3490,
      "sticos": 3491,
      "ĠmemorizaÃ§Ã£o": 3492,
      "Ġgenera": 3493,
      "Ġexistem": 3494,
      "ĠSoftware": 3495,
      "Ġgaran": 3496,
      "Ġdesejada": 3497,
      "propagaÃ§Ã£o": 3498,
      "38": 3499,
      "970": 3500,
      "986": 3501,
      "gebra": 3502,
      "icidade": 3503,
      "pora": 3504,
      "wor": 3505,
      "Ġel": 3506,
      "ordena": 3507,
      "Ã¡s": 3508,
      "Ġpoten": 3509,
      "Ġexces": 3510,
      "mensio": 3511,
      "Ġcaiu": 3512,
      "olos": 3513,
      "loca": 3514,
      "Ġseria": 3515,
      "Ġaspec": 3516,
      "Ġho": 3517,
      "ĠMe": 3518,
      "Ġsentidos": 3519,
      "Ġgerar": 3520,
      "ĠÃºnico": 3521,
      "Ġ85": 3522,
      "Ġalterna": 3523,
      "Ġcriar": 3524,
      "ndidos": 3525,
      "ĠGPT": 3526,
      "Ġdefinido": 3527,
      "Ġconjuntos": 3528,
      "Ġentende": 3529,
      "ĠretropropagaÃ§Ã£o": 3530,
      "ĠpreparaÃ§Ã£o": 3531,
      "Ġracioc": 3532,
      "Ġtrouxe": 3533,
      "194": 3534,
      "gni": 3535,
      "ngs": 3536,
      "sor": 3537,
      "uro": 3538,
      "Ġevolu": 3539,
      "teis": 3540,
      "Ġdec": 3541,
      "Ġsilen": 3542,
      "Ġnen": 3543,
      "riores": 3544,
      "Ġing": 3545,
      "Ġtradi": 3546,
      "Ġengenharia": 3547,
      "Ġdiagonal": 3548,
      "ĠPar": 3549,
      "posta": 3550,
      "Ġbaseada": 3551,
      "Ġtotal": 3552,
      "ĠFo": 3553,
      "ĠotimizaÃ§Ã£o": 3554,
      "geis": 3555,
      "Ġalguma": 3556,
      "Ġnuma": 3557,
      "Ġfinito": 3558,
      "ĠMarko": 3559,
      "ĠgeneralizaÃ§Ã£o": 3560,
      "Ġacertar": 3561,
      "rupamento": 3562,
      "Ġzero": 3563,
      "Ġjardim": 3564,
      "198": 3565,
      "471": 3566,
      "495": 3567,
      "794": 3568,
      "898": 3569,
      "943": 3570,
      "979": 3571,
      "NÃ³s": 3572,
      "cÃª": 3573,
      "tÃ¡vel": 3574,
      "Ġali": 3575,
      "tec": 3576,
      "rea": 3577,
      "Ġdeva": 3578,
      "Ġdemons": 3579,
      "Ġfen": 3580,
      "ĠfrÃ¡": 3581,
      "ntese": 3582,
      "uais": 3583,
      "Ġsequ": 3584,
      "ĠNP": 3585,
      "Ġsimplicidade": 3586,
      "Ġchu": 3587,
      "vid": 3588,
      "Ġdar": 3589,
      "Ġimpac": 3590,
      "ÃŃdas": 3591,
      "ologias": 3592,
      "Ġpapel": 3593,
      "Ġinicial": 3594,
      "ĠHo": 3595,
      "ĠLingua": 3596,
      "834": 3597,
      "815": 3598,
      "210": 3599,
      "911": 3600,
      "Ġpossibilidade": 3601,
      "530": 3602,
      "867": 3603,
      "403": 3604,
      "962": 3605,
      "967": 3606,
      "Ġorganizadas": 3607,
      "vemos": 3608,
      "ĠLei": 3609,
      "Ġexplicou": 3610,
      "ĠcriptogrÃ¡fi": 3611,
      "ĠJohn": 3612,
      "Ġciclo": 3613,
      "Ġsuperior": 3614,
      "ĠpÃºblico": 3615,
      "Ġhardware": 3616,
      "ĠMarkov": 3617,
      "ĠfrÃ¡geis": 3618,
      "Ġchuva": 3619,
      "186": 3620,
      "126": 3621,
      "34": 3622,
      "35": 3623,
      "546": 3624,
      "675": 3625,
      "727": 3626,
      "983": 3627,
      "974": 3628,
      "ador": 3629,
      "fer": 3630,
      "ocu": 3631,
      "ĠaÃ§Ãµes": 3632,
      "rega": 3633,
      "dimensio": 3634,
      "Ġesquer": 3635,
      "ture": 3636,
      "ley": 3637,
      "sino": 3638,
      "Ġautove": 3639,
      "vam": 3640,
      "Ġestudamos": 3641,
      "Ġdistribu": 3642,
      "versa": 3643,
      "ĠFi": 3644,
      "750": 3645,
      "755": 3646,
      "202": 3647,
      "710": 3648,
      "711": 3649,
      "718": 3650,
      "430": 3651,
      "231": 3652,
      "831": 3653,
      "835": 3654,
      "838": 3655,
      "854": 3656,
      "959": 3657,
      "910": 3658,
      "914": 3659,
      "918": 3660,
      "703": 3661,
      "707": 3662,
      "130": 3663,
      "531": 3664,
      "ĠBra": 3665,
      "931": 3666,
      "807": 3667,
      "338": 3668,
      "903": 3669,
      "947": 3670,
      "650": 3671,
      "654": 3672,
      "659": 3673,
      "411": 3674,
      "Ġdefinir": 3675,
      "606": 3676,
      "402": 3677,
      "514": 3678,
      "110": 3679,
      "247": 3680,
      "Ġpreparados": 3681,
      "ell": 3682,
      "Ġsemelhante": 3683,
      "Ġsingulares": 3684,
      "Ġcaminho": 3685,
      "Ġcomplicadas": 3686,
      "Ġprofessora": 3687,
      "ĠraciocÃŃnio": 3688,
      "Ġsilencioso": 3689,
      "Ġdevagar": 3690,
      "170": 3691,
      "190": 3692,
      "174": 3693,
      "178": 3694,
      "122": 3695,
      "146": 3696,
      "166": 3697,
      "150": 3698,
      "158": 3699,
      "154": 3700,
      "142": 3701,
      "182": 3702,
      "299": 3703,
      "275": 3704,
      "271": 3705,
      "295": 3706,
      "291": 3707,
      "270": 3708,
      "290": 3709,
      "286": 3710,
      "274": 3711,
      "226": 3712,
      "294": 3713,
      "278": 3714,
      "298": 3715,
      "246": 3716,
      "399": 3717,
      "375": 3718,
      "371": 3719,
      "343": 3720,
      "323": 3721,
      "383": 3722,
      "363": 3723,
      "395": 3724,
      "391": 3725,
      "370": 3726,
      "390": 3727,
      "386": 3728,
      "374": 3729,
      "326": 3730,
      "394": 3731,
      "378": 3732,
      "322": 3733,
      "398": 3734,
      "346": 3735,
      "327": 3736,
      "366": 3737,
      "351": 3738,
      "350": 3739,
      "379": 3740,
      "311": 3741,
      "355": 3742,
      "358": 3743,
      "354": 3744,
      "342": 3745,
      "359": 3746,
      "387": 3747,
      "382": 3748,
      "347": 3749,
      "499": 3750,
      "475": 3751,
      "443": 3752,
      "423": 3753,
      "483": 3754,
      "463": 3755,
      "491": 3756,
      "470": 3757,
      "490": 3758,
      "486": 3759,
      "474": 3760,
      "426": 3761,
      "494": 3762,
      "478": 3763,
      "422": 3764,
      "498": 3765,
      "446": 3766,
      "427": 3767,
      "479": 3768,
      "599": 3769,
      "575": 3770,
      "571": 3771,
      "543": 3772,
      "523": 3773,
      "583": 3774,
      "563": 3775,
      "595": 3776,
      "591": 3777,
      "570": 3778,
      "590": 3779,
      "586": 3780,
      "574": 3781,
      "526": 3782,
      "594": 3783,
      "578": 3784,
      "522": 3785,
      "598": 3786,
      "527": 3787,
      "566": 3788,
      "551": 3789,
      "550": 3790,
      "579": 3791,
      "699": 3792,
      "671": 3793,
      "643": 3794,
      "623": 3795,
      "683": 3796,
      "663": 3797,
      "695": 3798,
      "691": 3799,
      "670": 3800,
      "690": 3801,
      "686": 3802,
      "674": 3803,
      "626": 3804,
      "694": 3805,
      "678": 3806,
      "622": 3807,
      "698": 3808,
      "646": 3809,
      "627": 3810,
      "679": 3811,
      "775": 3812,
      "771": 3813,
      "743": 3814,
      "723": 3815,
      "783": 3816,
      "763": 3817,
      "795": 3818,
      "791": 3819,
      "770": 3820,
      "790": 3821,
      "786": 3822,
      "774": 3823,
      "726": 3824,
      "778": 3825,
      "722": 3826,
      "798": 3827,
      "766": 3828,
      "779": 3829,
      "899": 3830,
      "875": 3831,
      "871": 3832,
      "843": 3833,
      "823": 3834,
      "883": 3835,
      "863": 3836,
      "895": 3837,
      "891": 3838,
      "870": 3839,
      "890": 3840,
      "886": 3841,
      "874": 3842,
      "826": 3843,
      "894": 3844,
      "878": 3845,
      "822": 3846,
      "846": 3847,
      "827": 3848,
      "879": 3849,
      "975": 3850,
      "971": 3851,
      "923": 3852,
      "963": 3853,
      "926": 3854,
      "978": 3855,
      "922": 3856,
      "927": 3857,
      "966": 3858,
      "ju": 3859,
      "nes": 3860,
      "Ġacel": 3861,
      "tera": 3862,
      "Ġdesa": 3863,
      "Ġdenomi": 3864,
      "ord": 3865,
      "tida": 3866,
      "todo": 3867,
      "Ġmor": 3868,
      "Ġcomer": 3869,
      "Ġserem": 3870,
      "nicos": 3871,
      "Ġmecan": 3872,
      "ĠOb": 3873,
      "bili": 3874,
      "luÃ§Ã£o": 3875,
      "Ġmomento": 3876,
      "Ġassu": 3877,
      "Ġ24": 3878,
      "Ġrespec": 3879,
      "ĠMo": 3880,
      "ĠpaÃŃ": 3881,
      "ĠTec": 3882,
      "Ġreduzir": 3883,
      "Ġano": 3884,
      "Ġsucesso": 3885,
      "tria": 3886,
      "Ġ2023": 3887,
      "Ġprimeiros": 3888,
      "cenÃ§a": 3889,
      "990": 3890,
      "991": 3891,
      "994": 3892,
      "995": 3893,
      "998": 3894,
      "999": 3895,
      "751": 3896,
      "754": 3897,
      "758": 3898,
      "759": 3899,
      "206": 3900,
      "207": 3901,
      "714": 3902,
      "715": 3903,
      "719": 3904,
      "431": 3905,
      "434": 3906,
      "435": 3907,
      "438": 3908,
      "439": 3909,
      "230": 3910,
      "234": 3911,
      "235": 3912,
      "238": 3913,
      "239": 3914,
      "830": 3915,
      "839": 3916,
      "Ġfluxo": 3917,
      "630": 3918,
      "631": 3919,
      "634": 3920,
      "635": 3921,
      "638": 3922,
      "639": 3923,
      "850": 3924,
      "851": 3925,
      "855": 3926,
      "858": 3927,
      "859": 3928,
      "810": 3929,
      "811": 3930,
      "814": 3931,
      "818": 3932,
      "819": 3933,
      "950": 3934,
      "951": 3935,
      "954": 3936,
      "955": 3937,
      "958": 3938,
      "211": 3939,
      "214": 3940,
      "215": 3941,
      "218": 3942,
      "219": 3943,
      "915": 3944,
      "919": 3945,
      "250": 3946,
      "251": 3947,
      "254": 3948,
      "255": 3949,
      "258": 3950,
      "259": 3951,
      "702": 3952,
      "706": 3953,
      "730": 3954,
      "731": 3955,
      "734": 3956,
      "735": 3957,
      "738": 3958,
      "739": 3959,
      "Ġ500": 3960,
      "134": 3961,
      "138": 3962,
      "534": 3963,
      "535": 3964,
      "538": 3965,
      "539": 3966,
      "930": 3967,
      "934": 3968,
      "935": 3969,
      "938": 3970,
      "939": 3971,
      "802": 3972,
      "803": 3973,
      "806": 3974,
      "330": 3975,
      "331": 3976,
      "334": 3977,
      "335": 3978,
      "339": 3979,
      "902": 3980,
      "906": 3981,
      "907": 3982,
      "862": 3983,
      "866": 3984,
      "742": 3985,
      "746": 3986,
      "747": 3987,
      "262": 3988,
      "266": 3989,
      "267": 3990,
      "942": 3991,
      "946": 3992,
      "651": 3993,
      "655": 3994,
      "658": 3995,
      "610": 3996,
      "611": 3997,
      "614": 3998,
      "615": 3999,
      "618": 4000,
      "619": 4001,
      "450": 4002,
      "451": 4003,
      "454": 4004,
      "455": 4005,
      "458": 4006,
      "459": 4007,
      "782": 4008,
      "787": 4009,
      "410": 4010,
      "414": 4011,
      "415": 4012,
      "418": 4013,
      "419": 4014,
      "222": 4015,
      "227": 4016,
      "602": 4017,
      "603": 4018,
      "607": 4019,
      "982": 4020,
      "987": 4021,
      "406": 4022,
      "407": 4023,
      "462": 4024,
      "466": 4025,
      "467": 4026,
      "279": 4027,
      "662": 4028,
      "666": 4029,
      "667": 4030,
      "510": 4031,
      "511": 4032,
      "515": 4033,
      "518": 4034,
      "519": 4035,
      "502": 4036,
      "503": 4037,
      "506": 4038,
      "507": 4039,
      "111": 4040,
      "114": 4041,
      "118": 4042,
      "762": 4043,
      "767": 4044,
      "242": 4045,
      "282": 4046,
      "287": 4047,
      "482": 4048,
      "487": 4049,
      "442": 4050,
      "447": 4051,
      "554": 4052,
      "555": 4053,
      "558": 4054,
      "559": 4055,
      "682": 4056,
      "687": 4057,
      "642": 4058,
      "647": 4059,
      "362": 4060,
      "367": 4061,
      "882": 4062,
      "887": 4063,
      "562": 4064,
      "567": 4065,
      "842": 4066,
      "847": 4067,
      "162": 4068,
      "310": 4069,
      "314": 4070,
      "315": 4071,
      "318": 4072,
      "319": 4073,
      "Ġraz": 4074,
      "302": 4075,
      "303": 4076,
      "306": 4077,
      "307": 4078,
      "Ġmateri": 4079,
      "102": 4080,
      "106": 4081,
      "582": 4082,
      "587": 4083,
      "542": 4084,
      "547": 4085,
      "ĠsemÃ¢ntico": 4086,
      "Ġagrupamento": 4087,
      "ĠInformaÃ§Ã£o": 4088,
      "Ġtransa": 4089,
      "ĠmatemÃ¡tico": 4090,
      "ĠdinÃ¢mica": 4091,
      "Ġdenomina": 4092,
      "gressÃ£o": 4093,
      "nformaÃ§Ã£o": 4094,
      "Ġatribu": 4095,
      "Ġcoordena": 4096,
      "Ġrec": 4097,
      "cimento": 4098,
      "nter": 4099,
      "Ġsepara": 4100,
      "rimento": 4101,
      "Ġtele": 4102,
      "Ġcamadas": 4103,
      "Ġthe": 4104,
      "uir": 4105,
      "Ġparadi": 4106,
      "Ġalca": 4107,
      "Ġseguir": 4108,
      "entendidos": 4109,
      "Ġenga": 4110,
      "ĠPo": 4111,
      "roso": 4112,
      "Ġfontes": 4113,
      "Ġconhecida": 4114,
      "Ġfim": 4115,
      "posiÃ§Ãµes": 4116,
      "Ġescrevemos": 4117,
      "ĠSÃ£o": 4118,
      "Ġ400": 4119,
      "ĠAlguns": 4120,
      "Ġposte": 4121,
      "ĠtransformaÃ§Ã£o": 4122,
      "ĠcorreÃ§Ã£o": 4123,
      "Ġmaiores": 4124,
      "Ġdeterminar": 4125,
      "ĠresoluÃ§Ã£o": 4126,
      "Ġaprendendo": 4127,
      "Ġnesse": 4128,
      "ĠequaÃ§Ãµes": 4129,
      "istÃªncia": 4130,
      "ĠneurÃ´nios": 4131,
      "ĠcientÃŃ": 4132,
      "175": 4133,
      "171": 4134,
      "123": 4135,
      "159": 4136,
      "147": 4137,
      "263": 4138,
      "AC": 4139,
      "Ao": 4140,
      "che": 4141,
      "gas": 4142,
      "xa": 4143,
      "Ġgu": 4144,
      "ĠEmb": 4145,
      "Ġseg": 4146,
      "ĠteÃ³ri": 4147,
      "Ġapresen": 4148,
      "emos": 4149,
      "ponder": 4150,
      "Ġhas": 4151,
      "Ġ300": 4152,
      "Ġtornou": 4153,
      "Ġinterval": 4154,
      "ĠconstÃ¢ncia": 4155,
      "Ã´men": 4156,
      "Ġoperacional": 4157,
      "ĠLÃ³gica": 4158,
      "cipli": 4159,
      "ĠcontÃ©m": 4160,
      "203": 4161,
      "ĠAlgumas": 4162,
      "135": 4163,
      "Ġ256": 4164,
      "Ġpermitem": 4165,
      "Ġseguintes": 4166,
      "Ġsegunda": 4167,
      "ĠpÃºblica": 4168,
      "tional": 4169,
      "ĠequaÃ§Ã£o": 4170,
      "Ġcotidiana": 4171,
      "curso": 4172,
      "ĠfenÃ´men": 4173,
      "191": 4174,
      "127": 4175,
      "151": 4176,
      "179": 4177,
      "155": 4178,
      "187": 4179,
      "243": 4180,
      "223": 4181,
      "283": 4182,
      "lÃªs": 4183,
      "pulaÃ§Ã£o": 4184,
      "Ġofere": 4185,
      "Ġusos": 4186,
      "Ã¡li": 4187,
      "son": 4188,
      "ĠElas": 4189,
      "ĠEsses": 4190,
      "Ġpres": 4191,
      "Ġnova": 4192,
      "Ġenvol": 4193,
      "ĠPe": 4194,
      "Ġsociais": 4195,
      "Ġ185": 4196,
      "ĠCh": 4197,
      "Ġhom": 4198,
      "ĠMÃ©": 4199,
      "Ġpelas": 4200,
      "Ġrelacionados": 4201,
      "mizaÃ§Ã£o": 4202,
      "ĠÃºteis": 4203,
      "Ġ64": 4204,
      "ĠÃģ": 4205,
      "ĠgrÃ¡fico": 4206,
      "ĠSta": 4207,
      "ĠDados": 4208,
      "Ġmenores": 4209,
      "Ġprocessadores": 4210,
      "Ġ360": 4211,
      "131": 4212,
      "139": 4213,
      "ĠGe": 4214,
      "115": 4215,
      "119": 4216,
      "167": 4217,
      "minaÃ§Ã£o": 4218,
      "ĠsinÃ´nimos": 4219,
      "ĠProble": 4220,
      "107": 4221,
      "Ġlimite": 4222,
      "Ġmini": 4223,
      "ĠaleatÃ³rio": 4224,
      "Ġaresta": 4225,
      "Ġgere": 4226,
      "ĠTransformer": 4227,
      "ĠsÃŃmbolo": 4228,
      "Ġinteresse": 4229,
      "183": 4230,
      "ET": 4231,
      "dis": 4232,
      "ferÃªncia": 4233,
      "Ġgrafia": 4234,
      "Ġrele": 4235,
      "ciedade": 4236,
      "dings": 4237,
      "Ġestra": 4238,
      "Ġprocu": 4239,
      "Ġestudos": 4240,
      "Ġrecorre": 4241,
      "Ġmeta": 4242,
      "ĠAo": 4243,
      "ĠAda": 4244,
      "Ġvan": 4245,
      "Ġglo": 4246,
      "Ġ120": 4247,
      "Ġtercei": 4248,
      "tÃ³rias": 4249,
      "Ġ512": 4250,
      "Ġ61": 4251,
      "Ġ65": 4252,
      "Ġ81": 4253,
      "ĠWeb": 4254,
      "Ġrecursiva": 4255,
      "Ġ1000": 4256,
      "Ġorien": 4257,
      "ĠRNN": 4258,
      "Ġfeito": 4259,
      "Ġcomputacionais": 4260,
      "Ġrepresentar": 4261,
      "Ġrecebe": 4262,
      "ĠsÃŃmbolos": 4263,
      "Ġbiblioteca": 4264,
      "Ġcaracteri": 4265,
      "pular": 4266,
      "Ġacad": 4267,
      "143": 4268,
      "PD": 4269,
      "ngu": 4270,
      "sco": 4271,
      "vÃ¡vel": 4272,
      "Ġefi": 4273,
      "tive": 4274,
      "diano": 4275,
      "Ġextre": 4276,
      "Ġcade": 4277,
      "Ġsimplesmente": 4278,
      "tadores": 4279,
      "vimento": 4280,
      "Ġaju": 4281,
      "Ġordena": 4282,
      "Ġ181": 4283,
      "Ġ180": 4284,
      "Ġ133": 4285,
      "Ġ333": 4286,
      "Ġ480": 4287,
      "Ġ460": 4288,
      "Ġ52": 4289,
      "Ġ700": 4290,
      "ĠÃ¢": 4291,
      "Ġ869": 4292,
      "ĠSistemas": 4293,
      "Ġchamados": 4294,
      "Ġaumenta": 4295,
      "Ã¢ncias": 4296,
      "Ġrealizar": 4297,
      "Ġimplementa": 4298,
      "ĠclassificaÃ§Ã£o": 4299,
      "ĠmÃŃnimo": 4300,
      "ĠconstruÃŃdo": 4301,
      "Ġcentral": 4302,
      "Ġlongo": 4303,
      "Ġaberto": 4304,
      "163": 4305,
      "at": 4306,
      "gorit": 4307,
      "sÃŃveis": 4308,
      "tÃ´": 4309,
      "remos": 4310,
      "Ġdevido": 4311,
      "solu": 4312,
      "Ġpoder": 4313,
      "Ġapare": 4314,
      "ĠcÃ¡l": 4315,
      "Ġpreocu": 4316,
      "ĠnoÃ§Ã£o": 4317,
      "Ã³te": 4318,
      "ĠlicenÃ§a": 4319,
      "ĠPode": 4320,
      "Ġ121": 4321,
      "Ġdiferencia": 4322,
      "Ġ220": 4323,
      "Ġ225": 4324,
      "Ġ213": 4325,
      "Ġ245": 4326,
      "Ġresponder": 4327,
      "Ġ49": 4328,
      "Ġ433": 4329,
      "Ġdireitos": 4330,
      "Ġconhecidos": 4331,
      "Ġbaseado": 4332,
      "Ġinterna": 4333,
      "Ġ525": 4334,
      "Ġ553": 4335,
      "Ġ596": 4336,
      "Ġ517": 4337,
      "Ġ669": 4338,
      "Ġ72": 4339,
      "Ġ720": 4340,
      "Ġ768": 4341,
      "Ġ825": 4342,
      "Ġ896": 4343,
      "Ġ868": 4344,
      "Ġ800": 4345,
      "Ġ852": 4346,
      "Ġ93": 4347,
      "Ġ96": 4348,
      "Ġ965": 4349,
      "Ġ900": 4350,
      "Ġ957": 4351,
      "Ġ101": 4352,
      "Ġ105": 4353,
      "Ġ109": 4354,
      "Ġ148": 4355,
      "ĠGPU": 4356,
      "Ġ136": 4357,
      "Ġ252": 4358,
      "Ġ332": 4359,
      "Ġ336": 4360,
      "Ġ116": 4361,
      "Ġ356": 4362,
      "Ġ357": 4363,
      "Ġ228": 4364,
      "Ġdefinidas": 4365,
      "ĠmÃ¡ximo": 4366,
      "ĠdifÃŃcil": 4367,
      "103": 4368,
      "Ġdeterminado": 4369,
      "Ġeram": 4370,
      "Ġpubli": 4371,
      "Ġdiversos": 4372,
      "Ġgeom": 4373,
      "Ġcolunas": 4374,
      "Ġafirma": 4375,
      "ĠquestÃµes": 4376,
      "ĠTeste": 4377,
      "ĠEmbora": 4378,
      "ĠcÃ¡lculos": 4379,
      "LN": 4380,
      "ios": 4381,
      "mu": 4382,
      "ĠprÃ©": 4383,
      "Ġcap": 4384,
      "Ġobter": 4385,
      "gue": 4386,
      "vidas": 4387,
      "Ġliber": 4388,
      "ÃŃdu": 4389,
      "Ġgover": 4390,
      "Ġfazem": 4391,
      "Ġ125": 4392,
      "Ġ173": 4393,
      "Ġ113": 4394,
      "Ġ153": 4395,
      "Ġ285": 4396,
      "Ġ281": 4397,
      "Ġ221": 4398,
      "Ġ273": 4399,
      "Ġ253": 4400,
      "Ġ293": 4401,
      "Ġ280": 4402,
      "Ġ233": 4403,
      "Ġ241": 4404,
      "Ġ240": 4405,
      "Ġ276": 4406,
      "Ġ248": 4407,
      "Ġ244": 4408,
      "Ġ277": 4409,
      "Ġ272": 4410,
      "Ġ249": 4411,
      "Ġintelig": 4412,
      "Ġ320": 4413,
      "Ġ385": 4414,
      "Ġ381": 4415,
      "Ġ321": 4416,
      "Ġ325": 4417,
      "Ġ373": 4418,
      "Ġ313": 4419,
      "Ġ353": 4420,
      "Ġ393": 4421,
      "Ġ380": 4422,
      "Ġ420": 4423,
      "Ġ485": 4424,
      "Ġ481": 4425,
      "Ġ421": 4426,
      "Ġ425": 4427,
      "Ġ473": 4428,
      "Ġ413": 4429,
      "Ġ453": 4430,
      "Ġ493": 4431,
      "Ġ465": 4432,
      "Ġ461": 4433,
      "Ġ424": 4434,
      "Ġ496": 4435,
      "Ġ428": 4436,
      "Ġ468": 4437,
      "Ġ464": 4438,
      "Ġ436": 4439,
      "Ġ429": 4440,
      "Ġ497": 4441,
      "Ġ492": 4442,
      "Ġ469": 4443,
      "Ġ437": 4444,
      "Ġ432": 4445,
      "Ġrelacionadas": 4446,
      "Ġ56": 4447,
      "Ġ57": 4448,
      "Ġ520": 4449,
      "Ġ585": 4450,
      "Ġ581": 4451,
      "Ġ521": 4452,
      "Ġ573": 4453,
      "Ġ513": 4454,
      "Ġ593": 4455,
      "Ġ580": 4456,
      "Ġ533": 4457,
      "Ġ565": 4458,
      "Ġ561": 4459,
      "Ġ545": 4460,
      "Ġ541": 4461,
      "Ġ560": 4462,
      "Ġ540": 4463,
      "Ġ576": 4464,
      "Ġ524": 4465,
      "Ġ528": 4466,
      "Ġ548": 4467,
      "Ġ544": 4468,
      "Ġ568": 4469,
      "Ġ564": 4470,
      "Ġ536": 4471,
      "Ġ588": 4472,
      "Ġ577": 4473,
      "Ġ556": 4474,
      "Ġ584": 4475,
      "Ġ516": 4476,
      "Ġ529": 4477,
      "Ġ597": 4478,
      "Ġ572": 4479,
      "Ġ592": 4480,
      "Ġ549": 4481,
      "Ġ569": 4482,
      "Ġ537": 4483,
      "Ġ532": 4484,
      "Ġ589": 4485,
      "Ġ552": 4486,
      "Ġ557": 4487,
      "Ġ68": 4488,
      "Ġ69": 4489,
      "Ġ620": 4490,
      "Ġ685": 4491,
      "Ġ681": 4492,
      "Ġ621": 4493,
      "Ġ625": 4494,
      "Ġ673": 4495,
      "Ġ613": 4496,
      "Ġ653": 4497,
      "Ġ693": 4498,
      "Ġ680": 4499,
      "Ġ633": 4500,
      "Ġ665": 4501,
      "Ġ661": 4502,
      "Ġ645": 4503,
      "Ġ641": 4504,
      "Ġ660": 4505,
      "Ġ640": 4506,
      "Ġ676": 4507,
      "Ġ624": 4508,
      "Ġ696": 4509,
      "Ġ628": 4510,
      "Ġ648": 4511,
      "Ġ644": 4512,
      "Ġ668": 4513,
      "Ġ664": 4514,
      "Ġ636": 4515,
      "Ġ688": 4516,
      "Ġ600": 4517,
      "Ġ677": 4518,
      "Ġ656": 4519,
      "Ġ684": 4520,
      "Ġ616": 4521,
      "Ġ629": 4522,
      "Ġ697": 4523,
      "Ġ672": 4524,
      "Ġ692": 4525,
      "Ġ649": 4526,
      "Ġ637": 4527,
      "Ġ632": 4528,
      "Ġ612": 4529,
      "Ġ689": 4530,
      "Ġ652": 4531,
      "Ġ657": 4532,
      "Ġ617": 4533,
      "Ġ77": 4534,
      "Ġ785": 4535,
      "Ġ781": 4536,
      "Ġ721": 4537,
      "Ġ725": 4538,
      "Ġ773": 4539,
      "Ġ713": 4540,
      "Ġ753": 4541,
      "Ġ793": 4542,
      "Ġ780": 4543,
      "Ġ733": 4544,
      "Ġ765": 4545,
      "Ġ761": 4546,
      "Ġ745": 4547,
      "Ġ741": 4548,
      "Ġ760": 4549,
      "Ġ740": 4550,
      "Ġ776": 4551,
      "Ġ724": 4552,
      "Ġ796": 4553,
      "Ġ728": 4554,
      "Ġ748": 4555,
      "Ġ744": 4556,
      "Ġ764": 4557,
      "Ġ736": 4558,
      "Ġ788": 4559,
      "Ġ777": 4560,
      "Ġ756": 4561,
      "Ġ784": 4562,
      "Ġ716": 4563,
      "Ġ729": 4564,
      "Ġ797": 4565,
      "Ġ772": 4566,
      "Ġ792": 4567,
      "Ġ749": 4568,
      "Ġ769": 4569,
      "Ġ737": 4570,
      "Ġ732": 4571,
      "Ġ712": 4572,
      "Ġ789": 4573,
      "Ġ752": 4574,
      "Ġ757": 4575,
      "Ġ717": 4576,
      "Ġtop": 4577,
      "Ġ84": 4578,
      "Ġ88": 4579,
      "Ġ89": 4580,
      "Ġ820": 4581,
      "Ġ885": 4582,
      "Ġ881": 4583,
      "Ġ821": 4584,
      "Ġ873": 4585,
      "Ġ813": 4586,
      "Ġ853": 4587,
      "Ġ893": 4588,
      "Ġ880": 4589,
      "Ġ833": 4590,
      "Ġ865": 4591,
      "Ġ861": 4592,
      "Ġ845": 4593,
      "Ġ841": 4594,
      "Ġ860": 4595,
      "Ġ840": 4596,
      "Ġ876": 4597,
      "Ġ824": 4598,
      "Ġ828": 4599,
      "Ġ848": 4600,
      "Ġ844": 4601,
      "Ġ864": 4602,
      "Ġ836": 4603,
      "Ġ888": 4604,
      "Ġ877": 4605,
      "Ġ856": 4606,
      "Ġ884": 4607,
      "Ġ816": 4608,
      "Ġ829": 4609,
      "Ġ897": 4610,
      "Ġ872": 4611,
      "Ġ892": 4612,
      "Ġ849": 4613,
      "Ġ837": 4614,
      "Ġ832": 4615,
      "Ġ812": 4616,
      "Ġ889": 4617,
      "Ġ857": 4618,
      "Ġ817": 4619,
      "Ġ97": 4620,
      "Ġ920": 4621,
      "Ġ985": 4622,
      "Ġ981": 4623,
      "Ġ921": 4624,
      "Ġ925": 4625,
      "Ġ973": 4626,
      "Ġ913": 4627,
      "Ġ953": 4628,
      "Ġ993": 4629,
      "Ġ980": 4630,
      "Ġ933": 4631,
      "Ġ961": 4632,
      "Ġ945": 4633,
      "Ġ941": 4634,
      "Ġ960": 4635,
      "Ġ940": 4636,
      "Ġ976": 4637,
      "Ġ924": 4638,
      "Ġ996": 4639,
      "Ġ928": 4640,
      "Ġ948": 4641,
      "Ġ944": 4642,
      "Ġ968": 4643,
      "Ġ964": 4644,
      "Ġ936": 4645,
      "Ġ988": 4646,
      "Ġ977": 4647,
      "Ġ956": 4648,
      "Ġ984": 4649,
      "Ġ916": 4650,
      "Ġ929": 4651,
      "Ġ997": 4652,
      "Ġ972": 4653,
      "Ġ992": 4654,
      "Ġ949": 4655,
      "Ġ969": 4656,
      "Ġ937": 4657,
      "Ġ932": 4658,
      "Ġ912": 4659,
      "Ġ989": 4660,
      "Ġ952": 4661,
      "Ġ917": 4662,
      "Ġchamadas": 4663,
      "Ġ192": 4664,
      "Ġ193": 4665,
      "Ġ196": 4666,
      "Ġ197": 4667,
      "Ġ204": 4668,
      "Ġ205": 4669,
      "Ġ208": 4670,
      "Ġ209": 4671,
      "Ġmenor": 4672,
      "Ġ104": 4673,
      "Ġ108": 4674,
      "Ġju": 4675,
      "Ġ160": 4676,
      "Ġ161": 4677,
      "Ġ164": 4678,
      "Ġ165": 4679,
      "Ġ168": 4680,
      "Ġ169": 4681,
      "Ġ401": 4682,
      "Ġ404": 4683,
      "Ġ405": 4684,
      "Ġ408": 4685,
      "Ġ409": 4686,
      "Ġ361": 4687,
      "Ġ364": 4688,
      "Ġ365": 4689,
      "Ġ368": 4690,
      "Ġ369": 4691,
      "Ġ440": 4692,
      "Ġ441": 4693,
      "Ġ444": 4694,
      "Ġ445": 4695,
      "Ġ448": 4696,
      "Ġ449": 4697,
      "Ġ501": 4698,
      "Ġ504": 4699,
      "Ġ505": 4700,
      "Ġ508": 4701,
      "Ġ509": 4702,
      "Ġ140": 4703,
      "Ġ141": 4704,
      "Ġ144": 4705,
      "Ġ145": 4706,
      "Ġ149": 4707,
      "Ġ260": 4708,
      "Ġ261": 4709,
      "Ġ264": 4710,
      "Ġ265": 4711,
      "Ġ268": 4712,
      "Ġ269": 4713,
      "Ġ340": 4714,
      "Ġ341": 4715,
      "Ġ344": 4716,
      "Ġ345": 4717,
      "Ġ348": 4718,
      "Ġ349": 4719,
      "Ġ132": 4720,
      "Ġ137": 4721,
      "Ġ124": 4722,
      "Ġ128": 4723,
      "Ġ129": 4724,
      "Ġ257": 4725,
      "Ġ172": 4726,
      "Ġ176": 4727,
      "Ġ177": 4728,
      "Ġ212": 4729,
      "Ġ216": 4730,
      "Ġ217": 4731,
      "Ġ452": 4732,
      "Ġ456": 4733,
      "Ġ457": 4734,
      "Ġ324": 4735,
      "Ġ328": 4736,
      "Ġ329": 4737,
      "Ġ284": 4738,
      "Ġ288": 4739,
      "Ġ289": 4740,
      "Ġ337": 4741,
      "Ġ292": 4742,
      "Ġ296": 4743,
      "Ġ297": 4744,
      "Ġ412": 4745,
      "Ġ416": 4746,
      "Ġ417": 4747,
      "Ġ372": 4748,
      "Ġ376": 4749,
      "Ġ377": 4750,
      "Ġ484": 4751,
      "Ġ488": 4752,
      "Ġ489": 4753,
      "Ġ112": 4754,
      "Ġ117": 4755,
      "Ġ184": 4756,
      "Ġ188": 4757,
      "Ġ189": 4758,
      "Ġ152": 4759,
      "Ġ156": 4760,
      "Ġ157": 4761,
      "Ġ232": 4762,
      "Ġ236": 4763,
      "Ġ237": 4764,
      "Ġ352": 4765,
      "Ġ312": 4766,
      "Ġ316": 4767,
      "Ġ317": 4768,
      "Ġ224": 4769,
      "Ġ229": 4770,
      "Ġ384": 4771,
      "Ġ388": 4772,
      "Ġ389": 4773,
      "Ġ392": 4774,
      "Ġ396": 4775,
      "Ġ397": 4776,
      "Ġ472": 4777,
      "Ġ476": 4778,
      "Ġ477": 4779,
      "ĠRes": 4780,
      "Ġtinha": 4781,
      "Ġabsolu": 4782,
      "Ġ801": 4783,
      "Ġ804": 4784,
      "Ġ805": 4785,
      "Ġ808": 4786,
      "Ġ809": 4787,
      "Ġ601": 4788,
      "Ġ604": 4789,
      "Ġ605": 4790,
      "Ġ608": 4791,
      "Ġ609": 4792,
      "Ġ301": 4793,
      "Ġ304": 4794,
      "Ġ305": 4795,
      "Ġ308": 4796,
      "Ġ309": 4797,
      "Ġ701": 4798,
      "Ġ704": 4799,
      "Ġ705": 4800,
      "Ġ708": 4801,
      "Ġ709": 4802,
      "Ġ901": 4803,
      "Ġ904": 4804,
      "Ġ905": 4805,
      "Ġ908": 4806,
      "Ġ909": 4807,
      "Ġcomponente": 4808,
      "Ġescritas": 4809,
      "ĠData": 4810,
      "Ġbibliotecas": 4811,
      "ĠmÃºltiplos": 4812,
      "Ġessenciais": 4813,
      "Ã¡ssi": 4814,
      "fre": 4815,
      "zem": 4816,
      "Ãµ": 4817,
      "Ġanal": 4818,
      "como": 4819,
      "eral": 4820,
      "Ġfu": 4821,
      "dido": 4822,
      "ĠEssas": 4823,
      "naÃ§Ã£o": 4824,
      "laÃ§Ã£o": 4825,
      "lus": 4826,
      "Ġmodifica": 4827,
      "ÃŃdos": 4828,
      "Ġanteriores": 4829,
      "Ġdeste": 4830,
      "ĠMas": 4831,
      "ĠadequaÃ§Ã£o": 4832,
      "Ġ53": 4833,
      "Ġ73": 4834,
      "Ġ76": 4835,
      "Ġ92": 4836,
      "bert": 4837,
      "Ġpriva": 4838,
      "Ġmostram": 4839,
      "Ġdesenvolver": 4840,
      "ĠestatÃŃ": 4841,
      "ĠSegun": 4842,
      "Ġpeso": 4843,
      "Ġexecutar": 4844,
      "Ġmulti": 4845,
      "Ġdeterminante": 4846,
      "brica": 4847,
      "Ġcomplexo": 4848,
      "ĠTambÃ©m": 4849,
      "Ġtempor": 4850,
      "ĠCiÃªncia": 4851,
      "ĠInstitu": 4852,
      "ĠinglÃªs": 4853,
      "Ġesquerda": 4854,
      "score": 4855,
      "Tex": 4856,
      "gh": 4857,
      "jec": 4858,
      "xÃŃ": 4859,
      "yes": 4860,
      "compu": 4861,
      "teza": 4862,
      "Ã¡qui": 4863,
      "tonas": 4864,
      "Ġmer": 4865,
      "ĠNÃ£o": 4866,
      "Ġprevis": 4867,
      "Ġfator": 4868,
      "tualmente": 4869,
      "ĠPortanto": 4870,
      "ĠCÃ¡lculo": 4871,
      "Ġdesse": 4872,
      "Ġconfia": 4873,
      "Ġconfir": 4874,
      "Ġbaseados": 4875,
      "Ġpaco": 4876,
      "ĠdistÃ¢ncia": 4877,
      "tificar": 4878,
      "Ã¡lgebra": 4879,
      "ĠposiÃ§Ã£o": 4880,
      "ĠBERT": 4881,
      "Ġutilizados": 4882,
      "Ġhier": 4883,
      "ĠsÃŃntese": 4884,
      "Ġsurgi": 4885,
      "ĠclÃ¡ssi": 4886,
      "Ġdeclar": 4887,
      "xÃŃtonas": 4888,
      ".,": 4889,
      "SA": 4890,
      "cha": 4891,
      "ches": 4892,
      "mÃŃ": 4893,
      "mula": 4894,
      "ps": 4895,
      "ry": 4896,
      "tÃ¡veis": 4897,
      "zo": 4898,
      "Ġpen": 4899,
      "Ġado": 4900,
      "Ġestes": 4901,
      "Ġten": 4902,
      "lex": 4903,
      "ĠtrÃ¡": 4904,
      "ciali": 4905,
      "ĠdiferenÃ§as": 4906,
      "ĠquestÃ£o": 4907,
      "ĠMc": 4908,
      "ĠMac": 4909,
      "Ġmodelagem": 4910,
      "ĠSu": 4911,
      "Ã¢ne": 4912,
      "Ġtransmi": 4913,
      "Ġja": 4914,
      "Ġsatis": 4915,
      "Ġbits": 4916,
      "Ġutilizado": 4917,
      "Ġescala": 4918,
      "Ġvolu": 4919,
      "Ġarquiteturas": 4920,
      "Ġtransi": 4921,
      "Ġtratamento": 4922,
      "Ġdefine": 4923,
      "Ġvanta": 4924,
      "ES": 4925,
      "IA": 4926,
      "II": 4927,
      "pla": 4928,
      "tt": 4929,
      "dap": 4930,
      "cida": 4931,
      "dica": 4932,
      "Ġpolin": 4933,
      "lhos": 4934,
      "olÃ³gica": 4935,
      "ĠAlan": 4936,
      "Ġtrabalhos": 4937,
      "ĠvÃ¡li": 4938,
      "Ġarbi": 4939,
      "Ġdessa": 4940,
      "Ġtecnologias": 4941,
      "Ġadequada": 4942,
      "zaÃ§Ãµes": 4943,
      "ĠFa": 4944,
      "ĠDo": 4945,
      "nalismo": 4946,
      "ĠAlgorit": 4947,
      "tribuiÃ§Ã£o": 4948,
      "mentais": 4949,
      "Ġargumento": 4950,
      "Ġargumentos": 4951,
      "ĠmÃ©tri": 4952,
      "Ġprofissionais": 4953,
      "ĠInteligÃªncia": 4954,
      "ĠmilhÃµes": 4955,
      "Ġescrito": 4956,
      "ĠcondiÃ§Ãµes": 4957,
      "ĠJava": 4958,
      "Ġcomumente": 4959,
      "ĠprincÃŃpios": 4960,
      "ĠdisponÃŃveis": 4961,
      "Ġdensidade": 4962,
      "ĠÃ¢ngu": 4963,
      "'s": 4964,
      "vÃŃdu": 4965,
      "Ġ)": 4966,
      "Ġsimi": 4967,
      "unica": 4968,
      "Ġapo": 4969,
      "sia": 4970,
      "sivo": 4971,
      "all": 4972,
      "Ġenvi": 4973,
      "ĠPLN": 4974,
      "Ġsociedade": 4975,
      "ĠMin": 4976,
      "ĠMÃ¡qui": 4977,
      "Ġbases": 4978,
      "Ġplano": 4979,
      "Ġpares": 4980,
      "Ġdiscu": 4981,
      "vou": 4982,
      "Ġfilos": 4983,
      "Ġru": 4984,
      "ĠFre": 4985,
      "Ġquatro": 4986,
      "Ġcorte": 4987,
      "Ġimagem": 4988,
      "ĠHÃ¡": 4989,
      "ĠextensÃ£o": 4990,
      "Ġamplamente": 4991,
      "Ġcalcular": 4992,
      "Ġbio": 4993,
      "ĠutilizaÃ§Ã£o": 4994,
      "Ġunit": 4995,
      "ĠEntÃ£o": 4996,
      "Ġespecialmente": 4997,
      "ĠnumÃ©ri": 4998,
      "ĠespecÃŃfica": 4999
    },
    "merges": [
      [
        "Ġ",
        "e"
      ],
      [
        "d",
        "e"
      ],
      [
        "Ġ",
        "p"
      ],
      [
        "Ġ",
        "a"
      ],
      [
        "c",
        "o"
      ],
      [
        "t",
        "e"
      ],
      [
        "r",
        "e"
      ],
      [
        "m",
        "a"
      ],
      [
        "a",
        "r"
      ],
      [
        "Ġ",
        "s"
      ],
      [
        "Ġ",
        "de"
      ],
      [
        "Ã",
        "§"
      ],
      [
        "Ġ",
        "co"
      ],
      [
        "d",
        "o"
      ],
      [
        "Ġ",
        "o"
      ],
      [
        "e",
        "s"
      ],
      [
        "i",
        "s"
      ],
      [
        "t",
        "a"
      ],
      [
        "m",
        "p"
      ],
      [
        "o",
        "r"
      ],
      [
        "e",
        "r"
      ],
      [
        "o",
        "s"
      ],
      [
        "c",
        "a"
      ],
      [
        "Ã§",
        "Ã"
      ],
      [
        "d",
        "a"
      ],
      [
        "e",
        "n"
      ],
      [
        "Ġ",
        "f"
      ],
      [
        "Ġ",
        "u"
      ],
      [
        "Ġ",
        "re"
      ],
      [
        "Ã",
        "¡"
      ],
      [
        "£",
        "o"
      ],
      [
        "t",
        "i"
      ],
      [
        "s",
        "o"
      ],
      [
        "mp",
        "l"
      ],
      [
        "r",
        "a"
      ],
      [
        "t",
        "o"
      ],
      [
        "Ġ",
        "i"
      ],
      [
        "c",
        "i"
      ],
      [
        "Ã§Ã",
        "£o"
      ],
      [
        "d",
        "i"
      ],
      [
        "n",
        "te"
      ],
      [
        "Ġco",
        "n"
      ],
      [
        "Ġ",
        "m"
      ],
      [
        "Ġp",
        "o"
      ],
      [
        "u",
        "a"
      ],
      [
        "Ġp",
        "r"
      ],
      [
        "Ġe",
        "x"
      ],
      [
        "l",
        "i"
      ],
      [
        "Ġe",
        "m"
      ],
      [
        "a",
        "s"
      ],
      [
        "µ",
        "es"
      ],
      [
        "Ġco",
        "m"
      ],
      [
        "Ã",
        "©"
      ],
      [
        "Ġ",
        "di"
      ],
      [
        "Ġs",
        "i"
      ],
      [
        "Ġ",
        "E"
      ],
      [
        "Ġe",
        "s"
      ],
      [
        "l",
        "h"
      ],
      [
        "Ġs",
        "e"
      ],
      [
        "Ġpo",
        "de"
      ],
      [
        "Ġ",
        "n"
      ],
      [
        "Ġ",
        "ma"
      ],
      [
        "r",
        "i"
      ],
      [
        "Ġex",
        "e"
      ],
      [
        "Ġexe",
        "mpl"
      ],
      [
        "ti",
        "ca"
      ],
      [
        "Ã§Ã",
        "µes"
      ],
      [
        "Ġi",
        "n"
      ],
      [
        "er",
        "v"
      ],
      [
        "u",
        "n"
      ],
      [
        "ĠE",
        "s"
      ],
      [
        "c",
        "e"
      ],
      [
        "Ġu",
        "ma"
      ],
      [
        "g",
        "i"
      ],
      [
        "Ġ",
        "te"
      ],
      [
        "t",
        "u"
      ],
      [
        "Ġp",
        "ar"
      ],
      [
        "Ã¡",
        "tica"
      ],
      [
        "m",
        "en"
      ],
      [
        "Ġ",
        "b"
      ],
      [
        "Ġ",
        "ca"
      ],
      [
        "Ġa",
        "p"
      ],
      [
        "or",
        "ma"
      ],
      [
        "Ġ",
        "N"
      ],
      [
        "Ġo",
        "b"
      ],
      [
        "Ġsi",
        "mpl"
      ],
      [
        "Ġsimpl",
        "es"
      ],
      [
        "Ġ",
        "do"
      ],
      [
        "q",
        "u"
      ],
      [
        "Ġma",
        "is"
      ],
      [
        "es",
        "so"
      ],
      [
        "l",
        "e"
      ],
      [
        "Ġpr",
        "o"
      ],
      [
        "s",
        "e"
      ],
      [
        "de",
        "r"
      ],
      [
        "s",
        "erv"
      ],
      [
        "Ġob",
        "serv"
      ],
      [
        "Ġexempl",
        "o"
      ],
      [
        "c",
        "is"
      ],
      [
        "Ġf",
        "orma"
      ],
      [
        "n",
        "a"
      ],
      [
        "Ġ",
        "c"
      ],
      [
        "n",
        "i"
      ],
      [
        "s",
        "a"
      ],
      [
        "Ġp",
        "re"
      ],
      [
        "Ġco",
        "mp"
      ],
      [
        "co",
        "r"
      ],
      [
        "Ġobserv",
        "a"
      ],
      [
        "g",
        "u"
      ],
      [
        "Ġpre",
        "cis"
      ],
      [
        "o",
        "l"
      ],
      [
        "Ġin",
        "f"
      ],
      [
        "Ġ",
        "t"
      ],
      [
        "Ġp",
        "esso"
      ],
      [
        "ua",
        "n"
      ],
      [
        "Ġ",
        "Ã©"
      ],
      [
        "n",
        "Ã§"
      ],
      [
        "l",
        "a"
      ],
      [
        "t",
        "os"
      ],
      [
        "e",
        "m"
      ],
      [
        "Ġf",
        "a"
      ],
      [
        "v",
        "e"
      ],
      [
        "Ġes",
        "tu"
      ],
      [
        "re",
        "s"
      ],
      [
        "Ġu",
        "m"
      ],
      [
        "Ġpesso",
        "a"
      ],
      [
        "ta",
        "do"
      ],
      [
        "u",
        "da"
      ],
      [
        "Ġn",
        "o"
      ],
      [
        "ĠN",
        "o"
      ],
      [
        "v",
        "i"
      ],
      [
        "gi",
        "ta"
      ],
      [
        "Ġdi",
        "gita"
      ],
      [
        "u",
        "i"
      ],
      [
        "f",
        "i"
      ],
      [
        "ci",
        "a"
      ],
      [
        "uan",
        "do"
      ],
      [
        "Ġca",
        "so"
      ],
      [
        "Ġprecis",
        "ar"
      ],
      [
        "Ġcom",
        "un"
      ],
      [
        "ĠEs",
        "te"
      ],
      [
        "Ġre",
        "cor"
      ],
      [
        "Ġrecor",
        "te"
      ],
      [
        "r",
        "o"
      ],
      [
        "ta",
        "s"
      ],
      [
        "s",
        "i"
      ],
      [
        "Ġpr",
        "Ã¡tica"
      ],
      [
        "e",
        "c"
      ],
      [
        "Ġa",
        "j"
      ],
      [
        "Ġaj",
        "uda"
      ],
      [
        "n",
        "der"
      ],
      [
        "Ġ",
        "q"
      ],
      [
        "g",
        "a"
      ],
      [
        "ĠEs",
        "se"
      ],
      [
        "ma",
        "s"
      ],
      [
        "t",
        "ua"
      ],
      [
        "co",
        "s"
      ],
      [
        "nÃ§",
        "a"
      ],
      [
        "Ã",
        "£o"
      ],
      [
        "Ġm",
        "e"
      ],
      [
        "or",
        "m"
      ],
      [
        "g",
        "ra"
      ],
      [
        "Ġpar",
        "a"
      ],
      [
        "Ġme",
        "lh"
      ],
      [
        "nte",
        "s"
      ],
      [
        "Ġ",
        "da"
      ],
      [
        "Ġ",
        "A"
      ],
      [
        "a",
        "Ã§Ã£o"
      ],
      [
        "Ġ",
        "O"
      ],
      [
        "Ġmelh",
        "or"
      ],
      [
        "Ġa",
        "l"
      ],
      [
        "Ġse",
        "gu"
      ],
      [
        "Ġcomun",
        "s"
      ],
      [
        "Ġ",
        "ta"
      ],
      [
        "orm",
        "Ã¡tica"
      ],
      [
        "Ġinf",
        "ormÃ¡tica"
      ],
      [
        "Ã",
        "³"
      ],
      [
        "o",
        "m"
      ],
      [
        "ce",
        "i"
      ],
      [
        "b",
        "i"
      ],
      [
        "Ġu",
        "so"
      ],
      [
        "men",
        "to"
      ],
      [
        "a",
        "re"
      ],
      [
        "Ġcon",
        "cei"
      ],
      [
        "li",
        "ca"
      ],
      [
        "Ã",
        "ª"
      ],
      [
        "en",
        "te"
      ],
      [
        "l",
        "u"
      ],
      [
        "s",
        "u"
      ],
      [
        "Ã©",
        "m"
      ],
      [
        "Ġcomp",
        "u"
      ],
      [
        "te",
        "n"
      ],
      [
        "Ġcompu",
        "tado"
      ],
      [
        "da",
        "de"
      ],
      [
        "Ġap",
        "lica"
      ],
      [
        "m",
        "os"
      ],
      [
        "a",
        "l"
      ],
      [
        "n",
        "cia"
      ],
      [
        "Ġ",
        "d"
      ],
      [
        "Ġdigita",
        "is"
      ],
      [
        "Ġt",
        "ra"
      ],
      [
        "Ġse",
        "m"
      ],
      [
        "l",
        "o"
      ],
      [
        "Ġexempl",
        "os"
      ],
      [
        "Ġn",
        "a"
      ],
      [
        "a",
        "lh"
      ],
      [
        "or",
        "ta"
      ],
      [
        "ni",
        "z"
      ],
      [
        "Ġo",
        "r"
      ],
      [
        "Ġ",
        "li"
      ],
      [
        "da",
        "s"
      ],
      [
        "Ġi",
        "mp"
      ],
      [
        "Ãª",
        "ncia"
      ],
      [
        "do",
        "s"
      ],
      [
        "b",
        "alh"
      ],
      [
        "Ġtra",
        "balh"
      ],
      [
        "Ġ",
        "v"
      ],
      [
        "Ġor",
        "ga"
      ],
      [
        "Ġorga",
        "niz"
      ],
      [
        "v",
        "os"
      ],
      [
        "is",
        "te"
      ],
      [
        "are",
        "ce"
      ],
      [
        "en",
        "sa"
      ],
      [
        "ci",
        "o"
      ],
      [
        "Ã¡",
        "ri"
      ],
      [
        "l",
        "ar"
      ],
      [
        "Ġsi",
        "tua"
      ],
      [
        "i",
        "ca"
      ],
      [
        "Ġm",
        "o"
      ],
      [
        "Ã",
        "Ń"
      ],
      [
        "Ġe",
        "n"
      ],
      [
        "Ġap",
        "arece"
      ],
      [
        "Ġq",
        "uando"
      ],
      [
        "Ġimp",
        "orta"
      ],
      [
        "Ġdi",
        "a"
      ],
      [
        "u",
        "to"
      ],
      [
        "Ġ",
        "g"
      ],
      [
        "Ġimporta",
        "nte"
      ],
      [
        "Ġpar",
        "te"
      ],
      [
        "ra",
        "nÃ§a"
      ],
      [
        "Ġtrabalh",
        "o"
      ],
      [
        "nte",
        "nder"
      ],
      [
        "Ġs",
        "erv"
      ],
      [
        "Ġp",
        "er"
      ],
      [
        "Ġserv",
        "i"
      ],
      [
        "ec",
        "er"
      ],
      [
        "Ġsegu",
        "ranÃ§a"
      ],
      [
        "Ġa",
        "uto"
      ],
      [
        "Ġo",
        "u"
      ],
      [
        "Ġm",
        "ui"
      ],
      [
        "h",
        "ecer"
      ],
      [
        "Ġ",
        "P"
      ],
      [
        "e",
        "ti"
      ],
      [
        "n",
        "to"
      ],
      [
        "Ã",
        "µes"
      ],
      [
        "Ġf",
        "un"
      ],
      [
        "is",
        "so"
      ],
      [
        "a",
        "is"
      ],
      [
        "c",
        "u"
      ],
      [
        "cio",
        "na"
      ],
      [
        "Ġfa",
        "z"
      ],
      [
        "Ġsitua",
        "Ã§Ãµes"
      ],
      [
        "m",
        "o"
      ],
      [
        "Ġestu",
        "do"
      ],
      [
        "Ġal",
        "Ã©m"
      ],
      [
        "b",
        "le"
      ],
      [
        "Ġre",
        "ais"
      ],
      [
        "Ġs",
        "iste"
      ],
      [
        "ten",
        "Ã§Ã£o"
      ],
      [
        "Ġconcei",
        "tos"
      ],
      [
        "i",
        "a"
      ],
      [
        "Ġs",
        "er"
      ],
      [
        "r",
        "os"
      ],
      [
        "Ġorganiz",
        "aÃ§Ã£o"
      ],
      [
        "f",
        "e"
      ],
      [
        "Ã",
        "º"
      ],
      [
        "c",
        "ar"
      ],
      [
        "Ġe",
        "vi"
      ],
      [
        "Ġe",
        "r"
      ],
      [
        "Ġs",
        "o"
      ],
      [
        "Ġevi",
        "ta"
      ],
      [
        "Ġ",
        "1"
      ],
      [
        "Ġpro",
        "ble"
      ],
      [
        "Ġa",
        "r"
      ],
      [
        "e",
        "Ã§"
      ],
      [
        "g",
        "en"
      ],
      [
        "n",
        "e"
      ],
      [
        "Ġs",
        "ol"
      ],
      [
        "da",
        "do"
      ],
      [
        "Ġc",
        "ui"
      ],
      [
        "p",
        "o"
      ],
      [
        "Ġa",
        "ntes"
      ],
      [
        "t",
        "ra"
      ],
      [
        "Ġc",
        "lar"
      ],
      [
        "fe",
        "re"
      ],
      [
        "Q",
        "uando"
      ],
      [
        "qu",
        "i"
      ],
      [
        "Ġre",
        "p"
      ],
      [
        "Ġf",
        "o"
      ],
      [
        "Ġsol",
        "u"
      ],
      [
        "Ã¡ri",
        "o"
      ],
      [
        "Ġ",
        "le"
      ],
      [
        "Ġdi",
        "fere"
      ],
      [
        "Ġes",
        "co"
      ],
      [
        "Ġa",
        "s"
      ],
      [
        "Ã§",
        "os"
      ],
      [
        "Ġsiste",
        "mas"
      ],
      [
        "Ġu",
        "su"
      ],
      [
        "Ġ",
        "2"
      ],
      [
        "Ġpro",
        "c"
      ],
      [
        "Ġte",
        "r"
      ],
      [
        "men",
        "te"
      ],
      [
        "Ġcui",
        "dado"
      ],
      [
        "Ġi",
        "nte"
      ],
      [
        "Ġfa",
        "ci"
      ],
      [
        "li",
        "ta"
      ],
      [
        "Ġfaci",
        "lita"
      ],
      [
        "v",
        "a"
      ],
      [
        "Ġ",
        "qu"
      ],
      [
        "ente",
        "s"
      ],
      [
        "Ġ",
        "C"
      ],
      [
        "Ġ",
        "h"
      ],
      [
        "Ġrep",
        "eti"
      ],
      [
        "gi",
        "a"
      ],
      [
        "Ġ",
        "Quando"
      ],
      [
        "Ġf",
        "ica"
      ],
      [
        "Ã¡",
        "si"
      ],
      [
        "Ġb",
        "Ã¡si"
      ],
      [
        "t",
        "ar"
      ],
      [
        "qu",
        "Ãªncia"
      ],
      [
        "Ġcomputado",
        "r"
      ],
      [
        "Ġestu",
        "da"
      ],
      [
        "Ġfo",
        "i"
      ],
      [
        "ta",
        "Ã§Ã£o"
      ],
      [
        "Ġservi",
        "Ã§os"
      ],
      [
        "p",
        "re"
      ],
      [
        "Ġre",
        "s"
      ],
      [
        "f",
        "o"
      ],
      [
        "gen",
        "s"
      ],
      [
        "Ġmelhor",
        "a"
      ],
      [
        "Ġdigita",
        "l"
      ],
      [
        "ĠN",
        "es"
      ],
      [
        "gra",
        "fo"
      ],
      [
        "Ġp",
        "or"
      ],
      [
        "Ġ",
        "3"
      ],
      [
        "Ġb",
        "em"
      ],
      [
        "Ġer",
        "ros"
      ],
      [
        "Ġa",
        "tenÃ§Ã£o"
      ],
      [
        "Ġa",
        "m"
      ],
      [
        "Ġusu",
        "Ã¡rio"
      ],
      [
        "li",
        "dade"
      ],
      [
        "Ġse",
        "quÃªncia"
      ],
      [
        "Ġa",
        "nte"
      ],
      [
        "Ġpar",
        "Ã¡"
      ],
      [
        "ri",
        "or"
      ],
      [
        "ĠparÃ¡",
        "grafo"
      ],
      [
        "Ġam",
        "bi"
      ],
      [
        "Ġcomputado",
        "res"
      ],
      [
        "Ġante",
        "rior"
      ],
      [
        "Ġb",
        "lo"
      ],
      [
        "t",
        "r"
      ],
      [
        "ĠNes",
        "te"
      ],
      [
        "Ġp",
        "ensa"
      ],
      [
        "Ġblo",
        "co"
      ],
      [
        "Ġrepeti",
        "r"
      ],
      [
        "Ġpensa",
        "do"
      ],
      [
        "Ġcon",
        "ec"
      ],
      [
        "v",
        "ol"
      ],
      [
        "Ġfun",
        "Ã§Ã£o"
      ],
      [
        "Ġte",
        "c"
      ],
      [
        "Ġre",
        "la"
      ],
      [
        "Ġca",
        "da"
      ],
      [
        "un",
        "to"
      ],
      [
        "Ġambi",
        "entes"
      ],
      [
        "Ġter",
        "mos"
      ],
      [
        "Ġcom",
        "eÃ§"
      ],
      [
        "co",
        "n"
      ],
      [
        "ti",
        "vos"
      ],
      [
        "m",
        "b"
      ],
      [
        "Ġ",
        "4"
      ],
      [
        "Ġesco",
        "lh"
      ],
      [
        "ci",
        "ente"
      ],
      [
        "Ġdi",
        "re"
      ],
      [
        "Ġte",
        "ma"
      ],
      [
        "Ġma",
        "s"
      ],
      [
        "Ġte",
        "x"
      ],
      [
        "Ġproble",
        "mas"
      ],
      [
        "tu",
        "ra"
      ],
      [
        "Ġde",
        "s"
      ],
      [
        "Ġ",
        "M"
      ],
      [
        "ĠprÃ¡tica",
        "s"
      ],
      [
        "Ġso",
        "b"
      ],
      [
        "n",
        "om"
      ],
      [
        "Ġe",
        "ntender"
      ],
      [
        "ol",
        "o"
      ],
      [
        "Ġsob",
        "re"
      ],
      [
        "Ġpo",
        "nto"
      ],
      [
        "Ġin",
        "c"
      ],
      [
        "gi",
        "r"
      ],
      [
        "h",
        "e"
      ],
      [
        "re",
        "f"
      ],
      [
        "olo",
        "gia"
      ],
      [
        "p",
        "er"
      ],
      [
        "Ġta",
        "ref"
      ],
      [
        "E",
        "m"
      ],
      [
        "r",
        "ar"
      ],
      [
        "Ġtec",
        "n"
      ],
      [
        "ĠC",
        "om"
      ],
      [
        "ci",
        "l"
      ],
      [
        "Ġf",
        "Ã¡"
      ],
      [
        "Ġcomp",
        "ar"
      ],
      [
        "d",
        "u"
      ],
      [
        "nom",
        "ia"
      ],
      [
        "ĠfÃ¡",
        "cil"
      ],
      [
        "Ġauto",
        "nomia"
      ],
      [
        "Ġqu",
        "e"
      ],
      [
        "Ġtecn",
        "ologia"
      ],
      [
        "Ġes",
        "se"
      ],
      [
        "Ġs",
        "en"
      ],
      [
        "Ġinc",
        "lu"
      ],
      [
        "Ġg",
        "er"
      ],
      [
        "Ġda",
        "dos"
      ],
      [
        "con",
        "hecer"
      ],
      [
        "Ġt",
        "or"
      ],
      [
        "Ġre",
        "su"
      ],
      [
        "Ġde",
        "cor"
      ],
      [
        "Ġp",
        "as"
      ],
      [
        "Ġtaref",
        "as"
      ],
      [
        "Ġdecor",
        "ar"
      ],
      [
        "Ġh",
        "Ã¡"
      ],
      [
        "Ġaplica",
        "Ã§Ãµes"
      ],
      [
        "A",
        "pre"
      ],
      [
        "Ġas",
        "s"
      ],
      [
        "re",
        "en"
      ],
      [
        "Apre",
        "nder"
      ],
      [
        "Ġpode",
        "m"
      ],
      [
        "Ġco",
        "mpl"
      ],
      [
        "Ġtor",
        "na"
      ],
      [
        "Ġd",
        "isso"
      ],
      [
        "Ġresu",
        "l"
      ],
      [
        "Ġb",
        "as"
      ],
      [
        "lh",
        "as"
      ],
      [
        "reen",
        "der"
      ],
      [
        "Ġger",
        "al"
      ],
      [
        "en",
        "as"
      ],
      [
        "he",
        "ci"
      ],
      [
        "Ġmui",
        "tas"
      ],
      [
        "Ġresul",
        "tado"
      ],
      [
        "fi",
        "ciente"
      ],
      [
        "Ã³",
        "ri"
      ],
      [
        "do",
        "res"
      ],
      [
        "Ġp",
        "e"
      ],
      [
        "Ġcon",
        "heci"
      ],
      [
        "p",
        "os"
      ],
      [
        "Ġprecis",
        "a"
      ],
      [
        "ĠO",
        "s"
      ],
      [
        "es",
        "mo"
      ],
      [
        "ĠP",
        "or"
      ],
      [
        "Ġcon",
        "fi"
      ],
      [
        "Ġn",
        "Ã£o"
      ],
      [
        "q",
        "ua"
      ],
      [
        "Ġe",
        "ficiente"
      ],
      [
        "Ġbas",
        "e"
      ],
      [
        "ar",
        "a"
      ],
      [
        "Ġproc",
        "esso"
      ],
      [
        "n",
        "os"
      ],
      [
        "c",
        "ri"
      ],
      [
        "Ġrela",
        "ciona"
      ],
      [
        "Ġa",
        "de"
      ],
      [
        "ĠN",
        "a"
      ],
      [
        "s",
        "ar"
      ],
      [
        "qui",
        "vos"
      ],
      [
        "Ġade",
        "qua"
      ],
      [
        "vol",
        "ve"
      ],
      [
        "ta",
        "mente"
      ],
      [
        "Ġconheci",
        "mento"
      ],
      [
        "ĠE",
        "le"
      ],
      [
        "Ġex",
        "i"
      ],
      [
        "ci",
        "ar"
      ],
      [
        "Ġclar",
        "a"
      ],
      [
        "Ġfaz",
        "er"
      ],
      [
        "Ġinclu",
        "em"
      ],
      [
        "Ġdifere",
        "nÃ§a"
      ],
      [
        "Ġescolh",
        "er"
      ],
      [
        "Ġconfi",
        "gu"
      ],
      [
        "Ġconcei",
        "to"
      ],
      [
        "t",
        "or"
      ],
      [
        "ĠM",
        "esmo"
      ],
      [
        "d",
        "ar"
      ],
      [
        "Ġi",
        "r"
      ],
      [
        "Ġsolu",
        "Ã§Ãµes"
      ],
      [
        "i",
        "car"
      ],
      [
        "Ġre",
        "conhecer"
      ],
      [
        "N",
        "a"
      ],
      [
        "ĠbÃ¡si",
        "cos"
      ],
      [
        "Ġaplica",
        "do"
      ],
      [
        "Ġexi",
        "gir"
      ],
      [
        "Ġmui",
        "tos"
      ],
      [
        "Ġadequa",
        "das"
      ],
      [
        "Ġu",
        "sar"
      ],
      [
        "Ġcompl",
        "icar"
      ],
      [
        "Ġm",
        "ensa"
      ],
      [
        "Ġinf",
        "lu"
      ],
      [
        "Ġmo",
        "der"
      ],
      [
        "Ġinflu",
        "en"
      ],
      [
        "Ġdire",
        "tamente"
      ],
      [
        "u",
        "s"
      ],
      [
        "Q",
        "u"
      ],
      [
        "Ġmoder",
        "nos"
      ],
      [
        "Ġconec",
        "ta"
      ],
      [
        "Ġass",
        "unto"
      ],
      [
        "Ġsegu",
        "ro"
      ],
      [
        "Ġi",
        "de"
      ],
      [
        "Ġno",
        "Ã§Ãµes"
      ],
      [
        "Ġcon",
        "hecer"
      ],
      [
        "Ġinfluen",
        "ciar"
      ],
      [
        "Qu",
        "em"
      ],
      [
        "E",
        "ntender"
      ],
      [
        "a",
        "mento"
      ],
      [
        "Ġdo",
        "cu"
      ],
      [
        "Ġdocu",
        "men"
      ],
      [
        "p",
        "ar"
      ],
      [
        "Ġ",
        "isso"
      ],
      [
        "Ġen",
        "volve"
      ],
      [
        "Ġar",
        "quivos"
      ],
      [
        "Ġli",
        "da"
      ],
      [
        "Ġobserva",
        "do"
      ],
      [
        "Ġcomp",
        "reender"
      ],
      [
        "Ġlida",
        "mos"
      ],
      [
        "Ġle",
        "i"
      ],
      [
        "Ġte",
        "s"
      ],
      [
        "m",
        "i"
      ],
      [
        "bi",
        "lidade"
      ],
      [
        "Ġp",
        "la"
      ],
      [
        "na",
        "l"
      ],
      [
        "Ġp",
        "a"
      ],
      [
        "<",
        "par"
      ],
      [
        "<par",
        ">"
      ],
      [
        "Ġpe",
        "qu"
      ],
      [
        "Ġmensa",
        "gens"
      ],
      [
        "Ġa",
        "va"
      ],
      [
        "Ġinte",
        "r"
      ],
      [
        "t",
        "Ã³ri"
      ],
      [
        "ma",
        "Ã§Ã£o"
      ],
      [
        "Ġde",
        "ve"
      ],
      [
        "Ġq",
        "uan"
      ],
      [
        "po",
        "n"
      ],
      [
        "ti",
        "l"
      ],
      [
        "Ġf",
        "ra"
      ],
      [
        "i",
        "n"
      ],
      [
        "Ġd",
        "is"
      ],
      [
        "ra",
        "Ã§Ãµes"
      ],
      [
        "Ġ",
        "U"
      ],
      [
        "Ġin",
        "i"
      ],
      [
        "Ġini",
        "cia"
      ],
      [
        "Ġconfigu",
        "raÃ§Ãµes"
      ],
      [
        "Ġquan",
        "to"
      ],
      [
        "Ġca",
        "sa"
      ],
      [
        "Ġ",
        "5"
      ],
      [
        "Ġo",
        "n"
      ],
      [
        "Ġta",
        "nto"
      ],
      [
        "Ġa",
        "os"
      ],
      [
        "Ġestu",
        "dar"
      ],
      [
        "Ġre",
        "cu"
      ],
      [
        "Ġinicia",
        "ntes"
      ],
      [
        "u",
        "l"
      ],
      [
        "Ġs",
        "Ã£o"
      ],
      [
        "ĠcomeÃ§",
        "ar"
      ],
      [
        "ĠP",
        "ara"
      ],
      [
        "Ġres",
        "pon"
      ],
      [
        "v",
        "er"
      ],
      [
        "s",
        "os"
      ],
      [
        "Ġu",
        "sa"
      ],
      [
        "Ġpo",
        "u"
      ],
      [
        "Ġpou",
        "cos"
      ],
      [
        "mb",
        "Ã©m"
      ],
      [
        "Ã¡",
        "ve"
      ],
      [
        "Ġfa",
        "lhas"
      ],
      [
        "v",
        "o"
      ],
      [
        "Ġre",
        "de"
      ],
      [
        "Ġava",
        "nÃ§"
      ],
      [
        "Ġtex",
        "to"
      ],
      [
        "Ġide",
        "al"
      ],
      [
        "Ġf",
        "i"
      ],
      [
        "ĠavanÃ§",
        "ar"
      ],
      [
        "Ġta",
        "mbÃ©m"
      ],
      [
        "Ġcom",
        "o"
      ],
      [
        "li",
        "ne"
      ],
      [
        "Ġ",
        "Ãº"
      ],
      [
        "Ġon",
        "line"
      ],
      [
        "Ġcompar",
        "ar"
      ],
      [
        "Ġ",
        "6"
      ],
      [
        "Ġcomun",
        "ica"
      ],
      [
        "Ġcon",
        "s"
      ],
      [
        "Ġper",
        "ce"
      ],
      [
        "Ġcomunica",
        "Ã§Ã£o"
      ],
      [
        "du",
        "z"
      ],
      [
        "si",
        "de"
      ],
      [
        "Ġ",
        "7"
      ],
      [
        "Ġ",
        "ve"
      ],
      [
        "tra",
        "s"
      ],
      [
        "Ġ",
        "Ã"
      ],
      [
        "Ġ",
        "r"
      ],
      [
        "Ġtes",
        "tar"
      ],
      [
        "vi",
        "da"
      ],
      [
        "z",
        "a"
      ],
      [
        "ĠÃº",
        "til"
      ],
      [
        "Ġv",
        "er"
      ],
      [
        "Ġ",
        "to"
      ],
      [
        "Ġli",
        "n"
      ],
      [
        "s",
        "Ãµes"
      ],
      [
        "s",
        "tu"
      ],
      [
        "cri",
        "ta"
      ],
      [
        "ti",
        "do"
      ],
      [
        "ni",
        "tor"
      ],
      [
        "Ġmo",
        "nitor"
      ],
      [
        "ni",
        "co"
      ],
      [
        "z",
        "ar"
      ],
      [
        "Ġsen",
        "tido"
      ],
      [
        "h",
        "a"
      ],
      [
        "Ġclar",
        "o"
      ],
      [
        "v",
        "is"
      ],
      [
        "Ġr",
        "is"
      ],
      [
        "er",
        "ra"
      ],
      [
        "t",
        "ro"
      ],
      [
        "Ġ",
        "8"
      ],
      [
        "Ġris",
        "cos"
      ],
      [
        "g",
        "em"
      ],
      [
        "erra",
        "men"
      ],
      [
        "Ġobserv",
        "ar"
      ],
      [
        "Ġsolu",
        "Ã§Ã£o"
      ],
      [
        "x",
        "i"
      ],
      [
        "erramen",
        "tas"
      ],
      [
        "â",
        "Ģ"
      ],
      [
        "mp",
        "o"
      ],
      [
        "Ġ",
        "9"
      ],
      [
        "b",
        "er"
      ],
      [
        "Ġ",
        "T"
      ],
      [
        "Ġlei",
        "tura"
      ],
      [
        "Ġdocumen",
        "taÃ§Ã£o"
      ],
      [
        "a",
        "n"
      ],
      [
        "tr",
        "u"
      ],
      [
        "Ġinf",
        "orma"
      ],
      [
        "Ġob",
        "j"
      ],
      [
        "t",
        "s"
      ],
      [
        "po",
        "is"
      ],
      [
        "Ġ",
        "I"
      ],
      [
        "ĠU",
        "m"
      ],
      [
        "Ġre",
        "vis"
      ],
      [
        "Ġte",
        "mpo"
      ],
      [
        "Ġde",
        "pois"
      ],
      [
        "Ġ",
        "lo"
      ],
      [
        "u",
        "tenÃ§Ã£o"
      ],
      [
        "f",
        "t"
      ],
      [
        "w",
        "are"
      ],
      [
        "d",
        "r"
      ],
      [
        "Ġ",
        "F"
      ],
      [
        "vi",
        "dade"
      ],
      [
        "Ġo",
        "per"
      ],
      [
        "Ġes",
        "crita"
      ],
      [
        "pos",
        "i"
      ],
      [
        "Ġal",
        "te"
      ],
      [
        "Ã¡ve",
        "l"
      ],
      [
        "ft",
        "ware"
      ],
      [
        "ĠhÃ¡",
        "bi"
      ],
      [
        "Ġ",
        "ro"
      ],
      [
        "Ġve",
        "z"
      ],
      [
        "Ġproble",
        "ma"
      ],
      [
        "Ġso",
        "ftware"
      ],
      [
        "Ġpa",
        "dr"
      ],
      [
        "e",
        "b"
      ],
      [
        "Ġcon",
        "side"
      ],
      [
        "nÃ§",
        "as"
      ],
      [
        "Ġperce",
        "ber"
      ],
      [
        "Ġma",
        "n"
      ],
      [
        "men",
        "tos"
      ],
      [
        "Ġconside",
        "ra"
      ],
      [
        "Ġin",
        "di"
      ],
      [
        "Ġpequ",
        "enas"
      ],
      [
        "g",
        "ua"
      ],
      [
        "Ġauto",
        "maÃ§Ã£o"
      ],
      [
        "Ġap",
        "enas"
      ],
      [
        "or",
        "a"
      ],
      [
        "Ã¡ri",
        "os"
      ],
      [
        "Ġpr",
        "Ã³"
      ],
      [
        "Ġobj",
        "eti"
      ],
      [
        "Ġ",
        "w"
      ],
      [
        "Ã",
        "´"
      ],
      [
        "Ġpadr",
        "Ãµes"
      ],
      [
        "Ġproc",
        "es"
      ],
      [
        "Ġdifere",
        "ntes"
      ],
      [
        "Ġou",
        "tras"
      ],
      [
        "Ġpro",
        "gra"
      ],
      [
        "ti",
        "fi"
      ],
      [
        "Ġrevis",
        "Ã£o"
      ],
      [
        "Ġd",
        "Ãº"
      ],
      [
        "posi",
        "tivos"
      ],
      [
        "ĠdÃº",
        "vida"
      ],
      [
        "Ġap",
        "re"
      ],
      [
        "to",
        "res"
      ],
      [
        "Ġaplica",
        "tivos"
      ],
      [
        "Ġw",
        "eb"
      ],
      [
        "p",
        "e"
      ],
      [
        "ĠÃ",
        "ī"
      ],
      [
        "Ġman",
        "utenÃ§Ã£o"
      ],
      [
        "t",
        "re"
      ],
      [
        "Ġpesso",
        "as"
      ],
      [
        "Ġco",
        "stu"
      ],
      [
        "Ġobjeti",
        "vo"
      ],
      [
        "Ġcostu",
        "ma"
      ],
      [
        "Ġm",
        "uda"
      ],
      [
        "Ġdes",
        "de"
      ],
      [
        "Ġde",
        "cis"
      ],
      [
        "ĠE",
        "m"
      ],
      [
        "Ġfun",
        "ciona"
      ],
      [
        "Ġpr",
        "i"
      ],
      [
        "Ġex",
        "ce"
      ],
      [
        "Ġb",
        "om"
      ],
      [
        "Ġpas",
        "so"
      ],
      [
        "tu",
        "do"
      ],
      [
        "ĠcomeÃ§",
        "o"
      ],
      [
        "s",
        "Ã¡vel"
      ],
      [
        "Ġ",
        "W"
      ],
      [
        "Ġrespon",
        "sÃ¡vel"
      ],
      [
        "Ġconsidera",
        "da"
      ],
      [
        "Ġmuda",
        "nÃ§as"
      ],
      [
        "Ġre",
        "duz"
      ],
      [
        "Ġ",
        "vi"
      ],
      [
        "Ġexce",
        "Ã§Ãµes"
      ],
      [
        "Ġalte",
        "rar"
      ],
      [
        "Ġ",
        "tudo"
      ],
      [
        "Ġusa",
        "das"
      ],
      [
        "Ġcon",
        "tas"
      ],
      [
        "ma",
        "das"
      ],
      [
        "ĠhÃ¡bi",
        "to"
      ],
      [
        "t",
        "ros"
      ],
      [
        "s",
        "Ã£o"
      ],
      [
        "h",
        "as"
      ],
      [
        "Ġper",
        "da"
      ],
      [
        "Ġer",
        "ro"
      ],
      [
        "m",
        "is"
      ],
      [
        "xi",
        "mo"
      ],
      [
        "do",
        "r"
      ],
      [
        "Ã©",
        "c"
      ],
      [
        "Ġdecis",
        "Ãµes"
      ],
      [
        "Ġindi",
        "car"
      ],
      [
        "Ġe",
        "qui"
      ],
      [
        "Ġt",
        "Ã©c"
      ],
      [
        "Ġna",
        "ve"
      ],
      [
        "Ġnave",
        "ga"
      ],
      [
        "ĠprÃ³",
        "ximo"
      ],
      [
        "Ġfunciona",
        "m"
      ],
      [
        "Ġper",
        "mis"
      ],
      [
        "Ġto",
        "madas"
      ],
      [
        "Ġle",
        "mb"
      ],
      [
        "ĠF",
        "erramentas"
      ],
      [
        "Ġpermis",
        "sÃµes"
      ],
      [
        "Ġlemb",
        "rar"
      ],
      [
        "l",
        "as"
      ],
      [
        "ca",
        "s"
      ],
      [
        "Ġa",
        "ten"
      ],
      [
        "Ġo",
        "s"
      ],
      [
        "c",
        "es"
      ],
      [
        "en",
        "ta"
      ],
      [
        "Ġe",
        "le"
      ],
      [
        "Ġdis",
        "positivos"
      ],
      [
        "Ġ",
        "l"
      ],
      [
        "Ġrecu",
        "r"
      ],
      [
        "ĠbÃ¡si",
        "ca"
      ],
      [
        "Ġestuda",
        "nte"
      ],
      [
        "s",
        "es"
      ],
      [
        "z",
        "en"
      ],
      [
        "Ġar",
        "ma"
      ],
      [
        "Ġarma",
        "zen"
      ],
      [
        "ĠtÃ©c",
        "nico"
      ],
      [
        "Ġfra",
        "se"
      ],
      [
        "Ġvi",
        "r"
      ],
      [
        "Ġq",
        "ua"
      ],
      [
        "Ġa",
        "o"
      ],
      [
        "c",
        "re"
      ],
      [
        "Ġ",
        "("
      ],
      [
        "f",
        "orma"
      ],
      [
        "Ġarmazen",
        "amento"
      ],
      [
        "Ġdo",
        "m"
      ],
      [
        "Ġa",
        "n"
      ],
      [
        "Ġm",
        "os"
      ],
      [
        "Ġ",
        "ce"
      ],
      [
        "Ġrede",
        "s"
      ],
      [
        "ne",
        "t"
      ],
      [
        "ti",
        "vidade"
      ],
      [
        "Ġmos",
        "tra"
      ],
      [
        "Ġres",
        "pos"
      ],
      [
        "Ġre",
        "gra"
      ],
      [
        "te",
        "s"
      ],
      [
        "la",
        "b"
      ],
      [
        "Ġe",
        "di"
      ],
      [
        "l",
        "os"
      ],
      [
        "ci",
        "dade"
      ],
      [
        "di",
        "mento"
      ],
      [
        "Ġvir",
        "tua"
      ],
      [
        "Ġce",
        "lu"
      ],
      [
        "Ã¡",
        "l"
      ],
      [
        "ma",
        "n"
      ],
      [
        "Ġlo",
        "j"
      ],
      [
        "Ġrespos",
        "tas"
      ],
      [
        "Ġaten",
        "dimento"
      ],
      [
        "j",
        "e"
      ],
      [
        "Ġes",
        "cre"
      ],
      [
        "Ġco",
        "r"
      ],
      [
        "p",
        "a"
      ],
      [
        "Ġs",
        "u"
      ],
      [
        "tru",
        "tura"
      ],
      [
        "tr",
        "Ã´"
      ],
      [
        "Ġv",
        "ar"
      ],
      [
        "Ġv",
        "is"
      ],
      [
        "Ġele",
        "trÃ´"
      ],
      [
        "res",
        "enta"
      ],
      [
        "p",
        "i"
      ],
      [
        "Ġfra",
        "ses"
      ],
      [
        "ĠT",
        "I"
      ],
      [
        "Ġex",
        "p"
      ],
      [
        "Ġpas",
        "tas"
      ],
      [
        "or",
        "te"
      ],
      [
        "Ã©",
        "ri"
      ],
      [
        "Ġsiste",
        "ma"
      ],
      [
        "ciona",
        "is"
      ],
      [
        "Ġoper",
        "a"
      ],
      [
        "Ġa",
        "tua"
      ],
      [
        "Ãª",
        "s"
      ],
      [
        "s",
        "tica"
      ],
      [
        "Ġdes",
        "en"
      ],
      [
        "Ã¡l",
        "is"
      ],
      [
        "Ġmo",
        "de"
      ],
      [
        "Ġrecur",
        "sos"
      ],
      [
        "Ġpequ",
        "en"
      ],
      [
        "R",
        "e"
      ],
      [
        "Ã¡lis",
        "e"
      ],
      [
        "Ġ",
        "Ã¡"
      ],
      [
        "r",
        "Ã¡"
      ],
      [
        "tÃ³ri",
        "os"
      ],
      [
        "Ġatua",
        "li"
      ],
      [
        "i",
        "to"
      ],
      [
        "g",
        "n"
      ],
      [
        "Ġpro",
        "te"
      ],
      [
        "Ġen",
        "tre"
      ],
      [
        "ÃŃ",
        "n"
      ],
      [
        "Ġrecu",
        "per"
      ],
      [
        "Ġproces",
        "sos"
      ],
      [
        "j",
        "unto"
      ],
      [
        "qu",
        "is"
      ],
      [
        "va",
        "cidade"
      ],
      [
        "Ġpro",
        "je"
      ],
      [
        "i",
        "f"
      ],
      [
        "Ġv",
        "ÃŃ"
      ],
      [
        "Ã©ri",
        "cos"
      ],
      [
        "Ġi",
        "ma"
      ],
      [
        "P",
        "I"
      ],
      [
        "tÃ³ri",
        "o"
      ],
      [
        "resenta",
        "Ã§Ãµes"
      ],
      [
        "Ġan",
        "Ã¡lise"
      ],
      [
        "Ġprogra",
        "mas"
      ],
      [
        "Ġopera",
        "cionais"
      ],
      [
        "Ġsen",
        "has"
      ],
      [
        "Ġmonitor",
        "amento"
      ],
      [
        "tu",
        "gu"
      ],
      [
        "PI",
        "s"
      ],
      [
        "eÃ§",
        "as"
      ],
      [
        "ni",
        "lhas"
      ],
      [
        "if",
        "Ã©ricos"
      ],
      [
        "de",
        "s"
      ],
      [
        "Ġpor",
        "tugu"
      ],
      [
        "Ġlin",
        "gua"
      ],
      [
        "ra",
        "s"
      ],
      [
        "Ġportugu",
        "Ãªs"
      ],
      [
        "Ġtex",
        "tos"
      ],
      [
        "Ġima",
        "gens"
      ],
      [
        "Ġesco",
        "la"
      ],
      [
        "ua",
        "l"
      ],
      [
        "v",
        "en"
      ],
      [
        "rÃ¡",
        "fi"
      ],
      [
        "Ġproje",
        "to"
      ],
      [
        "t",
        "ri"
      ],
      [
        "Ġda",
        "s"
      ],
      [
        "Ġescre",
        "ver"
      ],
      [
        "fi",
        "a"
      ],
      [
        "m",
        "e"
      ],
      [
        "n",
        "tro"
      ],
      [
        "âĢ",
        "Ŀ"
      ],
      [
        "Ġ",
        "âĢ"
      ],
      [
        "ĠâĢ",
        "ľ"
      ],
      [
        "gra",
        "fia"
      ],
      [
        "Ġg",
        "rÃ¡fi"
      ],
      [
        "x",
        "os"
      ],
      [
        "cia",
        "l"
      ],
      [
        "tifi",
        "ca"
      ],
      [
        "C",
        "o"
      ],
      [
        "di",
        "o"
      ],
      [
        "er",
        "Ãªncia"
      ],
      [
        "Ġvar",
        "i"
      ],
      [
        "Ġe",
        "mp"
      ],
      [
        "ĠW",
        "i"
      ],
      [
        "Ġinte",
        "gra"
      ],
      [
        "a",
        "dores"
      ],
      [
        "n",
        "c"
      ],
      [
        "Ġqua",
        "lidade"
      ],
      [
        "to",
        "grafia"
      ],
      [
        "Ġpequen",
        "a"
      ],
      [
        "Ġinter",
        "pre"
      ],
      [
        "Ġinforma",
        "Ã§Ãµes"
      ],
      [
        "or",
        "i"
      ],
      [
        "quis",
        "i"
      ],
      [
        "ĠgrÃ¡fi",
        "cos"
      ],
      [
        "er",
        "gia"
      ],
      [
        "Ġen",
        "ergia"
      ],
      [
        "Ġca",
        "b"
      ],
      [
        "Ġ",
        "L"
      ],
      [
        "p",
        "es"
      ],
      [
        "Ġf",
        "orm"
      ],
      [
        "Ġc",
        "ri"
      ],
      [
        "m",
        "er"
      ],
      [
        "Ã³",
        "pi"
      ],
      [
        "cri",
        "p"
      ],
      [
        "Ġre",
        "quisi"
      ],
      [
        "F",
        "i"
      ],
      [
        "Ġro",
        "te"
      ],
      [
        "Ġintegra",
        "Ã§Ã£o"
      ],
      [
        "u",
        "dio"
      ],
      [
        "Ġvis",
        "ual"
      ],
      [
        "m",
        "Ã¡tica"
      ],
      [
        "Ġservi",
        "dores"
      ],
      [
        "Ġinterpre",
        "taÃ§Ã£o"
      ],
      [
        "ĠÃ¡",
        "udio"
      ],
      [
        "I",
        "nte"
      ],
      [
        "Ġs",
        "crip"
      ],
      [
        "Ġrote",
        "adores"
      ],
      [
        "Ġ",
        "S"
      ],
      [
        "Ġnavega",
        "dores"
      ],
      [
        "Ġscrip",
        "ts"
      ],
      [
        "n",
        "di"
      ],
      [
        "Ġpro",
        "du"
      ],
      [
        "Ġg",
        "ol"
      ],
      [
        "Ġform",
        "ul"
      ],
      [
        "Ġgol",
        "pes"
      ],
      [
        "Ġformul",
        "Ã¡rios"
      ],
      [
        "Ġdesen",
        "vol"
      ],
      [
        "Ġsitua",
        "Ã§Ã£o"
      ],
      [
        "Ġb",
        "o"
      ],
      [
        "i",
        "x"
      ],
      [
        "ta",
        "forma"
      ],
      [
        "Ġpla",
        "taforma"
      ],
      [
        "Ġemp",
        "re"
      ],
      [
        "Ã©",
        "r"
      ],
      [
        "Ġin",
        "s"
      ],
      [
        "za",
        "do"
      ],
      [
        "Ġdesenvol",
        "vi"
      ],
      [
        "Ġempre",
        "sa"
      ],
      [
        "Ġpri",
        "vacidade"
      ],
      [
        "Ġinter",
        "f"
      ],
      [
        "Ġco",
        "nte"
      ],
      [
        "g",
        "Ãªncia"
      ],
      [
        "ti",
        "na"
      ],
      [
        "Ġ",
        "D"
      ],
      [
        "Ġpessoa",
        "l"
      ],
      [
        "v",
        "as"
      ],
      [
        "Ġvirtua",
        "l"
      ],
      [
        "Ġservi",
        "dor"
      ],
      [
        "lab",
        "ora"
      ],
      [
        "Ġco",
        "man"
      ],
      [
        "Ġcor",
        "ri"
      ],
      [
        "h",
        "o"
      ],
      [
        "Ġn",
        "Ãº"
      ],
      [
        "ĠA",
        "PIs"
      ],
      [
        "Ġcelu",
        "lar"
      ],
      [
        "Ġper",
        "ifÃ©ricos"
      ],
      [
        "Ġpla",
        "nilhas"
      ],
      [
        "Ġedi",
        "tores"
      ],
      [
        "Ġequi",
        "pe"
      ],
      [
        "Ġ",
        "labora"
      ],
      [
        "Ġp",
        "eÃ§as"
      ],
      [
        "Ġpr",
        "in"
      ],
      [
        "Ġap",
        "resentaÃ§Ãµes"
      ],
      [
        "Ġloj",
        "a"
      ],
      [
        "Ġlabora",
        "tÃ³rio"
      ],
      [
        "ci",
        "p"
      ],
      [
        "Ġro",
        "tina"
      ],
      [
        "Ġdom",
        "Ã©"
      ],
      [
        "ĠdomÃ©",
        "stica"
      ],
      [
        "Ġal",
        "g"
      ],
      [
        "n",
        "s"
      ],
      [
        "ĠnÃº",
        "mer"
      ],
      [
        "e",
        "x"
      ],
      [
        "Ġdesenvolvi",
        "mento"
      ],
      [
        "Ġc",
        "ha"
      ],
      [
        "Ġapre",
        "nder"
      ],
      [
        "Ġi",
        "mpl"
      ],
      [
        "ti",
        "m"
      ],
      [
        "us",
        "ten"
      ],
      [
        "usten",
        "ta"
      ],
      [
        "ndi",
        "zado"
      ],
      [
        "Ġinforma",
        "Ã§Ã£o"
      ],
      [
        "Ġprin",
        "cip"
      ],
      [
        "z",
        "aÃ§Ã£o"
      ],
      [
        "Ġapre",
        "ndizado"
      ],
      [
        "c",
        "en"
      ],
      [
        "t",
        "Ã£o"
      ],
      [
        "mi",
        "nal"
      ],
      [
        "a",
        "m"
      ],
      [
        "Ġinter",
        "net"
      ],
      [
        "la",
        "do"
      ],
      [
        "a",
        "do"
      ],
      [
        "p",
        "en"
      ],
      [
        "u",
        "p"
      ],
      [
        "Ġde",
        "ntro"
      ],
      [
        "n",
        "ha"
      ],
      [
        "ve",
        "is"
      ],
      [
        "p",
        "ri"
      ],
      [
        "Ġprincip",
        "al"
      ],
      [
        "i",
        "l"
      ],
      [
        "Ġcompar",
        "aÃ§Ã£o"
      ],
      [
        "g",
        "o"
      ],
      [
        "Ã³",
        "gi"
      ],
      [
        "Ġ",
        "H"
      ],
      [
        "di",
        "a"
      ],
      [
        "Ġcon",
        "tr"
      ],
      [
        "li",
        "gÃªncia"
      ],
      [
        "Ġ1",
        "9"
      ],
      [
        "Ġa",
        "tividade"
      ],
      [
        "si",
        "o"
      ],
      [
        "ĠnÃºmer",
        "o"
      ],
      [
        "me",
        "i"
      ],
      [
        "nal",
        "is"
      ],
      [
        "Ġatividade",
        "s"
      ],
      [
        "Ġ",
        "ga"
      ],
      [
        "Ġ2",
        "0"
      ],
      [
        "P",
        "ro"
      ],
      [
        "ne",
        "j"
      ],
      [
        "Ġre",
        "f"
      ],
      [
        "Ġpas",
        "sa"
      ],
      [
        "Ġre",
        "al"
      ],
      [
        "ti",
        "mi"
      ],
      [
        "Ġpla",
        "nej"
      ],
      [
        "ori",
        "t"
      ],
      [
        "Ġcontr",
        "ol"
      ],
      [
        "s",
        "ti"
      ],
      [
        "Ġusu",
        "Ã¡rios"
      ],
      [
        "Ġpri",
        "mei"
      ],
      [
        "Ġpar",
        "ti"
      ],
      [
        "ri",
        "n"
      ],
      [
        "tifi",
        "cial"
      ],
      [
        "i",
        "r"
      ],
      [
        "Ġm",
        "en"
      ],
      [
        "Ġm",
        "em"
      ],
      [
        "Ġo",
        "timi"
      ],
      [
        "ma",
        "ti"
      ],
      [
        "Ġa",
        "nalis"
      ],
      [
        "Inte",
        "r"
      ],
      [
        "ni",
        "cas"
      ],
      [
        "Ġalg",
        "orit"
      ],
      [
        "Ġar",
        "tificial"
      ],
      [
        "Ġde",
        "pen"
      ],
      [
        "Ġdepen",
        "de"
      ],
      [
        "i",
        "fi"
      ],
      [
        "ma",
        "il"
      ],
      [
        "Ġ",
        "gra"
      ],
      [
        "Ġno",
        "tar"
      ],
      [
        "Ġconte",
        "Ãº"
      ],
      [
        "Ġimpl",
        "an"
      ],
      [
        "Ġga",
        "nha"
      ],
      [
        "Ġcon",
        "ex"
      ],
      [
        "ti",
        "lh"
      ],
      [
        "Ġins",
        "ta"
      ],
      [
        "g",
        "er"
      ],
      [
        "Ġimplan",
        "taÃ§Ã£o"
      ],
      [
        "tado",
        "s"
      ],
      [
        "ÃŃ",
        "ni"
      ],
      [
        "Ġen",
        "tra"
      ],
      [
        "Ġcompar",
        "tilh"
      ],
      [
        "g",
        "s"
      ],
      [
        "Ġc",
        "ar"
      ],
      [
        "Ġm",
        "Ã³"
      ],
      [
        "ÃŃ",
        "si"
      ],
      [
        "ĠconteÃº",
        "do"
      ],
      [
        "Ġauto",
        "mati"
      ],
      [
        "p",
        "tografia"
      ],
      [
        "Ġver",
        "sÃ£o"
      ],
      [
        "cen",
        "Ã§"
      ],
      [
        "ĠA",
        "s"
      ],
      [
        "Ġconex",
        "Ãµes"
      ],
      [
        "o",
        "ver"
      ],
      [
        "Ġver",
        "ifi"
      ],
      [
        "Ġf",
        "ÃŃsi"
      ],
      [
        "Ġorganiz",
        "ar"
      ],
      [
        "Ġequi",
        "pa"
      ],
      [
        "Ġoper",
        "aÃ§Ã£o"
      ],
      [
        "si",
        "bilidade"
      ],
      [
        "Ġrela",
        "tÃ³rios"
      ],
      [
        "Ġcons",
        "ciente"
      ],
      [
        "Ġs",
        "Ã³"
      ],
      [
        "Ġatuali",
        "zar"
      ],
      [
        "Ġotimi",
        "zar"
      ],
      [
        "Ġdo",
        "is"
      ],
      [
        "Ġrecuper",
        "ar"
      ],
      [
        "Ġcorri",
        "gir"
      ],
      [
        "Ġplanej",
        "ar"
      ],
      [
        "Ġequipa",
        "mentos"
      ],
      [
        "Ġautomati",
        "zar"
      ],
      [
        "Ġinsta",
        "lar"
      ],
      [
        "Ã³gi",
        "ca"
      ],
      [
        "a",
        "c"
      ],
      [
        "n",
        "as"
      ],
      [
        "Ġverifi",
        "car"
      ],
      [
        "Ġanalis",
        "ar"
      ],
      [
        "ĠI",
        "s"
      ],
      [
        "Ġco",
        "is"
      ],
      [
        "b",
        "e"
      ],
      [
        "n",
        "do"
      ],
      [
        "cenÃ§",
        "as"
      ],
      [
        "es",
        "trutura"
      ],
      [
        "Ã³ri",
        "a"
      ],
      [
        "over",
        "na"
      ],
      [
        "ÃŃ",
        "dia"
      ],
      [
        "Ã§",
        "a"
      ],
      [
        "ĠeletrÃ´",
        "nico"
      ],
      [
        "Ġfi",
        "o"
      ],
      [
        "ra",
        "estrutura"
      ],
      [
        "ĠmÃ³",
        "veis"
      ],
      [
        "a",
        "ces"
      ],
      [
        "Ã¡ve",
        "is"
      ],
      [
        "Ġcontrol",
        "ar"
      ],
      [
        "Ġcois",
        "as"
      ],
      [
        "Ã©r",
        "cio"
      ],
      [
        "Ġconec",
        "tar"
      ],
      [
        "Ġprote",
        "ger"
      ],
      [
        "ĠfÃŃsi",
        "cas"
      ],
      [
        "Ġmonitor",
        "ar"
      ],
      [
        "Ġcompartilh",
        "ar"
      ],
      [
        "Ġes",
        "trutura"
      ],
      [
        "Ġnavega",
        "Ã§Ã£o"
      ],
      [
        "Ġmem",
        "Ã³ria"
      ],
      [
        "overna",
        "nÃ§a"
      ],
      [
        "ĠeletrÃ´",
        "nicas"
      ],
      [
        "ul",
        "tim"
      ],
      [
        "ces",
        "sibilidade"
      ],
      [
        "ultim",
        "ÃŃdia"
      ],
      [
        "Ġter",
        "minal"
      ],
      [
        "v",
        "es"
      ],
      [
        "Ġdocumen",
        "tar"
      ],
      [
        "Ġconfigu",
        "rar"
      ],
      [
        "ustenta",
        "bilidade"
      ],
      [
        "Ġtes",
        "tes"
      ],
      [
        "Ġcon",
        "f"
      ],
      [
        "Ġproces",
        "sa"
      ],
      [
        "Ġfun",
        "Ã§Ãµes"
      ],
      [
        "us",
        "ca"
      ],
      [
        "ĠvÃŃ",
        "r"
      ],
      [
        "Ã",
        "¢"
      ],
      [
        "Ġmode",
        "los"
      ],
      [
        "Ġou",
        "tros"
      ],
      [
        "Ġentra",
        "da"
      ],
      [
        "Ġb",
        "usca"
      ],
      [
        "ÃŃni",
        "o"
      ],
      [
        "ĠA",
        "n"
      ],
      [
        "tru",
        "Ã§Ã£o"
      ],
      [
        "ĠIs",
        "so"
      ],
      [
        "Ġli",
        "v"
      ],
      [
        "Ġtex",
        "tua"
      ],
      [
        "or",
        "Ã§a"
      ],
      [
        "Ġpro",
        "duz"
      ],
      [
        "Ġcon",
        "t"
      ],
      [
        "Ġas",
        "si"
      ],
      [
        "Ġl",
        "Ã³gica"
      ],
      [
        "Ġprimei",
        "ra"
      ],
      [
        "ĠEs",
        "sa"
      ],
      [
        "Ġv",
        "o"
      ],
      [
        "la",
        "res"
      ],
      [
        "ti",
        "vas"
      ],
      [
        "Ġpo",
        "l"
      ],
      [
        "Ġpo",
        "n"
      ],
      [
        "Ġtra",
        "ns"
      ],
      [
        "Ġref",
        "orÃ§a"
      ],
      [
        "tua",
        "Ã§Ã£o"
      ],
      [
        "Ġv",
        "al"
      ],
      [
        "e",
        "t"
      ],
      [
        "Ġli",
        "ga"
      ],
      [
        "Ġdom",
        "ÃŃnio"
      ],
      [
        "Ġalgorit",
        "mos"
      ],
      [
        "is",
        "tas"
      ],
      [
        "na",
        "mento"
      ],
      [
        "Ġdo",
        "s"
      ],
      [
        "ÃŃ",
        "tica"
      ],
      [
        "Ġlingua",
        "gens"
      ],
      [
        "Ġlei",
        "tor"
      ],
      [
        "Ġf",
        "orte"
      ],
      [
        "Ġc",
        "er"
      ],
      [
        "Ġre",
        "g"
      ],
      [
        "per",
        "i"
      ],
      [
        "d",
        "ro"
      ],
      [
        "fi",
        "ca"
      ],
      [
        "Ġqu",
        "em"
      ],
      [
        "Ġcont",
        "ÃŃn"
      ],
      [
        "Ġb",
        "an"
      ],
      [
        "Ġpro",
        "pri"
      ],
      [
        "i",
        "d"
      ],
      [
        "a",
        "dos"
      ],
      [
        "o",
        "res"
      ],
      [
        "ÃŃn",
        "gua"
      ],
      [
        "Ġproduz",
        "ir"
      ],
      [
        "9",
        "9"
      ],
      [
        "Ġ1",
        "0"
      ],
      [
        "Ġl",
        "ÃŃngua"
      ],
      [
        "Ġlingua",
        "gem"
      ],
      [
        "Ġe",
        "fe"
      ],
      [
        "u",
        "x"
      ],
      [
        "in",
        "do"
      ],
      [
        "Ġvari",
        "Ã¡veis"
      ],
      [
        "ĠcontÃŃn",
        "ua"
      ],
      [
        "Ġcons",
        "truÃ§Ã£o"
      ],
      [
        "Ġprogra",
        "maÃ§Ã£o"
      ],
      [
        "Ġauto",
        "mÃ¡tica"
      ],
      [
        "da",
        "dos"
      ],
      [
        "ci",
        "entes"
      ],
      [
        "sti",
        "co"
      ],
      [
        "m",
        "es"
      ],
      [
        "ĠL",
        "in"
      ],
      [
        "Ġc",
        "Ã©"
      ],
      [
        "7",
        "5"
      ],
      [
        "Ġco",
        "le"
      ],
      [
        "dro",
        "id"
      ],
      [
        "2",
        "0"
      ],
      [
        "Ġcon",
        "su"
      ],
      [
        "Ġt",
        "ro"
      ],
      [
        "Ã³",
        "r"
      ],
      [
        "Ġprincipal",
        "mente"
      ],
      [
        "ĠAn",
        "droid"
      ],
      [
        "Ġpol",
        "ÃŃtica"
      ],
      [
        "k",
        "s"
      ],
      [
        "7",
        "1"
      ],
      [
        "p",
        "Ã§Ã£o"
      ],
      [
        "ci",
        "c"
      ],
      [
        "Ġf",
        "erramentas"
      ],
      [
        "ĠU",
        "ma"
      ],
      [
        "Ġlin",
        "has"
      ],
      [
        "4",
        "3"
      ],
      [
        "es",
        "tÃ£o"
      ],
      [
        "Ġcui",
        "dados"
      ],
      [
        "2",
        "3"
      ],
      [
        "8",
        "3"
      ],
      [
        "Ã",
        "£"
      ],
      [
        "Ġaparece",
        "m"
      ],
      [
        "Ġh",
        "is"
      ],
      [
        "Ġf",
        "lu"
      ],
      [
        "Ġexp",
        "lica"
      ],
      [
        "Ġe",
        "ven"
      ],
      [
        "to",
        "co"
      ],
      [
        "ac",
        "k"
      ],
      [
        "6",
        "3"
      ],
      [
        "Ġcon",
        "tra"
      ],
      [
        "la",
        "v"
      ],
      [
        "Ġpessoa",
        "is"
      ],
      [
        "Co",
        "mp"
      ],
      [
        "Ġprodu",
        "Ã§Ã£o"
      ],
      [
        "Ġescolh",
        "as"
      ],
      [
        "Ġpon",
        "tuaÃ§Ã£o"
      ],
      [
        "Ġreg",
        "is"
      ],
      [
        "Ġex",
        "ten"
      ],
      [
        "Ġqu",
        "er"
      ],
      [
        "Ġefe",
        "ito"
      ],
      [
        "Ġ",
        "junto"
      ],
      [
        "or",
        "aÃ§Ã£o"
      ],
      [
        "Ġpassa",
        "gem"
      ],
      [
        "Ġ",
        "vida"
      ],
      [
        "Ġde",
        "la"
      ],
      [
        "Ġex",
        "peri"
      ],
      [
        "iste",
        "mas"
      ],
      [
        "Ġforma",
        "r"
      ],
      [
        "ncia",
        "l"
      ],
      [
        "Ġfo",
        "co"
      ],
      [
        "E",
        "stu"
      ],
      [
        "âĢĿ",
        ","
      ],
      [
        "Ġestu",
        "dado"
      ],
      [
        "Ġorganiz",
        "ado"
      ],
      [
        "Ġcuidado",
        "sa"
      ],
      [
        "ĠcÃ©",
        "lu"
      ],
      [
        "Ġhis",
        "tÃ³ri"
      ],
      [
        "Ġ",
        "j"
      ],
      [
        "Ġservi",
        "r"
      ],
      [
        "Ġperce",
        "pÃ§Ã£o"
      ],
      [
        "Estu",
        "dar"
      ],
      [
        "Ġpro",
        "toco"
      ],
      [
        "Ġmode",
        "lo"
      ],
      [
        "s",
        "ora"
      ],
      [
        "Ġt",
        "re"
      ],
      [
        "Ġtrabalh",
        "am"
      ],
      [
        "Ġparti",
        "da"
      ],
      [
        "Ġ1",
        "6"
      ],
      [
        "Ġdocumen",
        "tos"
      ],
      [
        "O",
        "S"
      ],
      [
        "Ã¡",
        "gi"
      ],
      [
        "Ġobserva",
        "mos"
      ],
      [
        "Ġliga",
        "do"
      ],
      [
        "Ġp",
        "istas"
      ],
      [
        "la",
        "gem"
      ],
      [
        "Ġta",
        "be"
      ],
      [
        "Ġfi",
        "l"
      ],
      [
        "Re",
        "conhecer"
      ],
      [
        "t",
        "Ãµes"
      ],
      [
        "Ġcons",
        "cientes"
      ],
      [
        "Ġliv",
        "re"
      ],
      [
        "ĠautomÃ¡tica",
        "s"
      ],
      [
        "Comp",
        "reender"
      ],
      [
        "u",
        "se"
      ],
      [
        "Ġpa",
        "lav"
      ],
      [
        "Ġ",
        "ras"
      ],
      [
        "Ġfi",
        "nal"
      ],
      [
        "de",
        "o"
      ],
      [
        "Ġcon",
        "junto"
      ],
      [
        "Ġ4",
        "0"
      ],
      [
        "h",
        "es"
      ],
      [
        "w",
        "s"
      ],
      [
        "8",
        "5"
      ],
      [
        "Ġsi",
        "nal"
      ],
      [
        "8",
        "1"
      ],
      [
        "Ġ3",
        "6"
      ],
      [
        "Ġban",
        "cos"
      ],
      [
        "9",
        "5"
      ],
      [
        "Ġf",
        "Ã³r"
      ],
      [
        "Re",
        "des"
      ],
      [
        "2",
        "1"
      ],
      [
        "9",
        "1"
      ],
      [
        "2",
        "5"
      ],
      [
        "7",
        "0"
      ],
      [
        "Ġres",
        "pe"
      ],
      [
        "ca",
        "m"
      ],
      [
        "Ġprote",
        "Ã§Ã£o"
      ],
      [
        "m",
        "ul"
      ],
      [
        "Ġ4",
        "4"
      ],
      [
        "Ġprotoco",
        "los"
      ],
      [
        "g",
        "ri"
      ],
      [
        "ven",
        "Ã§Ã£o"
      ],
      [
        "Ġeven",
        "tos"
      ],
      [
        "so",
        "res"
      ],
      [
        "Ġb",
        "ra"
      ],
      [
        "iste",
        "ntes"
      ],
      [
        "Ġrespe",
        "ito"
      ],
      [
        "c",
        "s"
      ],
      [
        "ĠvÃŃ",
        "deo"
      ],
      [
        "ĠpolÃŃtica",
        "s"
      ],
      [
        "P",
        "S"
      ],
      [
        "Ġcon",
        "tras"
      ],
      [
        "po",
        "ni"
      ],
      [
        "Ġcha",
        "ves"
      ],
      [
        "Ġprocessa",
        "dor"
      ],
      [
        "c",
        "er"
      ],
      [
        "7",
        "3"
      ],
      [
        "Ġa",
        "ne"
      ],
      [
        "Ġinte",
        "ligÃªncia"
      ],
      [
        "Ġrequisi",
        "tos"
      ],
      [
        "niz",
        "aÃ§Ã£o"
      ],
      [
        "Ġcontras",
        "te"
      ],
      [
        "si",
        "vidade"
      ],
      [
        "Ġg",
        "estÃ£o"
      ],
      [
        "Ġdis",
        "poni"
      ],
      [
        "Ġrespon",
        "sa"
      ],
      [
        "Ġedi",
        "Ã§Ã£o"
      ],
      [
        "ĠcÃ©lu",
        "las"
      ],
      [
        "Ġp",
        "Ã¡gi"
      ],
      [
        "da",
        "mentos"
      ],
      [
        "si",
        "m"
      ],
      [
        "Ġimp",
        "res"
      ],
      [
        "Ġconec",
        "tados"
      ],
      [
        "Ġca",
        "ix"
      ],
      [
        "Ġno",
        "mes"
      ],
      [
        "indo",
        "ws"
      ],
      [
        "ĠW",
        "indows"
      ],
      [
        "gri",
        "dade"
      ],
      [
        "m",
        "Ã£"
      ],
      [
        "Ġb",
        "ack"
      ],
      [
        "Ġt",
        "Ã³pi"
      ],
      [
        "Ġatuali",
        "zaÃ§Ã£o"
      ],
      [
        "ĠH",
        "T"
      ],
      [
        "Ġcole",
        "ta"
      ],
      [
        "Ġexperi",
        "Ãªncia"
      ],
      [
        "Ġrecuper",
        "aÃ§Ã£o"
      ],
      [
        "Ġtro",
        "ca"
      ],
      [
        "Ġinte",
        "gridade"
      ],
      [
        "ĠLin",
        "ux"
      ],
      [
        "ĠpÃ¡gi",
        "nas"
      ],
      [
        "ĠI",
        "P"
      ],
      [
        "Ġcab",
        "eÃ§"
      ],
      [
        "e",
        "za"
      ],
      [
        "Ġconsu",
        "mo"
      ],
      [
        "Ġresponsa",
        "bilidade"
      ],
      [
        "lab",
        "oraÃ§Ã£o"
      ],
      [
        "ĠvÃŃr",
        "us"
      ],
      [
        "Ġtabe",
        "las"
      ],
      [
        "Ġpla",
        "ca"
      ],
      [
        "ĠAs",
        "sim"
      ],
      [
        "ĠhistÃ³ri",
        "co"
      ],
      [
        "Ġsi",
        "tes"
      ],
      [
        "Ġdes",
        "car"
      ],
      [
        "Ġcelu",
        "lares"
      ],
      [
        "gn",
        "Ã³"
      ],
      [
        "Ġmelhor",
        "ia"
      ],
      [
        "Ġregis",
        "tros"
      ],
      [
        "Ġes",
        "til"
      ],
      [
        "Ġsu",
        "p"
      ],
      [
        "Ġflu",
        "xos"
      ],
      [
        "gnÃ³",
        "stico"
      ],
      [
        "Ġsen",
        "sores"
      ],
      [
        "Ġpropri",
        "et"
      ],
      [
        "Ġdia",
        "gnÃ³stico"
      ],
      [
        "Ġinclu",
        "sÃ£o"
      ],
      [
        "Ġpa",
        "ga"
      ],
      [
        "Ġvirtua",
        "is"
      ],
      [
        "Ġcab",
        "os"
      ],
      [
        "Ġcer",
        "tifica"
      ],
      [
        "ĠtÃ³pi",
        "cos"
      ],
      [
        "Ġestil",
        "os"
      ],
      [
        "Ġsi",
        "gi"
      ],
      [
        "na",
        "tura"
      ],
      [
        "Ġta",
        "ble"
      ],
      [
        "Ġ5",
        "0"
      ],
      [
        "Ġras",
        "tre"
      ],
      [
        "er",
        "tas"
      ],
      [
        "Ġforma",
        "tos"
      ],
      [
        "Ġli",
        "mp"
      ],
      [
        "nc",
        "ro"
      ],
      [
        "Ġassi",
        "natura"
      ],
      [
        "Ġdisponi",
        "bilidade"
      ],
      [
        "Ġpropriet",
        "Ã¡rio"
      ],
      [
        "Ġtable",
        "ts"
      ],
      [
        "S",
        "istemas"
      ],
      [
        "Ġsi",
        "ncro"
      ],
      [
        "Ġte",
        "la"
      ],
      [
        "Ġtec",
        "lado"
      ],
      [
        "ĠfÃ³r",
        "mul"
      ],
      [
        "ĠHT",
        "T"
      ],
      [
        "Ġsigi",
        "lo"
      ],
      [
        "ĠfÃ³rmul",
        "as"
      ],
      [
        "Ġco",
        "laboraÃ§Ã£o"
      ],
      [
        "ĠA",
        "l"
      ],
      [
        "Ġdire",
        "tÃ³rios"
      ],
      [
        "Ġusa",
        "bilidade"
      ],
      [
        "Ġlin",
        "ks"
      ],
      [
        "Ġexp",
        "orta"
      ],
      [
        "Ġexten",
        "sÃµes"
      ],
      [
        "o",
        "n"
      ],
      [
        "de",
        "re"
      ],
      [
        "Ġap",
        "ar"
      ],
      [
        "Ġ1",
        "4"
      ],
      [
        "Ġass",
        "istentes"
      ],
      [
        "mi",
        "ts"
      ],
      [
        "Ġfil",
        "tros"
      ],
      [
        "Ġback",
        "up"
      ],
      [
        "Ġlimp",
        "eza"
      ],
      [
        "Ġsincro",
        "nizaÃ§Ã£o"
      ],
      [
        "Ġexporta",
        "Ã§Ã£o"
      ],
      [
        "Ġma",
        "c"
      ],
      [
        "Ġc",
        "Ã³pi"
      ],
      [
        "Ġpre",
        "venÃ§Ã£o"
      ],
      [
        "Pro",
        "gra"
      ],
      [
        "rin",
        "ho"
      ],
      [
        "mÃ£",
        "e"
      ],
      [
        "Ġapar",
        "Ãªncia"
      ],
      [
        "ĠcÃ³pi",
        "as"
      ],
      [
        "Ġco",
        "de"
      ],
      [
        "Ġre",
        "side"
      ],
      [
        "Ġloj",
        "as"
      ],
      [
        "Ġcoman",
        "do"
      ],
      [
        "Ġp",
        "os"
      ],
      [
        "Ġforma",
        "taÃ§Ã£o"
      ],
      [
        "Ġweb",
        "cam"
      ],
      [
        "Inter",
        "net"
      ],
      [
        "Ġbra",
        "nc"
      ],
      [
        "Ġcertifica",
        "dos"
      ],
      [
        "ĠHTT",
        "PS"
      ],
      [
        "li",
        "des"
      ],
      [
        "Ġcom",
        "mits"
      ],
      [
        "Ġno",
        "tifica"
      ],
      [
        "Ġmo",
        "use"
      ],
      [
        "gen",
        "das"
      ],
      [
        "Ġle",
        "gendas"
      ],
      [
        "Ġrepeti",
        "tivas"
      ],
      [
        "Ġlei",
        "tores"
      ],
      [
        "Ġinterf",
        "erÃªncia"
      ],
      [
        "sio",
        "namento"
      ],
      [
        "cic",
        "lagem"
      ],
      [
        "Ġane",
        "xos"
      ],
      [
        "ĠcabeÃ§",
        "alh"
      ],
      [
        "Ġdescar",
        "te"
      ],
      [
        "Ġpaga",
        "mentos"
      ],
      [
        "Ġrastre",
        "amento"
      ],
      [
        "Ġbackup",
        "s"
      ],
      [
        "Ġmac",
        "OS"
      ],
      [
        "Ġreside",
        "ncial"
      ],
      [
        "1",
        "3"
      ],
      [
        "5",
        "3"
      ],
      [
        "Ġa",
        "gen"
      ],
      [
        "Ġs",
        "lides"
      ],
      [
        "ta",
        "nte"
      ],
      [
        "Ġre",
        "ciclagem"
      ],
      [
        "Ġal",
        "ertas"
      ],
      [
        "Ġen",
        "dere"
      ],
      [
        "Ġrespon",
        "sividade"
      ],
      [
        "Ġver",
        "sionamento"
      ],
      [
        "Ġrequisi",
        "Ã§Ãµes"
      ],
      [
        "Ġbo",
        "tÃµes"
      ],
      [
        "Ġmen",
        "us"
      ],
      [
        "Ġcar",
        "rinho"
      ],
      [
        "Ġbusca",
        "dores"
      ],
      [
        "Ġimpres",
        "sora"
      ],
      [
        "Ġcaix",
        "as"
      ],
      [
        "Ġcode",
        "cs"
      ],
      [
        "Ġbranc",
        "hes"
      ],
      [
        "Ġnotifica",
        "Ã§Ãµes"
      ],
      [
        "ĠcabeÃ§alh",
        "os"
      ],
      [
        "Ġagen",
        "damentos"
      ],
      [
        "Ġendere",
        "Ã§os"
      ],
      [
        "Ġ2",
        "6"
      ],
      [
        "Ġ",
        "\""
      ],
      [
        "Ġ3",
        "4"
      ],
      [
        "Ġ",
        "B"
      ],
      [
        "9",
        "3"
      ],
      [
        "8",
        "0"
      ],
      [
        "Ġde",
        "si"
      ],
      [
        "3",
        "3"
      ],
      [
        "la",
        "re"
      ],
      [
        "s",
        "as"
      ],
      [
        "te",
        "r"
      ],
      [
        "Ġc",
        "lare"
      ],
      [
        "9",
        "0"
      ],
      [
        "Ġ",
        "G"
      ],
      [
        "Ġcon",
        "tro"
      ],
      [
        "8",
        "6"
      ],
      [
        "ĠÃ",
        "ł"
      ],
      [
        "Ġpalav",
        "ras"
      ],
      [
        "tri",
        "b"
      ],
      [
        "7",
        "4"
      ],
      [
        "Ġcontro",
        "le"
      ],
      [
        "2",
        "6"
      ],
      [
        "Ġcri",
        "ptografia"
      ],
      [
        "u",
        "r"
      ],
      [
        "ĠÃ©",
        "tica"
      ],
      [
        "Ġtrans",
        "forma"
      ],
      [
        "Ġsup",
        "orte"
      ],
      [
        "fi",
        "ni"
      ],
      [
        "Ġ1",
        "3"
      ],
      [
        "Ġa",
        "mpl"
      ],
      [
        "Ġ1",
        "2"
      ],
      [
        "Ġ2",
        "5"
      ],
      [
        "Ġ1",
        "7"
      ],
      [
        "Ġ2",
        "1"
      ],
      [
        "Ġs",
        "a"
      ],
      [
        "Ġn",
        "orma"
      ],
      [
        "Ġ4",
        "5"
      ],
      [
        "Ġ3",
        "2"
      ],
      [
        "Ġdesi",
        "gn"
      ],
      [
        "Ġ2",
        "8"
      ],
      [
        "Ġ3",
        "3"
      ],
      [
        "Ġ2",
        "9"
      ],
      [
        "Ġ4",
        "1"
      ],
      [
        "g",
        "e"
      ],
      [
        "Ġ3",
        "7"
      ],
      [
        "Ġ4",
        "8"
      ],
      [
        "9",
        "4"
      ],
      [
        "u",
        "ra"
      ],
      [
        "Ãª",
        "n"
      ],
      [
        "Ġli",
        "cenÃ§as"
      ],
      [
        "Ġ1",
        "1"
      ],
      [
        "Ġa",
        "d"
      ],
      [
        "6",
        "5"
      ],
      [
        "Ġinf",
        "raestrutura"
      ],
      [
        "Ġ1",
        "8"
      ],
      [
        "6",
        "1"
      ],
      [
        "Ġprodu",
        "tividade"
      ],
      [
        "Ġ1",
        "5"
      ],
      [
        "Ġf",
        "re"
      ],
      [
        "Ġcom",
        "Ã©rcio"
      ],
      [
        "Ġbo",
        "a"
      ],
      [
        "Ġinterf",
        "aces"
      ],
      [
        "Ġ2",
        "3"
      ],
      [
        "4",
        "5"
      ],
      [
        "Ġcoman",
        "dos"
      ],
      [
        "7",
        "8"
      ],
      [
        "Ġg",
        "overnanÃ§a"
      ],
      [
        "4",
        "1"
      ],
      [
        "Ġm",
        "ultimÃŃdia"
      ],
      [
        "Ġava",
        "li"
      ],
      [
        "Ġa",
        "cessibilidade"
      ],
      [
        "Ġ3",
        "5"
      ],
      [
        "Ġlo",
        "gs"
      ],
      [
        "Ġs",
        "ustentabilidade"
      ],
      [
        "Ġ3",
        "1"
      ],
      [
        "Ġ2",
        "2"
      ],
      [
        "Ġ3",
        "8"
      ],
      [
        "Ġ3",
        "9"
      ],
      [
        "Ġ4",
        "7"
      ],
      [
        "Ġde",
        "fini"
      ],
      [
        "Ġsu",
        "b"
      ],
      [
        "2",
        "2"
      ],
      [
        "6",
        "0"
      ],
      [
        "tri",
        "z"
      ],
      [
        "Ġampl",
        "ia"
      ],
      [
        "9",
        "8"
      ],
      [
        "b",
        "a"
      ],
      [
        "n",
        "o"
      ],
      [
        "Ġo",
        "ri"
      ],
      [
        "4",
        "0"
      ],
      [
        "ve",
        "l"
      ],
      [
        ")",
        "."
      ],
      [
        "4",
        "6"
      ],
      [
        "trib",
        "ui"
      ],
      [
        "ĠAl",
        "Ã©m"
      ],
      [
        "Ã´",
        "ni"
      ],
      [
        "or",
        "ia"
      ],
      [
        "men",
        "ta"
      ],
      [
        "Ġtextua",
        "l"
      ],
      [
        "Ġma",
        "triz"
      ],
      [
        "Ġvo",
        "ca"
      ],
      [
        "i",
        "as"
      ],
      [
        "a",
        "da"
      ],
      [
        "2",
        "7"
      ],
      [
        "Ġescolh",
        "a"
      ],
      [
        "ÃŃ",
        "stica"
      ],
      [
        "6",
        "6"
      ],
      [
        "Ã¡ri",
        "a"
      ],
      [
        "5",
        "1"
      ],
      [
        "u",
        "la"
      ],
      [
        "ÃŃ",
        "vel"
      ],
      [
        "Ġvari",
        "aÃ§Ã£o"
      ],
      [
        "ua",
        "s"
      ],
      [
        "Ġou",
        "tro"
      ],
      [
        "Ġc",
        "res"
      ],
      [
        "Ġde",
        "ix"
      ],
      [
        "Ġmensa",
        "gem"
      ],
      [
        "Ġre",
        "es"
      ],
      [
        "Ġide",
        "ia"
      ],
      [
        "a",
        "li"
      ],
      [
        "Ġ",
        "R"
      ],
      [
        "Ġ",
        "ti"
      ],
      [
        "Ġpro",
        "f"
      ],
      [
        "Ġregra",
        "s"
      ],
      [
        "Ġcon",
        "ver"
      ],
      [
        "Ġor",
        "tografia"
      ],
      [
        "Ġco",
        "erÃªncia"
      ],
      [
        "es",
        "Ã£o"
      ],
      [
        "Ġca",
        "l"
      ],
      [
        "Ġrees",
        "crita"
      ],
      [
        ")",
        ","
      ],
      [
        "Ġide",
        "ias"
      ],
      [
        "Ġp",
        "arece"
      ],
      [
        "Ġar",
        "gu"
      ],
      [
        "Ġconf",
        "us"
      ],
      [
        "Ġco",
        "esÃ£o"
      ],
      [
        "ar",
        "ra"
      ],
      [
        "5",
        "0"
      ],
      [
        "Ġdis",
        "tribui"
      ],
      [
        "7",
        "9"
      ],
      [
        "Ġal",
        "un"
      ],
      [
        "Ġm",
        "Ã¡"
      ],
      [
        "Ġcri",
        "a"
      ],
      [
        "ta",
        "lh"
      ],
      [
        "Ġcons",
        "tante"
      ],
      [
        "un",
        "tas"
      ],
      [
        "Ġcor",
        "re"
      ],
      [
        "Ġ",
        "ci"
      ],
      [
        "Ġcompl",
        "e"
      ],
      [
        "Ġde",
        "talh"
      ],
      [
        "Ġgra",
        "mÃ¡tica"
      ],
      [
        "Ġp",
        "are"
      ],
      [
        "Ġn",
        "arra"
      ],
      [
        "ti",
        "vo"
      ],
      [
        "Ġval",
        "or"
      ],
      [
        "Ġn",
        "e"
      ],
      [
        "Ġalun",
        "o"
      ],
      [
        "1",
        "1"
      ],
      [
        "7",
        "6"
      ],
      [
        "2",
        "4"
      ],
      [
        "9",
        "6"
      ],
      [
        "Ġ",
        "lado"
      ],
      [
        "in",
        "o"
      ],
      [
        "Ġb",
        "i"
      ],
      [
        "Ġfre",
        "quÃªncia"
      ],
      [
        "Ġrecur",
        "so"
      ],
      [
        "Ġvar",
        "ia"
      ],
      [
        "2",
        "8"
      ],
      [
        "b",
        "ul"
      ],
      [
        "Ġes",
        "ta"
      ],
      [
        "ciona",
        "l"
      ],
      [
        "u",
        "sa"
      ],
      [
        "4",
        "8"
      ],
      [
        "Ġdetalh",
        "es"
      ],
      [
        "bul",
        "Ã¡rio"
      ],
      [
        "ĠI",
        "A"
      ],
      [
        "Ġvoca",
        "bulÃ¡rio"
      ],
      [
        "Ġmelh",
        "ores"
      ],
      [
        "n",
        "de"
      ],
      [
        "p",
        "ara"
      ],
      [
        "Ġa",
        "co"
      ],
      [
        "Ġqua",
        "l"
      ],
      [
        "Ġg",
        "Ãªn"
      ],
      [
        "ĠgÃªn",
        "er"
      ],
      [
        "ti",
        "va"
      ],
      [
        "qu",
        "er"
      ],
      [
        "Ġtre",
        "i"
      ],
      [
        "Ġconver",
        "sas"
      ],
      [
        "ÃŃ",
        "ci"
      ],
      [
        "4",
        "4"
      ],
      [
        "Ġclare",
        "za"
      ],
      [
        "5",
        "5"
      ],
      [
        "n",
        "f"
      ],
      [
        "Ġdire",
        "tas"
      ],
      [
        "Ã¢",
        "ncia"
      ],
      [
        "e",
        "gu"
      ],
      [
        "Ġpare",
        "cer"
      ],
      [
        "Ġtextua",
        "is"
      ],
      [
        "Ġc",
        "ur"
      ],
      [
        "ĠgÃªner",
        "os"
      ],
      [
        "Ġdeix",
        "a"
      ],
      [
        "D",
        "ados"
      ],
      [
        "6",
        "8"
      ],
      [
        "l",
        "es"
      ],
      [
        "Ġte",
        "oria"
      ],
      [
        "ni",
        "fica"
      ],
      [
        "Ġconfus",
        "as"
      ],
      [
        "j",
        "a"
      ],
      [
        "Ġsol",
        "tas"
      ],
      [
        "ĠhÃ¡bi",
        "tos"
      ],
      [
        "ĠD",
        "es"
      ],
      [
        "egu",
        "ranÃ§a"
      ],
      [
        "A",
        "r"
      ],
      [
        "ti",
        "li"
      ],
      [
        "Ġm",
        "es"
      ],
      [
        "t",
        "Ã¡"
      ],
      [
        "g",
        "ar"
      ],
      [
        "Ã",
        "ī"
      ],
      [
        "Ġre",
        "ve"
      ],
      [
        "Ġnorma",
        "l"
      ],
      [
        "Ġdi",
        "Ã¡ria"
      ],
      [
        "ĠmÃ¡",
        "qui"
      ],
      [
        "L",
        "i"
      ],
      [
        "Ġma",
        "i"
      ],
      [
        "6",
        "4"
      ],
      [
        "Ġmo",
        "do"
      ],
      [
        "n",
        "ar"
      ],
      [
        "ri",
        "t"
      ],
      [
        "Q",
        "ua"
      ],
      [
        "Ã§",
        "o"
      ],
      [
        "Ã¡tica",
        "s"
      ],
      [
        "Ġve",
        "tor"
      ],
      [
        "C",
        "om"
      ],
      [
        "Ġap",
        "ro"
      ],
      [
        "A",
        "p"
      ],
      [
        "ri",
        "ptografia"
      ],
      [
        "Ãī",
        "tica"
      ],
      [
        "ri",
        "vacidade"
      ],
      [
        "du",
        "tividade"
      ],
      [
        "P",
        "er"
      ],
      [
        "L",
        "o"
      ],
      [
        "i",
        "gn"
      ],
      [
        "ntro",
        "le"
      ],
      [
        "D",
        "es"
      ],
      [
        "Ġorganiz",
        "a"
      ],
      [
        "is",
        "positivos"
      ],
      [
        "Qua",
        "lidade"
      ],
      [
        "Ġaplica",
        "Ã§Ã£o"
      ],
      [
        "an",
        "utenÃ§Ã£o"
      ],
      [
        "Inte",
        "ligÃªncia"
      ],
      [
        "Progra",
        "maÃ§Ã£o"
      ],
      [
        "P",
        "rivacidade"
      ],
      [
        "up",
        "orte"
      ],
      [
        "I",
        "nf"
      ],
      [
        "r",
        "Ã¡ticas"
      ],
      [
        "le",
        "ce"
      ],
      [
        "Ġori",
        "enta"
      ],
      [
        "A",
        "uto"
      ],
      [
        "A",
        "PIs"
      ],
      [
        "C",
        "riptografia"
      ],
      [
        "S",
        "eguranÃ§a"
      ],
      [
        "f",
        "aces"
      ],
      [
        "Ġu",
        "tili"
      ],
      [
        "Li",
        "cenÃ§as"
      ],
      [
        "Lo",
        "gs"
      ],
      [
        "A",
        "cessibilidade"
      ],
      [
        "D",
        "ispositivos"
      ],
      [
        "E",
        "di"
      ],
      [
        "G",
        "overnanÃ§a"
      ],
      [
        "M",
        "ultimÃŃdia"
      ],
      [
        "M",
        "anutenÃ§Ã£o"
      ],
      [
        "P",
        "la"
      ],
      [
        "P",
        "eÃ§as"
      ],
      [
        "P",
        "rÃ¡ticas"
      ],
      [
        "S",
        "ustentabilidade"
      ],
      [
        "S",
        "uporte"
      ],
      [
        "man",
        "dos"
      ],
      [
        "Co",
        "ntrole"
      ],
      [
        "Co",
        "mandos"
      ],
      [
        "Pro",
        "dutividade"
      ],
      [
        "Inter",
        "faces"
      ],
      [
        "Progra",
        "mas"
      ],
      [
        "Ar",
        "quivos"
      ],
      [
        "Com",
        "Ã©rcio"
      ],
      [
        "Ap",
        "resentaÃ§Ãµes"
      ],
      [
        "Per",
        "ifÃ©ricos"
      ],
      [
        "Des",
        "ign"
      ],
      [
        "Inf",
        "raestrutura"
      ],
      [
        "Auto",
        "maÃ§Ã£o"
      ],
      [
        "Edi",
        "tores"
      ],
      [
        "Pla",
        "nilhas"
      ],
      [
        "Ġescre",
        "ve"
      ],
      [
        "Ġreve",
        "lar"
      ],
      [
        "3",
        "6"
      ],
      [
        "8",
        "8"
      ],
      [
        "qu",
        "e"
      ],
      [
        "co",
        "u"
      ],
      [
        "Ġvaria",
        "dos"
      ],
      [
        "ĠT",
        "u"
      ],
      [
        "rin",
        "g"
      ],
      [
        "o",
        "u"
      ],
      [
        "Ġm",
        "Ã©"
      ],
      [
        "Ġaten",
        "ta"
      ],
      [
        "Ġs",
        "ua"
      ],
      [
        "is",
        "sio"
      ],
      [
        "Ġh",
        "u"
      ],
      [
        "Ġ",
        "V"
      ],
      [
        "Ġre",
        "da"
      ],
      [
        "Ġd",
        "uas"
      ],
      [
        "Ġprof",
        "issio"
      ],
      [
        "Ġ",
        ","
      ],
      [
        "Ġdesen",
        "volve"
      ],
      [
        "Ġdistribui",
        "Ã§Ã£o"
      ],
      [
        "Ġpre",
        "para"
      ],
      [
        "xi",
        "ma"
      ],
      [
        "Ġconf",
        "usa"
      ],
      [
        "Ġcal",
        "ma"
      ],
      [
        "Ġnarra",
        "tivos"
      ],
      [
        "0",
        "0"
      ],
      [
        "Ġf",
        "orta"
      ],
      [
        "Ġforta",
        "lece"
      ],
      [
        "Ġno",
        "vo"
      ],
      [
        "ĠC",
        "o"
      ],
      [
        "Ġl",
        "er"
      ],
      [
        "Ġ",
        "J"
      ],
      [
        "Ġvis",
        "ta"
      ],
      [
        "Ġpos",
        "s"
      ],
      [
        "Ġpro",
        "ba"
      ],
      [
        "Ġes",
        "pa"
      ],
      [
        "Ġal",
        "ta"
      ],
      [
        "Ġobj",
        "e"
      ],
      [
        "ĠTu",
        "ring"
      ],
      [
        "Ġc",
        "las"
      ],
      [
        "7",
        "7"
      ],
      [
        "5",
        "6"
      ],
      [
        "8",
        "4"
      ],
      [
        "Ġmes",
        "ma"
      ],
      [
        "Ġsi",
        "g"
      ],
      [
        "u",
        "m"
      ],
      [
        "Ġpe",
        "la"
      ],
      [
        "ĠS",
        "e"
      ],
      [
        "1",
        "6"
      ],
      [
        "mi",
        "na"
      ],
      [
        "2",
        "9"
      ],
      [
        "i",
        "Ã§Ã£o"
      ],
      [
        "ti",
        "n"
      ],
      [
        "Ġcha",
        "ma"
      ],
      [
        "Ġvo",
        "z"
      ],
      [
        "Ġse",
        "u"
      ],
      [
        "t",
        "ÃŃ"
      ],
      [
        "Ġtre",
        "ino"
      ],
      [
        "Ġalte",
        "ra"
      ],
      [
        "Ġproba",
        "bilidade"
      ],
      [
        "Ġpro",
        "vas"
      ],
      [
        "ĠNes",
        "se"
      ],
      [
        "ÃŃci",
        "os"
      ],
      [
        "rit",
        "mo"
      ],
      [
        "Ġ",
        "ritmo"
      ],
      [
        "mp",
        "an"
      ],
      [
        "Ġf",
        "or"
      ],
      [
        "Ġcur",
        "tas"
      ],
      [
        "Ġa",
        "b"
      ],
      [
        "ĠI",
        "nte"
      ],
      [
        "Ġprofissio",
        "nal"
      ],
      [
        "Ġ",
        "-"
      ],
      [
        "Ġargu",
        "menta"
      ],
      [
        "9",
        "7"
      ],
      [
        "ce",
        "bi"
      ],
      [
        "c",
        "h"
      ],
      [
        "Ġdi",
        "f"
      ],
      [
        "Ġto",
        "do"
      ],
      [
        "3",
        "1"
      ],
      [
        "Ġes",
        "pe"
      ],
      [
        "er",
        "c"
      ],
      [
        "Ġpe",
        "lo"
      ],
      [
        "fi",
        "na"
      ],
      [
        "Ġpassa",
        "m"
      ],
      [
        "7",
        "2"
      ],
      [
        "9",
        "2"
      ],
      [
        "Ġs",
        "ustenta"
      ],
      [
        "Ġex",
        "erc"
      ],
      [
        "Ġsi",
        "n"
      ],
      [
        "Ġescola",
        "res"
      ],
      [
        "Ġsa",
        "la"
      ],
      [
        "Ġes",
        "tim"
      ],
      [
        "Ġli",
        "do"
      ],
      [
        "ĠDes",
        "se"
      ],
      [
        "Ġj",
        "untas"
      ],
      [
        "cebi",
        "dos"
      ],
      [
        "Ġexerc",
        "ÃŃcios"
      ],
      [
        "Ġestim",
        "ula"
      ],
      [
        "ura",
        "nte"
      ],
      [
        "er",
        "tÃ³rio"
      ],
      [
        "Ġre",
        "fina"
      ],
      [
        "Ġrep",
        "ertÃ³rio"
      ],
      [
        "Ġdes",
        "per"
      ],
      [
        "Ġcorri",
        "ge"
      ],
      [
        "Ġexplica",
        "tivos"
      ],
      [
        "Ġclare",
        "ia"
      ],
      [
        "Ġreda",
        "Ã§Ãµes"
      ],
      [
        "Ġargumenta",
        "tivos"
      ],
      [
        "Ġdesper",
        "cebidos"
      ],
      [
        "b",
        "o"
      ],
      [
        "ĠprÃ³",
        "pri"
      ],
      [
        "Ġtrei",
        "na"
      ],
      [
        "Ġte",
        "m"
      ],
      [
        "ĠP",
        "ro"
      ],
      [
        "Ġcons",
        "tr"
      ],
      [
        "Ġsig",
        "nifica"
      ],
      [
        "Ġc",
        "he"
      ],
      [
        "Ġaco",
        "mpan"
      ],
      [
        "Ġapro",
        "xima"
      ],
      [
        "Ġ",
        "ra"
      ],
      [
        "Ġa",
        "u"
      ],
      [
        "3",
        "0"
      ],
      [
        "Ġf",
        "ora"
      ],
      [
        "Ġresultado",
        "s"
      ],
      [
        "Ġtaref",
        "a"
      ],
      [
        "ĠmÃ¡qui",
        "na"
      ],
      [
        "ec",
        "es"
      ],
      [
        "Ã³",
        "di"
      ],
      [
        "Ġp",
        "es"
      ],
      [
        "Ġdif",
        "ÃŃ"
      ],
      [
        "Ġobserva",
        "Ã§Ã£o"
      ],
      [
        "Ġon",
        "de"
      ],
      [
        "Ġma",
        "te"
      ],
      [
        "Ġ8",
        "0"
      ],
      [
        "4",
        "9"
      ],
      [
        "Ġde",
        "ri"
      ],
      [
        "t",
        "Ã©"
      ],
      [
        "Ġfi",
        "na"
      ],
      [
        "Ġacompan",
        "ha"
      ],
      [
        "Ġn",
        "eces"
      ],
      [
        "ce",
        "is"
      ],
      [
        "Ġf",
        "e"
      ],
      [
        "Ġper",
        "mi"
      ],
      [
        "Ġno",
        "minal"
      ],
      [
        "Ġforma",
        "l"
      ],
      [
        "Ġ6",
        "0"
      ],
      [
        "Ġconte",
        "x"
      ],
      [
        "Ġde",
        "ter"
      ],
      [
        "gu",
        "ra"
      ],
      [
        "Ġ",
        "."
      ],
      [
        "Ã¢",
        "n"
      ],
      [
        "p",
        "ec"
      ],
      [
        "ori",
        "za"
      ],
      [
        "ara",
        "m"
      ],
      [
        "Ã³",
        "i"
      ],
      [
        "Ġd",
        "urante"
      ],
      [
        "Ġfa",
        "la"
      ],
      [
        "Ġqual",
        "quer"
      ],
      [
        "6",
        "9"
      ],
      [
        "Ġcres",
        "ce"
      ],
      [
        "1",
        "0"
      ],
      [
        "sti",
        "tu"
      ],
      [
        "3",
        "7"
      ],
      [
        "5",
        "8"
      ],
      [
        "si",
        "dade"
      ],
      [
        "Ġm",
        "esmo"
      ],
      [
        "Ġne",
        "ura"
      ],
      [
        "v",
        "al"
      ],
      [
        "Ġconstr",
        "Ã³i"
      ],
      [
        "3",
        "2"
      ],
      [
        "i",
        "dade"
      ],
      [
        "ti",
        "p"
      ],
      [
        "Ġes",
        "tÃ¡"
      ],
      [
        "Ġsub",
        "stitu"
      ],
      [
        "Ã¡",
        "lo"
      ],
      [
        "ĠD",
        "e"
      ],
      [
        "Ġutili",
        "za"
      ],
      [
        "Ġespa",
        "Ã§o"
      ],
      [
        "5",
        "4"
      ],
      [
        "i",
        "o"
      ],
      [
        "Ġre",
        "so"
      ],
      [
        "Ġdefini",
        "da"
      ],
      [
        "Ã³di",
        "go"
      ],
      [
        "Ġna",
        "tura"
      ],
      [
        "Ġfi",
        "x"
      ],
      [
        "Ġval",
        "oriza"
      ],
      [
        "Ġacompanha",
        "do"
      ],
      [
        "Ġu",
        "ni"
      ],
      [
        "Ġse",
        "ja"
      ],
      [
        "Ġmelhor",
        "ar"
      ],
      [
        "e",
        "dade"
      ],
      [
        "lh",
        "a"
      ],
      [
        "Ġti",
        "po"
      ],
      [
        "n",
        "g"
      ],
      [
        "Ġprecisa",
        "m"
      ],
      [
        "ĠprÃ³pri",
        "o"
      ],
      [
        "1",
        "2"
      ],
      [
        "g",
        "un"
      ],
      [
        "Ġen",
        "con"
      ],
      [
        "Ã³",
        "s"
      ],
      [
        "Ġcompu",
        "taÃ§Ã£o"
      ],
      [
        "ĠdifÃŃ",
        "ceis"
      ],
      [
        "Ġhu",
        "ma"
      ],
      [
        "cu",
        "las"
      ],
      [
        "Ġbas",
        "tante"
      ],
      [
        "Ġc",
        "ara"
      ],
      [
        "P",
        "ara"
      ],
      [
        "cu",
        "lo"
      ],
      [
        "ti",
        "co"
      ],
      [
        "Ã¡lo",
        "go"
      ],
      [
        "8",
        "9"
      ],
      [
        "Ġobje",
        "to"
      ],
      [
        "Ġderi",
        "va"
      ],
      [
        "5",
        "2"
      ],
      [
        "ar",
        "ia"
      ],
      [
        "da",
        "Ã§Ã£o"
      ],
      [
        "Ġcontex",
        "to"
      ],
      [
        "ra",
        "l"
      ],
      [
        "Ġexe",
        "cu"
      ],
      [
        "ĠmÃ©",
        "to"
      ],
      [
        "5",
        "7"
      ],
      [
        "Ġcom",
        "bi"
      ],
      [
        "Ġver",
        "sÃµes"
      ],
      [
        "Ġnatura",
        "l"
      ],
      [
        "is",
        "ta"
      ],
      [
        "cia",
        "is"
      ],
      [
        "Ãª",
        "m"
      ],
      [
        "Ġcostuma",
        "m"
      ],
      [
        "r",
        "u"
      ],
      [
        "ĠE",
        "x"
      ],
      [
[...]
