{
  "unk_token": "<unk>",
  "merges": [
    [
      "o",
      " "
    ],
    [
      "e",
      " "
    ],
    [
      "a",
      " "
    ],
    [
      "s",
      " "
    ],
    [
      "d",
      "e "
    ],
    [
      "n",
      "t"
    ],
    [
      "m",
      " "
    ],
    [
      ",",
      " "
    ],
    [
      "o",
      "r"
    ],
    [
      "e",
      "r"
    ],
    [
      "e",
      "s"
    ],
    [
      "c",
      "o"
    ],
    [
      "a",
      "r"
    ],
    [
      "a",
      "d"
    ],
    [
      "o",
      "s "
    ],
    [
      "ã",
      "o "
    ],
    [
      "a",
      "l"
    ],
    [
      "a",
      "s "
    ],
    [
      "e",
      "nt"
    ],
    [
      ".",
      " "
    ],
    [
      "i",
      "n"
    ],
    [
      "q",
      "u"
    ],
    [
      "i",
      "c"
    ],
    [
      "p",
      "r"
    ],
    [
      "i",
      "s"
    ],
    [
      "e",
      "s "
    ],
    [
      "ç",
      "ão "
    ],
    [
      "e",
      "m "
    ],
    [
      "c",
      "i"
    ],
    [
      "t",
      "r"
    ],
    [
      "e",
      "m"
    ],
    [
      "a",
      "n"
    ],
    [
      "r",
      "e"
    ],
    [
      "a",
      "m"
    ],
    [
      "e",
      "n"
    ],
    [
      "d",
      "o "
    ],
    [
      "t",
      "i"
    ],
    [
      "e",
      "l"
    ],
    [
      "co",
      "m"
    ],
    [
      "m",
      "a "
    ],
    [
      "p",
      "ar"
    ],
    [
      "p",
      "o"
    ],
    [
      "i",
      "d"
    ],
    [
      "i",
      "t"
    ],
    [
      "m",
      "a"
    ],
    [
      "qu",
      "e "
    ],
    [
      "pr",
      "o"
    ],
    [
      "a",
      "s"
    ],
    [
      "d",
      "a "
    ],
    [
      "é",
      " "
    ],
    [
      "or",
      " "
    ],
    [
      "o",
      "n"
    ],
    [
      "a",
      "ção "
    ],
    [
      "o ",
      "de "
    ],
    [
      "u",
      "m "
    ],
    [
      "u",
      "ma "
    ],
    [
      "o",
      "u"
    ],
    [
      "i",
      "m"
    ],
    [
      "i",
      "s "
    ],
    [
      "co",
      "n"
    ],
    [
      "ar",
      " "
    ],
    [
      "p",
      "l"
    ],
    [
      "e",
      "x"
    ],
    [
      "al",
      " "
    ],
    [
      "er",
      " "
    ],
    [
      "par",
      "a "
    ],
    [
      "u",
      "r"
    ],
    [
      "r",
      "i"
    ],
    [
      "d",
      "i"
    ],
    [
      "es",
      "t"
    ],
    [
      "e",
      "t"
    ],
    [
      "a",
      "t"
    ],
    [
      "o",
      ", "
    ],
    [
      "u",
      "t"
    ],
    [
      "u",
      "n"
    ],
    [
      "o",
      "s"
    ],
    [
      "u",
      "l"
    ],
    [
      "ent",
      "e "
    ],
    [
      "a ",
      "de "
    ],
    [
      "es",
      "s"
    ],
    [
      "f",
      "or"
    ],
    [
      "e",
      "c"
    ],
    [
      "g",
      "r"
    ],
    [
      "is",
      "t"
    ],
    [
      "o",
      "l"
    ],
    [
      "õ",
      "es "
    ],
    [
      "i",
      "z"
    ],
    [
      "u",
      "s"
    ],
    [
      "ou",
      " "
    ],
    [
      "a",
      "ç"
    ],
    [
      "ad",
      "a "
    ],
    [
      "ad",
      "os "
    ],
    [
      "a",
      "nt"
    ],
    [
      "s",
      "e"
    ],
    [
      "t",
      "ic"
    ],
    [
      "a",
      "b"
    ],
    [
      "i",
      "r"
    ],
    [
      "a",
      ", "
    ],
    [
      ". ",
      "A"
    ],
    [
      "a",
      "de "
    ],
    [
      "ad",
      "o "
    ],
    [
      "g",
      "u"
    ],
    [
      "i",
      "l"
    ],
    [
      "s",
      "u"
    ],
    [
      "com",
      "o "
    ],
    [
      "s",
      "e "
    ],
    [
      "d",
      "e"
    ],
    [
      "a",
      "m "
    ],
    [
      ":",
      " "
    ],
    [
      "s",
      "ão "
    ],
    [
      "co",
      "m "
    ],
    [
      "d",
      "is"
    ],
    [
      "s",
      "i"
    ],
    [
      "f",
      "ic"
    ],
    [
      "o",
      "d"
    ],
    [
      "o",
      "b"
    ],
    [
      "o",
      "m"
    ],
    [
      "p",
      "or "
    ],
    [
      "p",
      "er"
    ],
    [
      "ti",
      "v"
    ],
    [
      "n",
      "ci"
    ],
    [
      "a",
      "g"
    ],
    [
      "id",
      "ade "
    ],
    [
      "i",
      "nt"
    ],
    [
      "am",
      "ent"
    ],
    [
      "d",
      "es"
    ],
    [
      "i",
      "b"
    ],
    [
      "i",
      "a "
    ],
    [
      "a",
      "is "
    ],
    [
      ". ",
      "E"
    ],
    [
      "a",
      "c"
    ],
    [
      ")",
      " "
    ],
    [
      "f",
      "un"
    ],
    [
      "ê",
      "nci"
    ],
    [
      "s",
      "er "
    ],
    [
      ". ",
      "O"
    ],
    [
      "co",
      "nt"
    ],
    [
      "or",
      "es "
    ],
    [
      "e",
      ", "
    ],
    [
      "n",
      "a "
    ],
    [
      "a",
      "v"
    ],
    [
      "com",
      "p"
    ],
    [
      "n",
      "o "
    ],
    [
      "d",
      "os "
    ],
    [
      "l",
      "in"
    ],
    [
      "an",
      "do "
    ],
    [
      "s",
      "t"
    ],
    [
      "v",
      "el"
    ],
    [
      "ent",
      "r"
    ],
    [
      "n",
      "ão "
    ],
    [
      "as ",
      "de "
    ],
    [
      "ci",
      "on"
    ],
    [
      "v",
      "e"
    ],
    [
      "u",
      "i"
    ],
    [
      "r",
      "es"
    ],
    [
      "os ",
      "de "
    ],
    [
      "pro",
      "b"
    ],
    [
      "i",
      "g"
    ],
    [
      "v",
      "er"
    ],
    [
      ". A",
      " "
    ],
    [
      "f",
      "in"
    ],
    [
      "tr",
      "ib"
    ],
    [
      "ç",
      "ões "
    ],
    [
      "c",
      "l"
    ],
    [
      "f",
      "er"
    ],
    [
      "á",
      "ri"
    ],
    [
      "c",
      "h"
    ],
    [
      "e",
      "ci"
    ],
    [
      "e",
      "ir"
    ],
    [
      "ad",
      "as "
    ],
    [
      "o",
      "g"
    ],
    [
      "ma",
      "is "
    ],
    [
      "s",
      "ist"
    ],
    [
      "ção ",
      "de "
    ],
    [
      "t",
      "em"
    ],
    [
      "ã",
      "o"
    ],
    [
      "e",
      "d"
    ],
    [
      "o",
      "c"
    ],
    [
      "i",
      " "
    ],
    [
      "dis",
      "trib"
    ],
    [
      "for",
      "ma"
    ],
    [
      "m",
      "ent"
    ],
    [
      "in",
      "g"
    ],
    [
      "i",
      "v"
    ],
    [
      "t",
      "o"
    ],
    [
      "u",
      " "
    ],
    [
      "aç",
      "ões "
    ],
    [
      "p",
      "el"
    ],
    [
      "am",
      "ente "
    ],
    [
      "comp",
      "ut"
    ],
    [
      "es",
      "p"
    ],
    [
      "t",
      "er"
    ],
    [
      "distrib",
      "ui"
    ],
    [
      "m",
      "ente "
    ],
    [
      " ",
      "e "
    ],
    [
      "pl",
      "ic"
    ],
    [
      "os",
      ", "
    ],
    [
      "po",
      "de "
    ],
    [
      ". O",
      " "
    ],
    [
      "a",
      "tiv"
    ],
    [
      "or",
      "t"
    ],
    [
      ";",
      " "
    ],
    [
      ". ",
      "P"
    ],
    [
      "t",
      "e"
    ],
    [
      "v",
      "al"
    ],
    [
      "sist",
      "em"
    ],
    [
      "á",
      "l"
    ],
    [
      "l",
      "em"
    ],
    [
      "e ",
      "de "
    ],
    [
      "n",
      "i"
    ],
    [
      "d",
      "ados "
    ],
    [
      "d",
      "as "
    ],
    [
      "é",
      "m "
    ],
    [
      "v",
      "ol"
    ],
    [
      "ic",
      "a "
    ],
    [
      "am",
      "b"
    ],
    [
      "ação ",
      "de "
    ],
    [
      "a",
      "p"
    ],
    [
      "ó",
      "ri"
    ],
    [
      "vel",
      " "
    ],
    [
      "gr",
      "am"
    ],
    [
      "s",
      "o"
    ],
    [
      "em",
      "pl"
    ],
    [
      "al",
      "g"
    ],
    [
      "ã",
      "o, "
    ],
    [
      "ênci",
      "a "
    ],
    [
      "f",
      "o"
    ],
    [
      "á",
      " "
    ],
    [
      "m",
      "od"
    ],
    [
      "á",
      "tic"
    ],
    [
      "po",
      "d"
    ],
    [
      "pro",
      "c"
    ],
    [
      "a",
      "o "
    ],
    [
      "ti",
      "l"
    ],
    [
      "d",
      "u"
    ],
    [
      "s",
      "s"
    ],
    [
      "prob",
      "lem"
    ],
    [
      "1",
      "9"
    ],
    [
      "í",
      "s"
    ],
    [
      "e ",
      "a "
    ],
    [
      "ar",
      "i"
    ],
    [
      "a",
      "cion"
    ],
    [
      "pr",
      "es"
    ],
    [
      "g",
      "er"
    ],
    [
      "con",
      "s"
    ],
    [
      "co",
      "s "
    ],
    [
      "ex",
      "empl"
    ],
    [
      "ou",
      "tr"
    ],
    [
      "à",
      " "
    ],
    [
      "ag",
      "em "
    ],
    [
      "ab",
      "il"
    ],
    [
      "re",
      "l"
    ],
    [
      "v",
      "et"
    ],
    [
      "m",
      "an"
    ],
    [
      "m",
      "er"
    ],
    [
      "o",
      "t"
    ],
    [
      "de",
      "fin"
    ],
    [
      "id",
      "ad"
    ],
    [
      "tr",
      "iz"
    ],
    [
      "as",
      ", "
    ],
    [
      "s",
      "ob"
    ],
    [
      "int",
      "er"
    ],
    [
      " ",
      "de "
    ],
    [
      "a",
      ". "
    ],
    [
      "e",
      "it"
    ],
    [
      "m",
      "o "
    ],
    [
      "es",
      ", "
    ],
    [
      "j",
      "u"
    ],
    [
      "a",
      "f"
    ],
    [
      "al",
      "mente "
    ],
    [
      "en",
      "s"
    ],
    [
      "c",
      "ul"
    ],
    [
      "es ",
      "de "
    ],
    [
      "ma",
      "triz"
    ],
    [
      "pro",
      "gram"
    ],
    [
      "c",
      "ri"
    ],
    [
      "proc",
      "ess"
    ],
    [
      "lin",
      "gu"
    ],
    [
      "A",
      " "
    ],
    [
      "m",
      "as "
    ],
    [
      "a",
      "ut"
    ],
    [
      "s",
      "er"
    ],
    [
      "u",
      "it"
    ],
    [
      "c",
      "or"
    ],
    [
      "in",
      "forma"
    ],
    [
      "2",
      "0"
    ],
    [
      "con",
      "h"
    ],
    [
      "c",
      "r"
    ],
    [
      "a ",
      "m"
    ],
    [
      "o ",
      "da "
    ],
    [
      "a",
      "is"
    ],
    [
      "mod",
      "el"
    ],
    [
      "e",
      "v"
    ],
    [
      "al",
      "iz"
    ],
    [
      "e ",
      "o "
    ],
    [
      "cont",
      "r"
    ],
    [
      "amb",
      "ém "
    ],
    [
      "pr",
      "im"
    ],
    [
      "m",
      "in"
    ],
    [
      "c",
      "ur"
    ],
    [
      ")",
      ", "
    ],
    [
      "pode ",
      "ser "
    ],
    [
      "fo",
      "i "
    ],
    [
      "en",
      "vol"
    ],
    [
      "distribui",
      "ção "
    ],
    [
      "d",
      "ad"
    ],
    [
      "com",
      "pl"
    ],
    [
      "ju",
      "nt"
    ],
    [
      "-",
      "se "
    ],
    [
      "t",
      "od"
    ],
    [
      "an",
      "s"
    ],
    [
      " ",
      "("
    ],
    [
      "conh",
      "eci"
    ],
    [
      "b",
      "as"
    ],
    [
      "re",
      "t"
    ],
    [
      "ad",
      "or "
    ],
    [
      "ent",
      "es "
    ],
    [
      "po",
      "n"
    ],
    [
      "an",
      "ç"
    ],
    [
      "b",
      "r"
    ],
    [
      "n",
      "or"
    ],
    [
      "n",
      "e"
    ],
    [
      "t",
      "ambém "
    ],
    [
      "ó",
      "g"
    ],
    [
      "n",
      "ú"
    ],
    [
      "co",
      "l"
    ],
    [
      "v",
      "ari"
    ],
    [
      "p",
      "ort"
    ],
    [
      "a",
      "z"
    ],
    [
      "pod",
      "em "
    ],
    [
      "ir",
      " "
    ],
    [
      "sob",
      "r"
    ],
    [
      "ad",
      "r"
    ],
    [
      "im",
      "ent"
    ],
    [
      "s",
      "im"
    ],
    [
      "ís",
      "tic"
    ],
    [
      ". ",
      "U"
    ],
    [
      "al",
      ", "
    ],
    [
      "a",
      "plic"
    ],
    [
      ". E",
      "m "
    ],
    [
      "con",
      "junt"
    ],
    [
      "u",
      "til"
    ],
    [
      "nú",
      "mer"
    ],
    [
      "w",
      "ar"
    ],
    [
      "ic",
      "i"
    ],
    [
      "or",
      "i"
    ],
    [
      "pres",
      "ent"
    ],
    [
      "o",
      "v"
    ],
    [
      "ver",
      "s"
    ],
    [
      "m",
      "é"
    ],
    [
      "ament",
      "o "
    ],
    [
      "or",
      "d"
    ],
    [
      ". ",
      "N"
    ],
    [
      "ul",
      "t"
    ],
    [
      "en",
      "ci"
    ],
    [
      "em",
      "ent"
    ],
    [
      "entr",
      "e "
    ],
    [
      "a",
      "ci"
    ],
    [
      "C",
      "om"
    ],
    [
      "en",
      "h"
    ],
    [
      "envol",
      "v"
    ],
    [
      "for",
      "ma "
    ],
    [
      "d",
      "o"
    ],
    [
      "o ",
      "que "
    ],
    [
      "ma",
      "tem"
    ],
    [
      "c",
      "ar"
    ],
    [
      "di",
      "fer"
    ],
    [
      "ch",
      "am"
    ],
    [
      "t",
      "o "
    ],
    [
      "or",
      "it"
    ],
    [
      "id",
      "a "
    ],
    [
      "ar ",
      "a "
    ],
    [
      "util",
      "iz"
    ],
    [
      "for",
      "m"
    ],
    [
      "idade ",
      "de "
    ],
    [
      "i",
      "do "
    ],
    [
      "prob",
      "abil"
    ],
    [
      "d",
      "et"
    ],
    [
      "f",
      "i"
    ],
    [
      "e",
      "qu"
    ],
    [
      "p",
      "o "
    ],
    [
      " ",
      "é "
    ],
    [
      "gr",
      "af"
    ],
    [
      "fun",
      "ção "
    ],
    [
      "ad",
      "ores "
    ],
    [
      "ve",
      "z"
    ],
    [
      "nor",
      "m"
    ],
    [
      "í",
      "n"
    ],
    [
      "ál",
      "is"
    ],
    [
      "qu",
      "in"
    ],
    [
      "c",
      "am"
    ],
    [
      "r",
      "o"
    ],
    [
      "á",
      "quin"
    ],
    [
      "s",
      "tr"
    ],
    [
      "tr",
      "ans"
    ],
    [
      "prim",
      "eir"
    ],
    [
      "aç",
      "ão"
    ],
    [
      ". ",
      "S"
    ],
    [
      "a ",
      "e "
    ],
    [
      "e",
      "g"
    ],
    [
      "ve",
      "is "
    ],
    [
      "ing",
      " "
    ],
    [
      "as",
      "s"
    ],
    [
      "y",
      " "
    ],
    [
      "a ",
      "a "
    ],
    [
      "m",
      "uit"
    ],
    [
      "po",
      "st"
    ],
    [
      "c",
      "al"
    ],
    [
      "qu",
      "ant"
    ],
    [
      "qu",
      "er "
    ],
    [
      "m",
      "e"
    ],
    [
      "f",
      "t"
    ],
    [
      "c",
      "as"
    ],
    [
      "su",
      "a "
    ],
    [
      "di",
      "g"
    ],
    [
      "alg",
      "orit"
    ],
    [
      "o ",
      "é "
    ],
    [
      "al",
      "h"
    ],
    [
      "fic",
      "i"
    ],
    [
      "m",
      "es"
    ],
    [
      "T",
      "ur"
    ],
    [
      "j",
      "et"
    ],
    [
      "d",
      "er"
    ],
    [
      "esp",
      "aç"
    ],
    [
      "í",
      "vel "
    ],
    [
      "ant",
      "e "
    ],
    [
      "f",
      "r"
    ],
    [
      "compl",
      "ex"
    ],
    [
      "á",
      "vel "
    ],
    [
      "or",
      "ia "
    ],
    [
      "qu",
      "al"
    ],
    [
      "o ",
      "do "
    ],
    [
      ". ",
      "D"
    ],
    [
      "se",
      "gu"
    ],
    [
      "po",
      "si"
    ],
    [
      "es",
      "tr"
    ],
    [
      "n",
      "ec"
    ],
    [
      "est",
      "u"
    ],
    [
      "al ",
      "de "
    ],
    [
      "para ",
      "a "
    ],
    [
      "a ",
      "é "
    ],
    [
      "se",
      "g"
    ],
    [
      "se",
      "j"
    ],
    [
      "en",
      "s "
    ],
    [
      "pel",
      "a "
    ],
    [
      "a ",
      "da "
    ],
    [
      "su",
      "b"
    ],
    [
      "exempl",
      "o, "
    ],
    [
      "ec",
      "is"
    ],
    [
      "ad",
      "or"
    ],
    [
      "b",
      "l"
    ],
    [
      "c",
      "ada "
    ],
    [
      "po",
      "nt"
    ],
    [
      "di",
      "re"
    ],
    [
      "po",
      "s"
    ],
    [
      "er",
      "min"
    ],
    [
      "ti",
      "r"
    ],
    [
      "ad",
      "a de "
    ],
    [
      "se",
      "u "
    ],
    [
      "des",
      "envolv"
    ],
    [
      "on",
      " "
    ],
    [
      "matem",
      "átic"
    ],
    [
      "esp",
      "eci"
    ],
    [
      "est",
      "e "
    ],
    [
      "p",
      "es"
    ],
    [
      "re",
      "present"
    ],
    [
      "det",
      "ermin"
    ],
    [
      "e",
      "f"
    ],
    [
      ". ",
      "C"
    ],
    [
      "pel",
      "o "
    ],
    [
      "id",
      "er"
    ],
    [
      "o ",
      "e "
    ],
    [
      "m",
      "ul"
    ],
    [
      "o",
      "per"
    ],
    [
      "s",
      "em"
    ],
    [
      "-",
      " "
    ],
    [
      "ne",
      "ur"
    ],
    [
      "c",
      "e"
    ],
    [
      "ft",
      "war"
    ],
    [
      "ut",
      "ur"
    ],
    [
      "in",
      "cl"
    ],
    [
      "po",
      "ss"
    ],
    [
      "p",
      "or"
    ],
    [
      "s",
      ", "
    ],
    [
      "p",
      "adr"
    ],
    [
      "an",
      "ális"
    ],
    [
      "aç",
      "ão, "
    ],
    [
      "\"",
      " "
    ],
    [
      "m",
      "os "
    ],
    [
      "lingu",
      "agem "
    ],
    [
      "der",
      "iv"
    ],
    [
      "per",
      "m"
    ],
    [
      "a",
      "u"
    ],
    [
      "t",
      "em "
    ],
    [
      "ar ",
      "o "
    ],
    [
      "re",
      "d"
    ],
    [
      "t",
      "u"
    ],
    [
      "at",
      "óri"
    ],
    [
      "tod",
      "os "
    ],
    [
      "el",
      "h"
    ],
    [
      "em",
      "óri"
    ],
    [
      "m",
      "áquin"
    ],
    [
      "sobr",
      "e "
    ],
    [
      "val",
      "ores "
    ],
    [
      "as ",
      "e "
    ],
    [
      "ol",
      "og"
    ],
    [
      "de",
      "v"
    ],
    [
      "é",
      "c"
    ],
    [
      "an",
      "d"
    ],
    [
      "v",
      "i"
    ],
    [
      "a ",
      "que "
    ],
    [
      "pr",
      "i"
    ],
    [
      "t",
      "h"
    ],
    [
      "re",
      "de "
    ],
    [
      "a ",
      "em "
    ],
    [
      "cr",
      "it"
    ],
    [
      "é",
      "r"
    ],
    [
      "qu",
      "is"
    ],
    [
      ". O",
      "s "
    ],
    [
      "m",
      "o"
    ],
    [
      "n",
      "ic"
    ],
    [
      "l",
      "óg"
    ],
    [
      "i",
      "x"
    ],
    [
      "podem ",
      "ser "
    ],
    [
      "u",
      "ção "
    ],
    [
      "on",
      "de "
    ],
    [
      "qu",
      "ando "
    ],
    [
      "ess",
      "o"
    ],
    [
      "a ",
      "do "
    ],
    [
      ". P",
      "or "
    ],
    [
      "ó",
      "dig"
    ],
    [
      "ma",
      "i"
    ],
    [
      "i",
      "fic"
    ],
    [
      "s",
      "ol"
    ],
    [
      "so",
      "ci"
    ],
    [
      "l",
      "i"
    ],
    [
      "qual",
      "quer "
    ],
    [
      "G",
      "P"
    ],
    [
      "re",
      "g"
    ],
    [
      "o",
      "p"
    ],
    [
      "a",
      "tr"
    ],
    [
      "pr",
      "in"
    ],
    [
      "val",
      "or "
    ],
    [
      "si",
      "g"
    ],
    [
      "f",
      "l"
    ],
    [
      "d",
      "ade "
    ],
    [
      "cons",
      "ider"
    ],
    [
      "I",
      "n"
    ],
    [
      ", ",
      "a "
    ],
    [
      "ar",
      "ti"
    ],
    [
      "é ",
      "o "
    ],
    [
      "ess",
      "e "
    ],
    [
      "que ",
      "o "
    ],
    [
      "h",
      "u"
    ],
    [
      "lin",
      "e"
    ],
    [
      "matriz",
      " "
    ],
    [
      "os ",
      "e "
    ],
    [
      "so",
      "ftwar"
    ],
    [
      "con",
      "c"
    ],
    [
      "aut",
      "o"
    ],
    [
      "p",
      "esso"
    ],
    [
      "é ",
      "um "
    ],
    [
      "ag",
      "ens "
    ],
    [
      "ament",
      "o de "
    ],
    [
      "res",
      "ult"
    ],
    [
      "cur",
      "s"
    ],
    [
      "que ",
      "a "
    ],
    [
      "el",
      "ig"
    ],
    [
      "para ",
      "o "
    ],
    [
      "â",
      "nci"
    ],
    [
      "conheci",
      "ment"
    ],
    [
      "t",
      "or"
    ],
    [
      "ais",
      ", "
    ],
    [
      "ul",
      "ar"
    ],
    [
      "estr",
      "utur"
    ],
    [
      "er",
      "r"
    ],
    [
      "ici",
      "on"
    ],
    [
      "c",
      "ódig"
    ],
    [
      "in",
      "do "
    ],
    [
      "mes",
      "mo "
    ],
    [
      "l",
      "e"
    ],
    [
      "sistem",
      "a "
    ],
    [
      "ent",
      "ão "
    ],
    [
      "n",
      " "
    ],
    [
      "er",
      "t"
    ],
    [
      "c",
      "ap"
    ],
    [
      "ab",
      "alh"
    ],
    [
      "pr",
      "ess"
    ],
    [
      "v",
      "is"
    ],
    [
      "I",
      "nt"
    ],
    [
      "ex",
      "ec"
    ],
    [
      "nec",
      "ess"
    ],
    [
      "probabil",
      "idade "
    ],
    [
      "o ",
      "em "
    ],
    [
      "fun",
      "ções "
    ],
    [
      "com ",
      "o "
    ],
    [
      "m",
      "emóri"
    ],
    [
      "c",
      "u"
    ],
    [
      "Tur",
      "ing "
    ],
    [
      "ç",
      "ão"
    ],
    [
      "incl",
      "u"
    ],
    [
      "tr",
      "abalh"
    ],
    [
      "informa",
      "ção "
    ],
    [
      "t",
      "er "
    ],
    [
      "im",
      "it"
    ],
    [
      ". A",
      "s "
    ],
    [
      "P",
      "r"
    ],
    [
      "ant",
      "o, "
    ],
    [
      "A",
      "n"
    ],
    [
      "p",
      "al"
    ],
    [
      "O",
      " "
    ],
    [
      "to",
      "do "
    ],
    [
      "hu",
      "man"
    ],
    [
      "par",
      "t"
    ],
    [
      "a",
      "ti"
    ],
    [
      "õ",
      "es"
    ],
    [
      "conjunt",
      "o de "
    ],
    [
      ". U",
      "ma "
    ],
    [
      "m",
      "en"
    ],
    [
      "ad",
      "i"
    ],
    [
      "u",
      "s "
    ],
    [
      "distribuição ",
      "norm"
    ],
    [
      "ári",
      "os "
    ],
    [
      ". ",
      "T"
    ],
    [
      "f",
      "az"
    ],
    [
      "s",
      "a"
    ],
    [
      "du",
      "z"
    ],
    [
      "pro",
      "v"
    ],
    [
      "ex",
      "t"
    ],
    [
      "n",
      "os "
    ],
    [
      "ti",
      "p"
    ],
    [
      "ant",
      "es "
    ],
    [
      "i",
      "p"
    ],
    [
      "rel",
      "acion"
    ],
    [
      "est",
      "a "
    ],
    [
      "C",
      "h"
    ],
    [
      "ex",
      "ist"
    ],
    [
      "pr",
      "e"
    ],
    [
      "ec",
      "t"
    ],
    [
      "cri",
      "p"
    ],
    [
      "al",
      "e"
    ],
    [
      "un",
      "s "
    ],
    [
      "ar",
      "am "
    ],
    [
      "a ",
      "o "
    ],
    [
      "f",
      "al"
    ],
    [
      "er",
      "i"
    ],
    [
      "en",
      "er"
    ],
    [
      "a ",
      "("
    ],
    [
      "é ",
      "uma "
    ],
    [
      "á",
      "veis "
    ],
    [
      "v",
      "id"
    ],
    [
      "te",
      "oria "
    ],
    [
      "en",
      "as "
    ],
    [
      "t",
      "ar"
    ],
    [
      "for",
      "am "
    ],
    [
      "ad",
      "o"
    ],
    [
      "vet",
      "or "
    ],
    [
      "a ",
      "uma "
    ],
    [
      "l",
      "og"
    ],
    [
      "el",
      "e "
    ],
    [
      "in",
      "h"
    ],
    [
      "d",
      "ut"
    ],
    [
      "di",
      "fic"
    ],
    [
      "ç",
      "ão, "
    ],
    [
      "ac",
      "ter"
    ],
    [
      "i",
      "gu"
    ],
    [
      ". ",
      "M"
    ],
    [
      "0",
      " "
    ],
    [
      "as",
      "si"
    ],
    [
      "se",
      "qu"
    ],
    [
      "cul",
      "o "
    ],
    [
      "ér",
      "tic"
    ],
    [
      "fun",
      "cion"
    ],
    [
      "g",
      "an"
    ],
    [
      "com ",
      "a "
    ],
    [
      "bas",
      "e"
    ],
    [
      "re",
      "qu"
    ],
    [
      "ale",
      "atóri"
    ],
    [
      "v",
      "értic"
    ],
    [
      "est",
      "ão "
    ],
    [
      "u",
      "í"
    ],
    [
      "em ",
      "um "
    ],
    [
      "av",
      "r"
    ],
    [
      "fun",
      "ção de "
    ],
    [
      "rel",
      "ação "
    ],
    [
      "a ",
      "um "
    ],
    [
      "car",
      "acter"
    ],
    [
      "pal",
      "avr"
    ],
    [
      "20",
      "0"
    ],
    [
      "es",
      "ti"
    ],
    [
      "ênci",
      "a de "
    ],
    [
      "int",
      "elig"
    ],
    [
      "pr",
      "ecis"
    ],
    [
      "b",
      "i"
    ],
    [
      ", ",
      "o "
    ],
    [
      "á",
      "re"
    ],
    [
      "ap",
      "enas "
    ],
    [
      "é ",
      "a "
    ],
    [
      "a",
      ": "
    ],
    [
      "desenvolv",
      "iment"
    ],
    [
      "us",
      "u"
    ],
    [
      "é",
      "s "
    ],
    [
      "defin",
      "i"
    ],
    [
      "í",
      "ci"
    ],
    [
      "an",
      "c"
    ],
    [
      ". U",
      "m "
    ],
    [
      ", ",
      "que "
    ],
    [
      "outr",
      "as "
    ],
    [
      "com",
      "par"
    ],
    [
      "ni",
      "fic"
    ],
    [
      "er",
      "n"
    ],
    [
      "s",
      "em "
    ],
    [
      "im",
      "pl"
    ],
    [
      "g",
      "e"
    ],
    [
      "par",
      "tir"
    ],
    [
      "sistem",
      "as "
    ],
    [
      "do",
      "is "
    ],
    [
      "sim",
      "pl"
    ],
    [
      "u",
      "p"
    ],
    [
      "at",
      "u"
    ],
    [
      "ári",
      "o "
    ],
    [
      "dire",
      "it"
    ],
    [
      "problem",
      "as "
    ],
    [
      "l",
      "e "
    ],
    [
      "fin",
      "it"
    ],
    [
      "l",
      "imit"
    ],
    [
      "ó",
      "r"
    ],
    [
      "sig",
      "nific"
    ],
    [
      "en",
      "contr"
    ],
    [
      "an",
      "al"
    ],
    [
      "perm",
      "it"
    ],
    [
      "idad",
      "es "
    ],
    [
      "res",
      "ol"
    ],
    [
      ". E",
      "st"
    ],
    [
      "es",
      "cal"
    ],
    [
      "pro",
      "pri"
    ],
    [
      "e",
      "tiv"
    ],
    [
      "ar",
      "qu"
    ],
    [
      "prin",
      "ci"
    ],
    [
      "pro",
      "dut"
    ],
    [
      "conc",
      "eit"
    ],
    [
      "ad",
      "o de "
    ],
    [
      "x",
      "im"
    ],
    [
      "s",
      "é"
    ],
    [
      "res",
      "pon"
    ],
    [
      "o",
      ": "
    ],
    [
      "20",
      "1"
    ],
    [
      "m",
      "i"
    ],
    [
      "p",
      "ut"
    ],
    [
      "o ",
      "("
    ],
    [
      "s",
      "in"
    ],
    [
      "at",
      "ur"
    ],
    [
      "red",
      "es "
    ],
    [
      "de ",
      "uma "
    ],
    [
      "f",
      " "
    ],
    [
      "v",
      "er "
    ],
    [
      "outr",
      "os "
    ],
    [
      "p",
      "ass"
    ],
    [
      "pes",
      "quis"
    ],
    [
      "is",
      "s"
    ],
    [
      "iz",
      "ação "
    ],
    [
      "ad",
      "os"
    ],
    [
      "o ",
      "a "
    ],
    [
      "c",
      "re"
    ],
    [
      "in",
      "v"
    ],
    [
      ". A",
      "l"
    ],
    [
      "du",
      "as "
    ],
    [
      "est",
      "á "
    ],
    [
      "os",
      "tr"
    ],
    [
      "ser",
      "v"
    ],
    [
      "1",
      " "
    ],
    [
      "s",
      "ti"
    ],
    [
      ". P",
      "ar"
    ],
    [
      "ex",
      "press"
    ],
    [
      "t",
      "est"
    ],
    [
      "p",
      "i"
    ],
    [
      "vet",
      "ori"
    ],
    [
      "ac",
      "ess"
    ],
    [
      "e",
      "gr"
    ],
    [
      "el",
      "ement"
    ],
    [
      "GP",
      "T"
    ],
    [
      "com",
      "un"
    ],
    [
      "e",
      "tr"
    ],
    [
      "em ",
      "uma "
    ],
    [
      "im",
      "port"
    ],
    [
      "po",
      "l"
    ],
    [
      "n",
      "ov"
    ],
    [
      "vet",
      "ores "
    ],
    [
      "est",
      "at"
    ],
    [
      "program",
      "ação "
    ],
    [
      "e",
      "in"
    ],
    [
      "tor",
      "n"
    ],
    [
      "il",
      "h"
    ],
    [
      "ári",
      "as "
    ],
    [
      "i",
      "ma"
    ],
    [
      "í",
      "tic"
    ],
    [
      "tar",
      "ef"
    ],
    [
      "ob",
      "jet"
    ],
    [
      " ",
      "S"
    ],
    [
      "Q",
      "u"
    ],
    [
      "idad",
      "e"
    ],
    [
      "comput",
      "acion"
    ],
    [
      "sa",
      "í"
    ],
    [
      "comput",
      "ação "
    ],
    [
      "f",
      "requ"
    ],
    [
      "p",
      "e"
    ],
    [
      "lin",
      "h"
    ],
    [
      "al",
      "i"
    ],
    [
      "a",
      "ix"
    ],
    [
      ". Por ",
      "exemplo, "
    ],
    [
      "pr",
      "ó"
    ],
    [
      "b",
      "in"
    ],
    [
      "en",
      "ç"
    ],
    [
      "como ",
      "o "
    ],
    [
      "fun",
      "d"
    ],
    [
      "seg",
      "ur"
    ],
    [
      "anális",
      "e "
    ],
    [
      ". ",
      "I"
    ],
    [
      "distribuição norm",
      "al "
    ],
    [
      "bl",
      "ic"
    ],
    [
      "pos",
      "su"
    ],
    [
      "A",
      "l"
    ],
    [
      "como ",
      "a "
    ],
    [
      "tem",
      "po "
    ],
    [
      "ê",
      "s "
    ],
    [
      "u",
      "z"
    ],
    [
      "í",
      "ni"
    ],
    [
      "todos ",
      "os "
    ],
    [
      "É",
      " "
    ],
    [
      "princi",
      "p"
    ],
    [
      "distribui",
      "ção de "
    ],
    [
      "exec",
      "ut"
    ],
    [
      "d",
      "im"
    ],
    [
      "crip",
      "to"
    ],
    [
      "pro",
      "p"
    ],
    [
      "ec",
      "n"
    ],
    [
      "mul",
      "ti"
    ],
    [
      "us",
      "ando "
    ],
    [
      "m",
      "b"
    ],
    [
      "em",
      "os "
    ],
    [
      "f",
      "or "
    ],
    [
      "e ",
      "uma "
    ],
    [
      "em",
      "ente "
    ],
    [
      "atr",
      "av"
    ],
    [
      "an",
      "h"
    ],
    [
      "t",
      "éc"
    ],
    [
      "ament",
      "e, "
    ],
    [
      "ó",
      "s "
    ],
    [
      "ess",
      "a "
    ],
    [
      "gr",
      "á"
    ],
    [
      "or",
      "ig"
    ],
    [
      "m",
      "ar"
    ],
    [
      "ti",
      "cos "
    ],
    [
      "em",
      "p"
    ],
    [
      "de ",
      "um "
    ],
    [
      "re",
      "aliz"
    ],
    [
      "se",
      "us "
    ],
    [
      ", ",
      "e "
    ],
    [
      "Com",
      "put"
    ],
    [
      "as ",
      "que "
    ],
    [
      "su",
      "per"
    ],
    [
      "pro",
      "jet"
    ],
    [
      "impl",
      "ement"
    ],
    [
      "muit",
      "o "
    ],
    [
      "\n",
      "\n"
    ],
    [
      "c",
      "ál"
    ],
    [
      "cons",
      "tr"
    ],
    [
      "re",
      "fer"
    ],
    [
      ". N",
      "o "
    ],
    [
      "vez",
      " "
    ],
    [
      "espaç",
      "o "
    ],
    [
      "ê",
      "m "
    ],
    [
      "a ",
      "para "
    ],
    [
      "ado ",
      "em "
    ],
    [
      "í",
      "veis "
    ],
    [
      "contr",
      "ol"
    ],
    [
      "p",
      "u"
    ],
    [
      "k",
      " "
    ],
    [
      "dad",
      "os"
    ],
    [
      "ada ",
      "por "
    ],
    [
      "ação ",
      "da "
    ],
    [
      "su",
      "as "
    ],
    [
      "ad",
      "a"
    ],
    [
      "ad",
      "o, "
    ],
    [
      "A",
      "r"
    ],
    [
      "f",
      "at"
    ],
    [
      "atrav",
      "és "
    ],
    [
      "d",
      "en"
    ],
    [
      "e",
      "ç"
    ],
    [
      "es",
      "crit"
    ],
    [
      "ti",
      "co"
    ],
    [
      "gr",
      "an"
    ],
    [
      "vari",
      "ável "
    ],
    [
      "comput",
      "ador "
    ],
    [
      "m",
      "elh"
    ],
    [
      "ab",
      "el"
    ],
    [
      "id",
      "as "
    ],
    [
      "qu",
      "al "
    ],
    [
      "estu",
      "do "
    ],
    [
      "C",
      " "
    ],
    [
      "at",
      "é "
    ],
    [
      "id",
      "os "
    ],
    [
      "ções ",
      "de "
    ],
    [
      "p",
      "a"
    ],
    [
      "re",
      "gr"
    ],
    [
      "in",
      "ici"
    ],
    [
      "model",
      "o "
    ],
    [
      ". E",
      "x"
    ],
    [
      "or",
      "em"
    ],
    [
      "s",
      "í"
    ],
    [
      "e",
      "j"
    ],
    [
      "ad",
      "icion"
    ],
    [
      "ín",
      "u"
    ],
    [
      "as ",
      "as "
    ],
    [
      "\"",
      ", "
    ],
    [
      "entr",
      "ada "
    ],
    [
      "en",
      "c"
    ],
    [
      "cont",
      "ínu"
    ],
    [
      "en",
      "são "
    ],
    [
      "a",
      "os "
    ],
    [
      "matriz",
      "es "
    ],
    [
      "quant",
      "o "
    ],
    [
      "t",
      "al "
    ],
    [
      "si",
      "v"
    ],
    [
      "ve",
      "is"
    ],
    [
      "line",
      "ar"
    ],
    [
      "õ",
      "es, "
    ],
    [
      "os ",
      "que "
    ],
    [
      "o",
      "ci"
    ],
    [
      "P",
      "ro"
    ],
    [
      "n",
      "as "
    ],
    [
      "el",
      "es "
    ],
    [
      "in",
      "d"
    ],
    [
      "z",
      "en"
    ],
    [
      "s",
      "it"
    ],
    [
      "19",
      "9"
    ],
    [
      "l",
      "ig"
    ],
    [
      "qu",
      "adr"
    ],
    [
      "us",
      "t"
    ],
    [
      "f",
      "eit"
    ],
    [
      "dev",
      "e "
    ],
    [
      "a",
      "qu"
    ],
    [
      "padr",
      "ão "
    ],
    [
      "ar ",
      "uma "
    ],
    [
      "númer",
      "o de "
    ],
    [
      "ada ",
      "em "
    ],
    [
      "ação ",
      "do "
    ],
    [
      "como ",
      "uma "
    ],
    [
      "on",
      "al "
    ],
    [
      "i",
      "co"
    ],
    [
      "ent",
      "emente "
    ],
    [
      "propri",
      "ed"
    ],
    [
      "por ",
      "exemplo, "
    ],
    [
      "us",
      "c"
    ],
    [
      "ist",
      "a "
    ],
    [
      "u",
      "m"
    ],
    [
      "poss",
      "ível "
    ],
    [
      "d",
      "ecis"
    ],
    [
      "et",
      " "
    ],
    [
      "a ",
      "partir"
    ],
    [
      "e",
      "i"
    ],
    [
      "tr",
      "ein"
    ],
    [
      "segu",
      "int"
    ],
    [
      "a",
      "in"
    ],
    [
      "ic",
      "as "
    ],
    [
      "númer",
      "os "
    ],
    [
      "ar",
      "ma"
    ],
    [
      "primeir",
      "o "
    ],
    [
      "r",
      "od"
    ],
    [
      "ul",
      "ar "
    ],
    [
      "u",
      "ment"
    ],
    [
      "av",
      "ali"
    ],
    [
      "comun",
      "ic"
    ],
    [
      "difer",
      "entes "
    ],
    [
      "po",
      "is "
    ],
    [
      "me",
      "i"
    ],
    [
      "ac",
      "h"
    ],
    [
      "2",
      " "
    ],
    [
      "l",
      "ti"
    ],
    [
      "os ",
      "da "
    ],
    [
      "tr",
      "at"
    ],
    [
      "L",
      "e"
    ],
    [
      "em ",
      "que "
    ],
    [
      "posi",
      "tiv"
    ],
    [
      "ô",
      "ni"
    ],
    [
      "t",
      "êm "
    ],
    [
      "arma",
      "zen"
    ],
    [
      "m",
      "ed"
    ],
    [
      "g",
      "ener"
    ],
    [
      "int",
      "egr"
    ],
    [
      "estat",
      "ístic"
    ],
    [
      "ad",
      "a, "
    ],
    [
      "un",
      "do "
    ],
    [
      "ou ",
      "a "
    ],
    [
      ". E",
      "ss"
    ],
    [
      "t",
      "ecn"
    ],
    [
      "olog",
      "i"
    ],
    [
      "fo",
      "nt"
    ],
    [
      "ú",
      "lti"
    ],
    [
      "fl",
      "u"
    ],
    [
      "as",
      "soci"
    ],
    [
      "f",
      "il"
    ],
    [
      "ti",
      "m"
    ],
    [
      "ob",
      "serv"
    ],
    [
      "lóg",
      "ica "
    ],
    [
      "lingu",
      "agens "
    ],
    [
      "ar",
      "d"
    ],
    [
      "T",
      "r"
    ],
    [
      "softwar",
      "e "
    ],
    [
      "ações ",
      "de "
    ],
    [
      "a",
      "us"
    ],
    [
      "est",
      "as "
    ],
    [
      "s",
      "ent"
    ],
    [
      "u",
      "c"
    ],
    [
      "an",
      " "
    ],
    [
      "complex",
      "idade "
    ],
    [
      "n",
      "ica "
    ],
    [
      "u",
      "d"
    ],
    [
      "cal",
      "cul"
    ],
    [
      "n",
      "om"
    ],
    [
      "gr",
      "adi"
    ],
    [
      "primeir",
      "a "
    ],
    [
      "arti",
      "g"
    ],
    [
      "gu",
      "mas "
    ],
    [
      "ic",
      "o "
    ],
    [
      "O",
      "p"
    ],
    [
      "E",
      "st"
    ],
    [
      "en",
      "ção "
    ],
    [
      "códig",
      "o "
    ],
    [
      "l",
      "oc"
    ],
    [
      "con",
      "sist"
    ],
    [
      "com",
      "pon"
    ],
    [
      "I",
      "A "
    ],
    [
      "d",
      "ist"
    ],
    [
      "al",
      "el"
    ],
    [
      "ad",
      "as"
    ],
    [
      "posi",
      "ção "
    ],
    [
      "alg",
      "uns "
    ],
    [
      "j",
      "etiv"
    ],
    [
      "é",
      "tr"
    ],
    [
      "e ",
      "em "
    ],
    [
      "informa",
      "ções "
    ],
    [
      "di",
      "ret"
    ],
    [
      "id",
      "ent"
    ],
    [
      "or",
      "r"
    ],
    [
      "Tur",
      "ing"
    ],
    [
      "par",
      "tic"
    ],
    [
      "comput",
      "adores "
    ],
    [
      "or",
      "gan"
    ],
    [
      "l",
      "iv"
    ],
    [
      "compl",
      "et"
    ],
    [
      "man",
      "eir"
    ],
    [
      "s",
      "om"
    ],
    [
      "graf",
      "o "
    ],
    [
      "a",
      "x"
    ],
    [
      "olog",
      "ia "
    ],
    [
      "or",
      "a "
    ],
    [
      "l",
      "ev"
    ],
    [
      "ex",
      "to "
    ],
    [
      "intelig",
      "ência "
    ],
    [
      "U",
      "ni"
    ],
    [
      "3",
      " "
    ],
    [
      "esp",
      "ec"
    ],
    [
      "algorit",
      "m"
    ],
    [
      "mai",
      "or "
    ],
    [
      "te",
      "orem"
    ],
    [
      "ência ",
      "da "
    ],
    [
      "caracter",
      "ístic"
    ],
    [
      "b",
      "usc"
    ],
    [
      "co",
      "dific"
    ],
    [
      "dis",
      "c"
    ],
    [
      "memóri",
      "a "
    ],
    [
      "e ",
      "da "
    ],
    [
      "a",
      ". A "
    ],
    [
      "ados ",
      "em "
    ],
    [
      "vez",
      "es "
    ],
    [
      "I",
      " "
    ],
    [
      "ord",
      "en"
    ],
    [
      "o ",
      "para "
    ],
    [
      "ment",
      "e, "
    ],
    [
      "ch",
      "av"
    ],
    [
      "ad",
      "os, "
    ],
    [
      "saí",
      "da "
    ],
    [
      "multi",
      "plic"
    ],
    [
      "c",
      "í"
    ],
    [
      "arti",
      "fici"
    ],
    [
      "in",
      "str"
    ],
    [
      "deriv",
      "ada "
    ],
    [
      "Ch",
      "at"
    ],
    [
      "aci",
      "dade "
    ],
    [
      "v",
      "árias "
    ],
    [
      "a",
      "-se "
    ],
    [
      "cor",
      "r"
    ],
    [
      "in",
      "gu"
    ],
    [
      "par",
      "alel"
    ],
    [
      "u",
      "tr"
    ],
    [
      "t",
      " "
    ],
    [
      "idad",
      "e, "
    ],
    [
      "ci",
      "fr"
    ],
    [
      "j",
      "á "
    ],
    [
      "n",
      "ot"
    ],
    [
      "algorit",
      "mo "
    ],
    [
      "e ",
      "do "
    ],
    [
      "tod",
      "as as "
    ],
    [
      "n",
      "ível "
    ],
    [
      "ic",
      "amente "
    ],
    [
      "R",
      "e"
    ],
    [
      ")",
      ". "
    ],
    [
      "model",
      "os "
    ],
    [
      "sej",
      "a, "
    ],
    [
      "cu",
      "j"
    ],
    [
      "par",
      "ci"
    ],
    [
      "d",
      "oc"
    ],
    [
      "Chat",
      "GPT"
    ],
    [
      "sistem",
      "as de "
    ],
    [
      "al ",
      "do "
    ],
    [
      "pro",
      "duz"
    ],
    [
      "es",
      "col"
    ],
    [
      "al",
      "ter"
    ],
    [
      "it",
      "et"
    ],
    [
      "pr",
      "et"
    ],
    [
      "ab",
      "ord"
    ],
    [
      "-",
      "l"
    ],
    [
      "u",
      "ção de "
    ],
    [
      "x",
      " "
    ],
    [
      "l",
      " "
    ],
    [
      "P",
      "ar"
    ],
    [
      "ad",
      "as de "
    ],
    [
      "ado ",
      "para "
    ],
    [
      "z",
      " "
    ],
    [
      "a",
      "y"
    ],
    [
      ") ",
      "e "
    ],
    [
      "emp",
      "enh"
    ],
    [
      "segur",
      "anç"
    ],
    [
      "dad",
      "os, "
    ],
    [
      "não ",
      "é "
    ],
    [
      "h",
      " "
    ],
    [
      "ant",
      "eri"
    ],
    [
      "G",
      "o"
    ],
    [
      "re",
      "cur"
    ],
    [
      "em ",
      "19"
    ],
    [
      "N",
      " "
    ],
    [
      "especi",
      "fic"
    ],
    [
      "er",
      "am "
    ],
    [
      "e",
      "fici"
    ],
    [
      "o",
      "f "
    ],
    [
      "itet",
      "ur"
    ],
    [
      "é",
      "tic"
    ],
    [
      "ênci",
      "as "
    ],
    [
      "gran",
      "de "
    ],
    [
      "qu",
      "e"
    ],
    [
      "sej",
      "a "
    ],
    [
      "a ",
      "ou "
    ],
    [
      "ar ",
      "os "
    ],
    [
      "pod",
      "er"
    ],
    [
      "Op",
      "en"
    ],
    [
      "defin",
      "ida "
    ],
    [
      "h",
      "á "
    ],
    [
      "y",
      "th"
    ],
    [
      "on",
      "g"
    ],
    [
      "C",
      "on"
    ],
    [
      "o",
      "nt"
    ],
    [
      "a",
      "pro"
    ],
    [
      "res",
      "p"
    ],
    [
      "ol",
      "óg"
    ],
    [
      "qu",
      "ais "
    ],
    [
      "doc",
      "ument"
    ],
    [
      "E",
      "n"
    ],
    [
      "co",
      "b"
    ],
    [
      ". Par",
      "a "
    ],
    [
      "for",
      "nec"
    ],
    [
      "ger",
      "almente "
    ],
    [
      "b",
      "o"
    ],
    [
      "in",
      "fer"
    ],
    [
      "i",
      "an"
    ],
    [
      "ob",
      "jetiv"
    ],
    [
      "difer",
      "enci"
    ],
    [
      "í",
      "vel"
    ],
    [
      "n",
      "atur"
    ],
    [
      "ic",
      "a, "
    ],
    [
      "em",
      "pres"
    ],
    [
      "téc",
      "nic"
    ],
    [
      "neur",
      "ais "
    ],
    [
      "comp",
      "ort"
    ],
    [
      "pr",
      "átic"
    ],
    [
      "u",
      "ções "
    ],
    [
      "ord",
      "em "
    ],
    [
      "g",
      "enh"
    ],
    [
      "di",
      "vers"
    ],
    [
      "í",
      "fic"
    ],
    [
      "ent",
      "e"
    ],
    [
      "c",
      "er"
    ],
    [
      "er",
      "a "
    ],
    [
      "est",
      "ado "
    ],
    [
      "ac",
      "or"
    ],
    [
      "problem",
      "a "
    ],
    [
      "d",
      " "
    ],
    [
      "des",
      "empenh"
    ],
    [
      "exempl",
      "o "
    ],
    [
      "númer",
      "o "
    ],
    [
      "muit",
      "as "
    ],
    [
      "á",
      "vel"
    ],
    [
      "fer",
      "r"
    ],
    [
      "à",
      "s "
    ],
    [
      "ist",
      "o "
    ],
    [
      "n",
      "u"
    ],
    [
      "algorit",
      "mos "
    ],
    [
      "su",
      "port"
    ],
    [
      "ada ",
      "para "
    ],
    [
      "a",
      ") "
    ],
    [
      "assi",
      "fic"
    ],
    [
      "process",
      "o de "
    ],
    [
      "is",
      "tr"
    ],
    [
      "á",
      "r"
    ],
    [
      "mé",
      "todo "
    ],
    [
      "pr",
      "ev"
    ],
    [
      "line",
      "ar "
    ],
    [
      "s",
      "p"
    ],
    [
      "M",
      "ar"
    ],
    [
      "acor",
      "do "
    ],
    [
      "pl",
      "an"
    ],
    [
      "ão ",
      "de "
    ],
    [
      "ce",
      "b"
    ],
    [
      "d",
      "om"
    ],
    [
      "a",
      "present"
    ],
    [
      "ação ",
      "e "
    ],
    [
      "ima",
      "g"
    ],
    [
      "matemátic",
      "a "
    ],
    [
      "d",
      "éc"
    ],
    [
      "til",
      "h"
    ],
    [
      "ar ",
      "um "
    ],
    [
      "sti",
      "t"
    ],
    [
      "ent",
      "anto, "
    ],
    [
      "D",
      "i"
    ],
    [
      "b",
      "il"
    ],
    [
      "n",
      "o"
    ],
    [
      "al ",
      "e "
    ],
    [
      "e ",
      "que "
    ],
    [
      "el",
      "a "
    ],
    [
      "ferr",
      "ament"
    ],
    [
      "ado ",
      "por "
    ],
    [
      "d",
      "ur"
    ],
    [
      "é ",
      "cham"
    ],
    [
      "â",
      "nt"
    ],
    [
      "An",
      "d"
    ],
    [
      "orig",
      "in"
    ],
    [
      "am",
      "pl"
    ],
    [
      "d",
      "ens"
    ],
    [
      "a",
      "j"
    ],
    [
      "vari",
      "áveis "
    ],
    [
      "ist",
      "as "
    ],
    [
      "igu",
      "al "
    ],
    [
      "n",
      "ão"
    ],
    [
      "el",
      "e"
    ],
    [
      "G",
      "r"
    ],
    [
      "ais ",
      "de "
    ],
    [
      "di",
      "f"
    ],
    [
      "liv",
      "r"
    ],
    [
      "ain",
      "da "
    ],
    [
      "do ",
      "que "
    ],
    [
      "re",
      "curs"
    ],
    [
      ". O",
      "utr"
    ],
    [
      "ib",
      "li"
    ],
    [
      "estu",
      "d"
    ],
    [
      "os",
      ": "
    ],
    [
      "m",
      "ostr"
    ],
    [
      "é",
      ", "
    ],
    [
      ".",
      "."
    ],
    [
      "gr",
      "up"
    ],
    [
      "in",
      "st"
    ],
    [
      "au",
      "ment"
    ],
    [
      "me",
      "tr"
    ],
    [
      ". ",
      "É "
    ],
    [
      "cor",
      "respon"
    ],
    [
      "U",
      "ma "
    ],
    [
      "com",
      "bin"
    ],
    [
      "el",
      " "
    ],
    [
      "e",
      "b"
    ],
    [
      "pu",
      "blic"
    ],
    [
      "e ",
      "e "
    ],
    [
      "com",
      "eç"
    ],
    [
      "o ",
      "ou "
    ],
    [
      "res",
      "tr"
    ],
    [
      "U",
      "m "
    ],
    [
      "res",
      "post"
    ],
    [
      "vértic",
      "es "
    ],
    [
      "d",
      "em"
    ],
    [
      "am ",
      "a "
    ],
    [
      "al",
      "t"
    ],
    [
      " ",
      "a "
    ],
    [
      "E",
      " "
    ],
    [
      "faz",
      "er "
    ],
    [
      "g",
      "ar"
    ],
    [
      "ibli",
      "ot"
    ],
    [
      "inter",
      "pret"
    ],
    [
      "ob",
      "r"
    ],
    [
      ". E",
      "nt"
    ],
    [
      "t",
      "ais "
    ],
    [
      "ter",
      "mo "
    ],
    [
      "p",
      "ú"
    ],
    [
      ". N",
      "a "
    ],
    [
      "1",
      ", "
    ],
    [
      "ais ",
      "e "
    ],
    [
      "ibliot",
      "ec"
    ],
    [
      "mé",
      "di"
    ],
    [
      "tr",
      "ad"
    ],
    [
      "recur",
      "siv"
    ],
    [
      "T",
      "h"
    ],
    [
      "o de ",
      "um "
    ],
    [
      "teoria ",
      "da "
    ],
    [
      "ou ",
      "seja, "
    ],
    [
      "S",
      " "
    ],
    [
      "int",
      "rod"
    ],
    [
      "cl",
      "assific"
    ],
    [
      "cos ",
      "de "
    ],
    [
      "di",
      "vid"
    ],
    [
      "l",
      "ar"
    ],
    [
      ". E",
      "l"
    ],
    [
      "grá",
      "fic"
    ],
    [
      "a",
      "par"
    ],
    [
      "al",
      "mente, "
    ],
    [
      "ess",
      "es "
    ],
    [
      "Go",
      "og"
    ],
    [
      "conjunt",
      "o "
    ],
    [
      "produt",
      "o "
    ],
    [
      "cl",
      "us"
    ],
    [
      "0",
      ", "
    ],
    [
      "al ",
      "da "
    ],
    [
      "em ",
      "a "
    ],
    [
      "os ",
      "em "
    ],
    [
      "como ",
      "um "
    ],
    [
      "escol",
      "h"
    ],
    [
      "ament",
      "e"
    ],
    [
      "anal",
      "is"
    ],
    [
      "ver",
      "são "
    ],
    [
      "redes ",
      "neurais "
    ],
    [
      "qu",
      "e, "
    ],
    [
      "P",
      "yth"
    ],
    [
      "gradi",
      "ente "
    ],
    [
      "forma",
      "ção "
    ],
    [
      "bas",
      "e "
    ],
    [
      "c",
      "entr"
    ],
    [
      "19",
      "7"
    ],
    [
      "v",
      "ários "
    ],
    [
      "us",
      "adas "
    ],
    [
      "propried",
      "ad"
    ],
    [
      "Uni",
      "vers"
    ],
    [
      "un",
      "i"
    ],
    [
      "a. ",
      "N"
    ],
    [
      "in",
      "u"
    ],
    [
      "cí",
      "pi"
    ],
    [
      "cl",
      "as"
    ],
    [
      "em",
      "b"
    ],
    [
      "compar",
      "tilh"
    ],
    [
      "g",
      "i"
    ],
    [
      "ados ",
      "de "
    ],
    [
      "sé",
      "culo "
    ],
    [
      "h",
      "ist"
    ],
    [
      "si",
      "on"
    ],
    [
      "Com",
      "o "
    ],
    [
      "D",
      "e"
    ],
    [
      "aplic",
      "ações "
    ],
    [
      "ident",
      "ific"
    ],
    [
      "E",
      "x"
    ],
    [
      "des",
      "cob"
    ],
    [
      "b",
      "em "
    ],
    [
      "f",
      "is"
    ],
    [
      "Tr",
      "ans"
    ],
    [
      "r",
      "an"
    ],
    [
      "ânci",
      "a "
    ],
    [
      "ç",
      "ões"
    ],
    [
      "r",
      "c"
    ],
    [
      "des",
      "de "
    ],
    [
      "am",
      "anh"
    ],
    [
      "o",
      ". "
    ],
    [
      "as ",
      "são "
    ],
    [
      "cam",
      "p"
    ],
    [
      "ex",
      "tr"
    ],
    [
      "t",
      "ent"
    ],
    [
      "pol",
      "ític"
    ],
    [
      "ess",
      "as "
    ],
    [
      "s",
      "ur"
    ],
    [
      "id",
      " "
    ],
    [
      "cas",
      "o "
    ],
    [
      "matem",
      "á"
    ],
    [
      "comput",
      "ador"
    ],
    [
      "muit",
      "os "
    ],
    [
      "assi",
      "m "
    ],
    [
      "agem ",
      "de "
    ],
    [
      "a ",
      "re"
    ],
    [
      "prop",
      "ag"
    ],
    [
      "ar ",
      "as "
    ],
    [
      "a m",
      "es"
    ],
    [
      "ar",
      "ia "
    ],
    [
      "ci",
      "ent"
    ],
    [
      "sí",
      "mb"
    ],
    [
      "símb",
      "ol"
    ],
    [
      "us",
      "o "
    ],
    [
      "cl",
      "ass"
    ],
    [
      "e ",
      "um "
    ],
    [
      "sobr",
      "e o "
    ],
    [
      "organ",
      "iz"
    ],
    [
      "aut",
      "or"
    ],
    [
      "â",
      "metr"
    ],
    [
      "o",
      "tim"
    ],
    [
      "B",
      "r"
    ],
    [
      "ín",
      "gu"
    ],
    [
      "j",
      "og"
    ],
    [
      "acess",
      "o "
    ],
    [
      "dig",
      "it"
    ],
    [
      "l",
      "ong"
    ],
    [
      "em",
      "br"
    ],
    [
      "abil",
      "idade "
    ],
    [
      "si",
      "do "
    ],
    [
      "l",
      "ic"
    ],
    [
      "o de ",
      "uma "
    ],
    [
      "men",
      "os "
    ],
    [
      "forma ",
      "de "
    ],
    [
      "m",
      "ó"
    ],
    [
      "os ",
      "("
    ],
    [
      "ec",
      "tiv"
    ],
    [
      "par",
      "âmetr"
    ],
    [
      "oc",
      "orr"
    ],
    [
      "a mes",
      "ma "
    ],
    [
      "a",
      "; "
    ],
    [
      "l",
      "ist"
    ],
    [
      "s",
      "ing"
    ],
    [
      "And",
      "ro"
    ],
    [
      "si",
      "nt"
    ],
    [
      "om",
      "ent"
    ],
    [
      "déc",
      "ada de "
    ],
    [
      "tr",
      "ês "
    ],
    [
      "con",
      "ex"
    ],
    [
      "aç",
      "ões"
    ],
    [
      "po",
      "t"
    ],
    [
      "dis",
      "pon"
    ],
    [
      "es",
      "qu"
    ],
    [
      "sem",
      "pr"
    ],
    [
      "ab",
      "or"
    ],
    [
      "ri",
      "g"
    ],
    [
      "dis",
      "positiv"
    ],
    [
      "ou ",
      "o "
    ],
    [
      "P",
      " "
    ],
    [
      ". ",
      "F"
    ],
    [
      "m",
      "ec"
    ],
    [
      "b",
      "ibliotec"
    ],
    [
      "á",
      "veis"
    ],
    [
      "al",
      "gumas "
    ],
    [
      "t",
      "este "
    ],
    [
      "am",
      "os "
    ],
    [
      "ic",
      "l"
    ],
    [
      "cál",
      "cul"
    ],
    [
      "N",
      "e"
    ],
    [
      "ge",
      "om"
    ],
    [
      "v",
      "í"
    ],
    [
      "for",
      "ç"
    ],
    [
      "M",
      " "
    ],
    [
      "t",
      "exto "
    ],
    [
      "vetori",
      "al "
    ],
    [
      "os ",
      "são "
    ],
    [
      "defini",
      "ção "
    ],
    [
      "it",
      "er"
    ],
    [
      "l",
      "íngu"
    ],
    [
      "m",
      "oment"
    ],
    [
      "I",
      "A"
    ],
    [
      "comp",
      "il"
    ],
    [
      "linguagem ",
      "de "
    ],
    [
      "m",
      "ens"
    ],
    [
      "av",
      "a "
    ],
    [
      "fund",
      "ament"
    ],
    [
      "cap",
      "acidade "
    ],
    [
      "20",
      "2"
    ],
    [
      "sem",
      "elh"
    ],
    [
      "outr",
      "o "
    ],
    [
      "t",
      "amanh"
    ],
    [
      "e ",
      "("
    ],
    [
      "as ",
      "da "
    ],
    [
      "a",
      "-"
    ],
    [
      "o, ",
      "a "
    ],
    [
      "pr",
      "iv"
    ],
    [
      "aplic",
      "ação "
    ],
    [
      "distribuição de ",
      "probabilidade "
    ],
    [
      "P",
      "U"
    ],
    [
      "m",
      "á"
    ],
    [
      "a",
      "trib"
    ],
    [
      "ge",
      "br"
    ],
    [
      "inter",
      "val"
    ],
    [
      "em ",
      "relação "
    ],
    [
      "ando ",
      "o "
    ],
    [
      "5",
      " "
    ],
    [
      "m",
      "et"
    ],
    [
      "ár",
      "v"
    ],
    [
      "ar",
      ", "
    ],
    [
      "c",
      "ess"
    ],
    [
      "pro",
      "te"
    ],
    [
      "y",
      ", "
    ],
    [
      "arqu",
      "itetur"
    ],
    [
      "não",
      "-"
    ],
    [
      "eir",
      "o "
    ],
    [
      "que ",
      "se "
    ],
    [
      "4",
      " "
    ],
    [
      "r",
      " "
    ],
    [
      "f",
      "ís"
    ],
    [
      "en",
      "quanto "
    ],
    [
      "ver",
      "ific"
    ],
    [
      "at",
      "enção "
    ],
    [
      "d",
      "in"
    ],
    [
      "fi",
      "co"
    ],
    [
      "sol",
      "ução "
    ],
    [
      "ex",
      "plic"
    ],
    [
      "iv",
      "al"
    ],
    [
      "gu",
      "ment"
    ],
    [
      "distribui",
      "ções "
    ],
    [
      "escal",
      "ar "
    ],
    [
      "us",
      "o de "
    ],
    [
      "m",
      "ic"
    ],
    [
      "frequ",
      "entemente "
    ],
    [
      "as ",
      "para "
    ],
    [
      "d",
      "est"
    ],
    [
      "al ",
      "("
    ],
    [
      "cripto",
      "graf"
    ],
    [
      "disc",
      "ret"
    ],
    [
      "ando ",
      "a "
    ],
    [
      "t",
      "ext"
    ],
    [
      "gu",
      "nt"
    ],
    [
      "id",
      "e"
    ],
    [
      "di",
      "ag"
    ],
    [
      "sej",
      "am "
    ],
    [
      "t",
      "om"
    ],
    [
      "b",
      "it"
    ],
    [
      "ados ",
      "para "
    ],
    [
      "possu",
      "i "
    ],
    [
      "a",
      ". O "
    ],
    [
      "sé",
      "ri"
    ],
    [
      "amb",
      "i"
    ],
    [
      "ur",
      "a "
    ],
    [
      "que ",
      "as "
    ],
    [
      "anális",
      "e de "
    ],
    [
      "or",
      "es"
    ],
    [
      "R",
      "N"
    ],
    [
      "neur",
      "ôni"
    ],
    [
      "ag",
      "em"
    ],
    [
      "ist",
      "em"
    ],
    [
      "ar",
      "gument"
    ],
    [
      "con",
      "ect"
    ],
    [
      "sistem",
      "a de "
    ],
    [
      "2",
      ", "
    ],
    [
      "últi",
      "pl"
    ],
    [
      "ent",
      "es"
    ],
    [
      "conheci",
      "do "
    ],
    [
      "ma",
      "nt"
    ],
    [
      "I",
      "S"
    ],
    [
      "ênci",
      "a, "
    ],
    [
      "por ",
      "um "
    ],
    [
      "ó",
      " "
    ],
    [
      "sobr",
      "e a "
    ],
    [
      "d",
      "ic"
    ],
    [
      "n",
      "um "
    ],
    [
      "as",
      "su"
    ],
    [
      "átic",
      "a "
    ],
    [
      "D",
      " "
    ],
    [
      "l",
      "anç"
    ],
    [
      "e",
      "di"
    ],
    [
      "h",
      "i"
    ],
    [
      "et",
      "c"
    ],
    [
      "Goog",
      "le "
    ],
    [
      "on",
      ", "
    ],
    [
      "dis",
      "s"
    ],
    [
      "á",
      "s"
    ],
    [
      "pos",
      "si"
    ],
    [
      "conheciment",
      "o de "
    ],
    [
      "ec",
      "e "
    ],
    [
      "a partir",
      " "
    ],
    [
      "m",
      "ov"
    ],
    [
      ". ",
      "H"
    ],
    [
      "as",
      "e "
    ],
    [
      "os ",
      "para "
    ],
    [
      "a ",
      "com "
    ],
    [
      "en",
      " "
    ],
    [
      "m",
      "últipl"
    ],
    [
      "idad",
      "es de "
    ],
    [
      "ular",
      "es "
    ],
    [
      "at",
      "a "
    ],
    [
      "tip",
      "os de "
    ],
    [
      "import",
      "ante "
    ],
    [
      "que ",
      "não "
    ],
    [
      "E",
      "R"
    ],
    [
      "c",
      "ert"
    ],
    [
      "1",
      "0"
    ],
    [
      "perm",
      "i"
    ],
    [
      "U",
      "n"
    ],
    [
      "to",
      "k"
    ],
    [
      "ões ",
      "de "
    ],
    [
      "d",
      "ado "
    ],
    [
      "ar ",
      "e "
    ],
    [
      "dom",
      "íni"
    ],
    [
      "propriedad",
      "es "
    ],
    [
      "des",
      "cre"
    ],
    [
      "inclu",
      "indo "
    ],
    [
      "ver",
      "dad"
    ],
    [
      "entr",
      "adas "
    ],
    [
      "século ",
      "X"
    ],
    [
      "ab",
      "str"
    ],
    [
      "ada ",
      "a "
    ],
    [
      "a, ",
      "a "
    ],
    [
      "An",
      "ális"
    ],
    [
      "M",
      "at"
    ],
    [
      "g",
      "in"
    ],
    [
      "ChatGPT",
      " "
    ],
    [
      "Int",
      "ern"
    ],
    [
      "al",
      "idade "
    ],
    [
      "r",
      "em"
    ],
    [
      "un",
      "d"
    ],
    [
      "ui",
      " "
    ],
    [
      "ant",
      "o "
    ],
    [
      "ad",
      "as, "
    ],
    [
      "inv",
      "esti"
    ],
    [
      "enç",
      "a "
    ],
    [
      "r",
      "ic"
    ],
    [
      "in",
      "finit"
    ],
    [
      "dis",
      "curs"
    ],
    [
      "variável ",
      "aleatóri"
    ],
    [
      "inclu",
      "em "
    ],
    [
      "cam",
      "inh"
    ],
    [
      "con",
      "fi"
    ],
    [
      "m",
      "on"
    ],
    [
      "L",
      " "
    ],
    [
      "re",
      "c"
    ],
    [
      "neur",
      "al "
    ],
    [
      "ente ",
      "de "
    ],
    [
      "equ",
      "ival"
    ],
    [
      "d",
      "it"
    ],
    [
      "e",
      "u "
    ],
    [
      "f",
      "ór"
    ],
    [
      "com",
      "um "
    ],
    [
      "m",
      "os de "
    ],
    [
      "especi",
      "al"
    ],
    [
      "adas ",
      "por "
    ],
    [
      "l",
      "o"
    ],
    [
      "o",
      ". A "
    ],
    [
      "ap",
      "ós "
    ],
    [
      "M",
      "od"
    ],
    [
      "inteligência ",
      "artifici"
    ],
    [
      "af",
      "ir"
    ],
    [
      "cál",
      "culo "
    ],
    [
      "st",
      "o "
    ],
    [
      "as",
      "il"
    ],
    [
      "clas",
      "se "
    ],
    [
      "ev",
      "ent"
    ],
    [
      "é",
      "ri"
    ],
    [
      "h",
      "ard"
    ],
    [
      "T",
      " "
    ],
    [
      "ac",
      "k"
    ],
    [
      "introd",
      "uz"
    ],
    [
      "r",
      "á"
    ],
    [
      "cam",
      "po "
    ],
    [
      "e",
      "ú"
    ],
    [
      "ex",
      "pl"
    ],
    [
      "tem",
      "p"
    ],
    [
      "tr",
      "an"
    ],
    [
      "and",
      " "
    ],
    [
      "am",
      "ostr"
    ],
    [
      "simpl",
      "es"
    ],
    [
      "prin",
      "cípi"
    ],
    [
      "ar",
      "estas "
    ],
    [
      "in",
      "vers"
    ],
    [
      "M",
      "ic"
    ],
    [
      "ar",
      "t"
    ],
    [
      "com ",
      "um "
    ],
    [
      "19",
      "8"
    ],
    [
      "as ",
      "("
    ],
    [
      "p",
      "ens"
    ],
    [
      "funções ",
      "de "
    ],
    [
      "b",
      "an"
    ],
    [
      "tip",
      "o de "
    ],
    [
      "ne",
      "g"
    ],
    [
      "ativ",
      "a "
    ],
    [
      "super",
      "i"
    ],
    [
      "ín",
      "im"
    ],
    [
      "sempr",
      "e "
    ],
    [
      "des",
      "envol"
    ],
    [
      "sit",
      "u"
    ],
    [
      "h",
      "om"
    ],
    [
      "as ",
      "do "
    ],
    [
      "entr",
      "op"
    ],
    [
      "L",
      "ingu"
    ],
    [
      "d",
      "icion"
    ],
    [
      "m",
      "ica "
    ],
    [
      ")",
      ". A "
    ],
    [
      "u",
      "b"
    ],
    [
      "po",
      "p"
    ],
    [
      "tir",
      " "
    ],
    [
      "ul",
      "ti"
    ],
    [
      "est",
      "abel"
    ],
    [
      "mai",
      "oria "
    ],
    [
      "ci",
      "rc"
    ],
    [
      "es ",
      "e "
    ],
    [
      "o, ",
      "o "
    ],
    [
      "cont",
      "eú"
    ],
    [
      "su",
      "cess"
    ],
    [
      "permit",
      "e "
    ],
    [
      "a",
      "\""
    ],
    [
      "f",
      "e"
    ],
    [
      "resol",
      "ver "
    ],
    [
      "c",
      "icl"
    ],
    [
      "col",
      "un"
    ],
    [
      ". S",
      "e "
    ],
    [
      "problem",
      "as de "
    ],
    [
      "di",
      "z"
    ],
    [
      "1",
      "8"
    ],
    [
      "program",
      "a "
    ],
    [
      "l",
      "eg"
    ],
    [
      "proc",
      "ed"
    ],
    [
      "Pro",
      "gram"
    ],
    [
      "vel",
      "oci"
    ],
    [
      "an",
      "os "
    ],
    [
      "n",
      "ós "
    ],
    [
      "es",
      "per"
    ],
    [
      "cor",
      "por"
    ],
    [
      "ar ",
      "de "
    ],
    [
      "possi",
      "bil"
    ],
    [
      "d",
      "el"
    ],
    [
      "as ",
      "em "
    ],
    [
      "ser",
      "á "
    ],
    [
      "express",
      "ão "
    ],
    [
      "som",
      "ente "
    ],
    [
      "im",
      "p"
    ],
    [
      "etr",
      "ia "
    ],
    [
      "E",
      "m "
    ],
    [
      "ci",
      "ência da "
    ],
    [
      "en",
      "genh"
    ],
    [
      ". Est",
      "e "
    ],
    [
      "e ",
      "para "
    ],
    [
      "c",
      "ab"
    ],
    [
      ", ",
      "mas "
    ],
    [
      "t",
      "es"
    ],
    [
      "an",
      "is"
    ],
    [
      "me",
      "di"
    ],
    [
      "t",
      "abel"
    ],
    [
      "o",
      "ver"
    ],
    [
      "ent",
      "e, "
    ],
    [
      "iss",
      "o "
    ],
    [
      "arqu",
      "iv"
    ],
    [
      "d",
      "ul"
    ],
    [
      "m",
      "ud"
    ],
    [
      "tr",
      "o"
    ],
    [
      "ç",
      "ões, "
    ],
    [
      "c",
      "é"
    ],
    [
      "T",
      "e"
    ],
    [
      "mé",
      "todos "
    ],
    [
      "ret",
      "or"
    ],
    [
      "conheciment",
      "o "
    ],
    [
      "á",
      "-l"
    ],
    [
      "d",
      "ec"
    ],
    [
      "os",
      "o"
    ],
    [
      "J",
      "o"
    ],
    [
      "f",
      "am"
    ],
    [
      "ce",
      "p"
    ],
    [
      "cap",
      "az"
    ],
    [
      "u",
      "g"
    ],
    [
      "con",
      "st"
    ],
    [
      "os ",
      "ou "
    ],
    [
      "gar",
      "ant"
    ],
    [
      "uí",
      "do "
    ],
    [
      "r",
      "a"
    ],
    [
      "pró",
      "pri"
    ],
    [
      "espaç",
      "o de "
    ],
    [
      "per",
      "gunt"
    ],
    [
      "dev",
      "em "
    ],
    [
      "N",
      "P"
    ],
    [
      "ístic",
      "a "
    ],
    [
      "ati",
      "on"
    ],
    [
      "que ",
      "os "
    ],
    [
      "er",
      "v"
    ],
    [
      "c",
      "at"
    ],
    [
      "b",
      "aix"
    ],
    [
      "O",
      "s "
    ],
    [
      "o",
      "m "
    ],
    [
      "ori",
      "ent"
    ],
    [
      "pro",
      "du"
    ],
    [
      "a",
      ". Em "
    ],
    [
      "gener",
      "aliz"
    ],
    [
      "par",
      "ad"
    ],
    [
      "C",
      "i"
    ],
    [
      "correspon",
      "d"
    ],
    [
      "un",
      "da "
    ],
    [
      "que ",
      "são "
    ],
    [
      "ad",
      "equ"
    ],
    [
      ", ",
      "então "
    ],
    [
      "g",
      "ul"
    ],
    [
      "el",
      "etr"
    ],
    [
      "Jo",
      "h"
    ],
    [
      "or",
      "es, "
    ],
    [
      "3",
      ", "
    ],
    [
      "o",
      ". O "
    ],
    [
      "ant",
      "e"
    ],
    [
      "sequ",
      "ência de "
    ],
    [
      "oper",
      "acion"
    ],
    [
      "m",
      "ínim"
    ],
    [
      "pel",
      "os "
    ],
    [
      "com ",
      "uma "
    ],
    [
      "e",
      "u"
    ],
    [
      "v",
      "oc"
    ],
    [
      "h",
      "av"
    ],
    [
      "ter",
      "mos "
    ],
    [
      "â",
      "n"
    ],
    [
      "pesso",
      "as "
    ],
    [
      "seguint",
      "e "
    ],
    [
      "ál",
      "gebr"
    ],
    [
      "sent",
      "ido "
    ],
    [
      "sem",
      "ânt"
    ],
    [
      "s",
      "et"
    ],
    [
      "fór",
      "mul"
    ],
    [
      "aç",
      "ões, "
    ],
    [
      "g",
      "l"
    ],
    [
      "e",
      "-"
    ],
    [
      "es",
      "cre"
    ],
    [
      "inter",
      "n"
    ],
    [
      "D",
      "is"
    ],
    [
      "at",
      "a"
    ],
    [
      "ex",
      "per"
    ],
    [
      ". Ex",
      "empl"
    ],
    [
      ". Al",
      "g"
    ],
    [
      "as",
      ": "
    ],
    [
      "m",
      "or"
    ],
    [
      "ti",
      "do "
    ],
    [
      "gr",
      "and"
    ],
    [
      ". ",
      "Qu"
    ],
    [
      "am ",
      "o "
    ],
    [
      ". Est",
      "a "
    ],
    [
      "ex",
      "ig"
    ],
    [
      "ec",
      "h"
    ],
    [
      "as",
      "t"
    ],
    [
      "ú",
      "nica "
    ],
    [
      "ent",
      "es de "
    ],
    [
      "a, ",
      "o "
    ],
    [
      "po",
      "lin"
    ],
    [
      "t",
      "enh"
    ],
    [
      "dados ",
      "de "
    ],
    [
      "con",
      "di"
    ],
    [
      "z",
      "er"
    ],
    [
      "r",
      "ob"
    ],
    [
      "din",
      "â"
    ],
    [
      "desenvolviment",
      "o de "
    ],
    [
      "ados ",
      "por "
    ],
    [
      "g",
      "e "
    ],
    [
      "ti",
      "po "
    ],
    [
      "el",
      "l"
    ],
    [
      "espec",
      "ífic"
    ],
    [
      "circ",
      "uit"
    ],
    [
      "con",
      "f"
    ],
    [
      "f",
      "alh"
    ],
    [
      "ed",
      "ade "
    ],
    [
      "ent",
      "es, "
    ],
    [
      "us",
      "ado "
    ],
    [
      "as",
      "p"
    ],
    [
      "id",
      "a de "
    ],
    [
      "est",
      "ados "
    ],
    [
      "w",
      " "
    ],
    [
      ". C",
      "on"
    ],
    [
      "matriz",
      " de "
    ],
    [
      "trabalh",
      "o "
    ],
    [
      ". ",
      "V"
    ],
    [
      "algoritm",
      "o de "
    ],
    [
      "n",
      "ul"
    ],
    [
      ". I",
      "sto "
    ],
    [
      "a m",
      "áquin"
    ],
    [
      "iment",
      "o "
    ],
    [
      "espaç",
      "os "
    ],
    [
      "log",
      " "
    ],
    [
      "seg",
      "undo "
    ],
    [
      "e",
      "con"
    ],
    [
      "er",
      ", "
    ],
    [
      "i",
      "on"
    ],
    [
      "19",
      "6"
    ],
    [
      "]",
      " "
    ],
    [
      "ss",
      "im"
    ],
    [
      ". Ex",
      "ist"
    ],
    [
      "a. ",
      "S"
    ],
    [
      "norm",
      "almente "
    ],
    [
      "a partir",
      " de "
    ],
    [
      "se ",
      "a "
    ],
    [
      "a, ",
      "que "
    ],
    [
      "através ",
      "de "
    ],
    [
      "sob",
      " "
    ],
    [
      "r",
      "is"
    ],
    [
      "mó",
      "dul"
    ],
    [
      "uma ",
      "função "
    ],
    [
      "ve",
      "u "
    ],
    [
      "fi",
      "cos "
    ],
    [
      "tem",
      "po"
    ],
    [
      "b",
      "anc"
    ],
    [
      "r",
      "aci"
    ],
    [
      "process",
      "o "
    ],
    [
      "R",
      "A"
    ],
    [
      "pont",
      "o "
    ],
    [
      "Andro",
      "id "
    ],
    [
      "cons",
      "ult"
    ],
    [
      "Open",
      "A"
    ],
    [
      "ari",
      "a de "
    ],
    [
      "máquin",
      "a de "
    ],
    [
      "19",
      "5"
    ],
    [
      "ê",
      " "
    ],
    [
      "artig",
      "o "
    ],
    [
      "nic",
      "o "
    ],
    [
      "flu",
      "x"
    ],
    [
      "pot",
      "enci"
    ],
    [
      "c",
      "res"
    ],
    [
      "ec",
      "er "
    ],
    [
      ")",
      ": "
    ],
    [
      "usu",
      "ári"
    ],
    [
      "gr",
      "a"
    ],
    [
      "to",
      "da "
    ],
    [
      "den",
      "ot"
    ],
    [
      "anç",
      "a "
    ],
    [
      "o",
      ") "
    ],
    [
      ")",
      "; "
    ],
    [
      "aut",
      "om"
    ],
    [
      "ô",
      "mi"
    ],
    [
      "ob",
      "ter "
    ],
    [
      "result",
      "ado "
    ],
    [
      "re",
      "duz"
    ],
    [
      "s",
      "ec"
    ],
    [
      "ti",
      "z"
    ],
    [
      "máquin",
      "a "
    ],
    [
      "f",
      "aci"
    ],
    [
      "adas ",
      "em "
    ],
    [
      "al",
      "ém "
    ],
    [
      "ed",
      " "
    ],
    [
      "s",
      "on"
    ],
    [
      "D",
      "es"
    ],
    [
      "pú",
      "blic"
    ],
    [
      "cam",
      "ada "
    ],
    [
      "tecn",
      "ologi"
    ],
    [
      "i",
      "cos "
    ],
    [
      "f",
      "ac"
    ],
    [
      "av",
      "am "
    ],
    [
      "dire",
      "cion"
    ],
    [
      ". ",
      "Como "
    ],
    [
      "in",
      "íci"
    ],
    [
      "divers",
      "as "
    ],
    [
      "des",
      "ig"
    ],
    [
      "im",
      "in"
    ],
    [
      "e",
      "p"
    ],
    [
      "rá",
      "p"
    ],
    [
      "c",
      "aus"
    ],
    [
      "palavr",
      "as "
    ],
    [
      "oc",
      "ult"
    ],
    [
      "dur",
      "ant"
    ],
    [
      "vis",
      "ão "
    ],
    [
      "6",
      " "
    ],
    [
      "rede ",
      "neural "
    ],
    [
      "o de ",
      "201"
    ],
    [
      "man",
      "ip"
    ],
    [
      "maneir",
      "a "
    ],
    [
      "ci",
      "pl"
    ],
    [
      "bas",
      "t"
    ],
    [
      "alg",
      "um "
    ],
    [
      "is",
      ", "
    ],
    [
      "qu",
      "est"
    ],
    [
      "V",
      " "
    ],
    [
      "cont",
      "inu"
    ],
    [
      "poss",
      "íveis "
    ],
    [
      "/",
      " "
    ],
    [
      "?",
      " "
    ],
    [
      "C",
      "PU"
    ],
    [
      "dem",
      "on"
    ],
    [
      "usu",
      "ários "
    ],
    [
      "Pr",
      "oc"
    ],
    [
      "pro",
      "post"
    ],
    [
      "ed",
      "uc"
    ],
    [
      ". Ess",
      "a "
    ],
    [
      "mo",
      "do "
    ],
    [
      "conheci",
      "da "
    ],
    [
      "grand",
      "es "
    ],
    [
      "al",
      "to "
    ],
    [
      "al",
      "l"
    ],
    [
      "ab",
      "aix"
    ],
    [
      "usu",
      "ário "
    ],
    [
      "o ",
      "dos "
    ],
    [
      ". No ",
      "entanto, "
    ],
    [
      "or ",
      "de "
    ],
    [
      "reg",
      "istr"
    ],
    [
      "ado ",
      "a "
    ],
    [
      "d",
      "entr"
    ],
    [
      "int",
      "eir"
    ],
    [
      "poder",
      "ia "
    ],
    [
      "direit",
      "os "
    ],
    [
      "e ",
      "os "
    ],
    [
      "chav",
      "e "
    ],
    [
      "con",
      "ver"
    ],
    [
      "é",
      "m"
    ],
    [
      "result",
      "ados "
    ],
    [
      "te",
      "ori"
    ],
    [
      "simpl",
      "es "
    ],
    [
      "máquin",
      "as de "
    ],
    [
      "má",
      "xim"
    ],
    [
      "partic",
      "ular"
    ],
    [
      "t",
      "ur"
    ],
    [
      "cipl",
      "in"
    ]
  ],
  "stoi": {
    "<unk>": 0,
    "\n": 1,
    " ": 2,
    "!": 3,
    "\"": 4,
    "%": 5,
    "'": 6,
    "(": 7,
    ")": 8,
    ",": 9,
    "-": 10,
    ".": 11,
    "/": 12,
    "0": 13,
    "1": 14,
    "2": 15,
    "3": 16,
    "4": 17,
    "5": 18,
    "6": 19,
    "7": 20,
    "8": 21,
    "9": 22,
    ":": 23,
    ";": 24,
    "?": 25,
    "A": 26,
    "B": 27,
    "C": 28,
    "D": 29,
    "E": 30,
    "F": 31,
    "G": 32,
    "H": 33,
    "I": 34,
    "J": 35,
    "K": 36,
    "L": 37,
    "M": 38,
    "N": 39,
    "O": 40,
    "P": 41,
    "Q": 42,
    "R": 43,
    "S": 44,
    "T": 45,
    "U": 46,
    "V": 47,
    "W": 48,
    "X": 49,
    "Y": 50,
    "Z": 51,
    "[": 52,
    "]": 53,
    "a": 54,
    "b": 55,
    "c": 56,
    "d": 57,
    "e": 58,
    "f": 59,
    "g": 60,
    "h": 61,
    "i": 62,
    "j": 63,
    "k": 64,
    "l": 65,
    "m": 66,
    "n": 67,
    "o": 68,
    "p": 69,
    "q": 70,
    "r": 71,
    "s": 72,
    "t": 73,
    "u": 74,
    "v": 75,
    "w": 76,
    "x": 77,
    "y": 78,
    "z": 79,
    "«": 80,
    "»": 81,
    "À": 82,
    "Á": 83,
    "Ã": 84,
    "É": 85,
    "Í": 86,
    "Ó": 87,
    "Ú": 88,
    "à": 89,
    "á": 90,
    "â": 91,
    "ã": 92,
    "ä": 93,
    "ç": 94,
    "è": 95,
    "é": 96,
    "ê": 97,
    "ì": 98,
    "í": 99,
    "î": 100,
    "ï": 101,
    "ð": 102,
    "ñ": 103,
    "ó": 104,
    "ô": 105,
    "õ": 106,
    "ö": 107,
    "ø": 108,
    "ú": 109,
    "ü": 110,
    "’": 111,
    "“": 112,
    "”": 113,
    "o ": 114,
    "e ": 115,
    "a ": 116,
    "s ": 117,
    "de ": 118,
    "nt": 119,
    "m ": 120,
    ", ": 121,
    "or": 122,
    "er": 123,
    "es": 124,
    "co": 125,
    "ar": 126,
    "ad": 127,
    "os ": 128,
    "ão ": 129,
    "al": 130,
    "as ": 131,
    "ent": 132,
    ". ": 133,
    "in": 134,
    "qu": 135,
    "ic": 136,
    "pr": 137,
    "is": 138,
    "es ": 139,
    "ção ": 140,
    "em ": 141,
    "ci": 142,
    "tr": 143,
    "em": 144,
    "an": 145,
    "re": 146,
    "am": 147,
    "en": 148,
    "do ": 149,
    "ti": 150,
    "el": 151,
    "com": 152,
    "ma ": 153,
    "par": 154,
    "po": 155,
    "id": 156,
    "it": 157,
    "ma": 158,
    "que ": 159,
    "pro": 160,
    "as": 161,
    "da ": 162,
    "é ": 163,
    "or ": 164,
    "on": 165,
    "ação ": 166,
    "o de ": 167,
    "um ": 168,
    "uma ": 169,
    "ou": 170,
    "im": 171,
    "is ": 172,
    "con": 173,
    "ar ": 174,
    "pl": 175,
    "ex": 176,
    "al ": 177,
    "er ": 178,
    "para ": 179,
    "ur": 180,
    "ri": 181,
    "di": 182,
    "est": 183,
    "et": 184,
    "at": 185,
    "o, ": 186,
    "ut": 187,
    "un": 188,
    "os": 189,
    "ul": 190,
    "ente ": 191,
    "a de ": 192,
    "ess": 193,
    "for": 194,
    "ec": 195,
    "gr": 196,
    "ist": 197,
    "ol": 198,
    "ões ": 199,
    "iz": 200,
    "us": 201,
    "ou ": 202,
    "aç": 203,
    "ada ": 204,
    "ados ": 205,
    "ant": 206,
    "se": 207,
    "tic": 208,
    "ab": 209,
    "ir": 210,
    "a, ": 211,
    ". A": 212,
    "ade ": 213,
    "ado ": 214,
    "gu": 215,
    "il": 216,
    "su": 217,
    "como ": 218,
    "se ": 219,
    "de": 220,
    "am ": 221,
    ": ": 222,
    "são ": 223,
    "com ": 224,
    "dis": 225,
    "si": 226,
    "fic": 227,
    "od": 228,
    "ob": 229,
    "om": 230,
    "por ": 231,
    "per": 232,
    "tiv": 233,
    "nci": 234,
    "ag": 235,
    "idade ": 236,
    "int": 237,
    "ament": 238,
    "des": 239,
    "ib": 240,
    "ia ": 241,
    "ais ": 242,
    ". E": 243,
    "ac": 244,
    ") ": 245,
    "fun": 246,
    "ênci": 247,
    "ser ": 248,
    ". O": 249,
    "cont": 250,
    "ores ": 251,
    "e, ": 252,
    "na ": 253,
    "av": 254,
    "comp": 255,
    "no ": 256,
    "dos ": 257,
    "lin": 258,
    "ando ": 259,
    "st": 260,
    "vel": 261,
    "entr": 262,
    "não ": 263,
    "as de ": 264,
    "cion": 265,
    "ve": 266,
    "ui": 267,
    "res": 268,
    "os de ": 269,
    "prob": 270,
    "ig": 271,
    "ver": 272,
    ". A ": 273,
    "fin": 274,
    "trib": 275,
    "ções ": 276,
    "cl": 277,
    "fer": 278,
    "ári": 279,
    "ch": 280,
    "eci": 281,
    "eir": 282,
    "adas ": 283,
    "og": 284,
    "mais ": 285,
    "sist": 286,
    "ção de ": 287,
    "tem": 288,
    "ão": 289,
    "ed": 290,
    "oc": 291,
    "i ": 292,
    "distrib": 293,
    "forma": 294,
    "ment": 295,
    "ing": 296,
    "iv": 297,
    "to": 298,
    "u ": 299,
    "ações ": 300,
    "pel": 301,
    "amente ": 302,
    "comput": 303,
    "esp": 304,
    "ter": 305,
    "distribui": 306,
    "mente ": 307,
    " e ": 308,
    "plic": 309,
    "os, ": 310,
    "pode ": 311,
    ". O ": 312,
    "ativ": 313,
    "ort": 314,
    "; ": 315,
    ". P": 316,
    "te": 317,
    "val": 318,
    "sistem": 319,
    "ál": 320,
    "lem": 321,
    "e de ": 322,
    "ni": 323,
    "dados ": 324,
    "das ": 325,
    "ém ": 326,
    "vol": 327,
    "ica ": 328,
    "amb": 329,
    "ação de ": 330,
    "ap": 331,
    "óri": 332,
    "vel ": 333,
    "gram": 334,
    "so": 335,
    "empl": 336,
    "alg": 337,
    "ão, ": 338,
    "ência ": 339,
    "fo": 340,
    "á ": 341,
    "mod": 342,
    "átic": 343,
    "pod": 344,
    "proc": 345,
    "ao ": 346,
    "til": 347,
    "du": 348,
    "ss": 349,
    "problem": 350,
    "19": 351,
    "ís": 352,
    "e a ": 353,
    "ari": 354,
    "acion": 355,
    "pres": 356,
    "ger": 357,
    "cons": 358,
    "cos ": 359,
    "exempl": 360,
    "outr": 361,
    "à ": 362,
    "agem ": 363,
    "abil": 364,
    "rel": 365,
    "vet": 366,
    "man": 367,
    "mer": 368,
    "ot": 369,
    "defin": 370,
    "idad": 371,
    "triz": 372,
    "as, ": 373,
    "sob": 374,
    "inter": 375,
    " de ": 376,
    "a. ": 377,
    "eit": 378,
    "mo ": 379,
    "es, ": 380,
    "ju": 381,
    "af": 382,
    "almente ": 383,
    "ens": 384,
    "cul": 385,
    "es de ": 386,
    "matriz": 387,
    "program": 388,
    "cri": 389,
    "process": 390,
    "lingu": 391,
    "A ": 392,
    "mas ": 393,
    "aut": 394,
    "ser": 395,
    "uit": 396,
    "cor": 397,
    "informa": 398,
    "20": 399,
    "conh": 400,
    "cr": 401,
    "a m": 402,
    "o da ": 403,
    "ais": 404,
    "model": 405,
    "ev": 406,
    "aliz": 407,
    "e o ": 408,
    "contr": 409,
    "ambém ": 410,
    "prim": 411,
    "min": 412,
    "cur": 413,
    "), ": 414,
    "pode ser ": 415,
    "foi ": 416,
    "envol": 417,
    "distribuição ": 418,
    "dad": 419,
    "compl": 420,
    "junt": 421,
    "-se ": 422,
    "tod": 423,
    "ans": 424,
    " (": 425,
    "conheci": 426,
    "bas": 427,
    "ret": 428,
    "ador ": 429,
    "entes ": 430,
    "pon": 431,
    "anç": 432,
    "br": 433,
    "nor": 434,
    "ne": 435,
    "também ": 436,
    "óg": 437,
    "nú": 438,
    "col": 439,
    "vari": 440,
    "port": 441,
    "az": 442,
    "podem ": 443,
    "ir ": 444,
    "sobr": 445,
    "adr": 446,
    "iment": 447,
    "sim": 448,
    "ístic": 449,
    ". U": 450,
    "al, ": 451,
    "aplic": 452,
    ". Em ": 453,
    "conjunt": 454,
    "util": 455,
    "númer": 456,
    "war": 457,
    "ici": 458,
    "ori": 459,
    "present": 460,
    "ov": 461,
    "vers": 462,
    "mé": 463,
    "amento ": 464,
    "ord": 465,
    ". N": 466,
    "ult": 467,
    "enci": 468,
    "ement": 469,
    "entre ": 470,
    "aci": 471,
    "Com": 472,
    "enh": 473,
    "envolv": 474,
    "forma ": 475,
    "do": 476,
    "o que ": 477,
    "matem": 478,
    "car": 479,
    "difer": 480,
    "cham": 481,
    "to ": 482,
    "orit": 483,
    "ida ": 484,
    "ar a ": 485,
    "utiliz": 486,
    "form": 487,
    "idade de ": 488,
    "ido ": 489,
    "probabil": 490,
    "det": 491,
    "fi": 492,
    "equ": 493,
    "po ": 494,
    " é ": 495,
    "graf": 496,
    "função ": 497,
    "adores ": 498,
    "vez": 499,
    "norm": 500,
    "ín": 501,
    "ális": 502,
    "quin": 503,
    "cam": 504,
    "ro": 505,
    "áquin": 506,
    "str": 507,
    "trans": 508,
    "primeir": 509,
    "ação": 510,
    ". S": 511,
    "a e ": 512,
    "eg": 513,
    "veis ": 514,
    "ing ": 515,
    "ass": 516,
    "y ": 517,
    "a a ": 518,
    "muit": 519,
    "post": 520,
    "cal": 521,
    "quant": 522,
    "quer ": 523,
    "me": 524,
    "ft": 525,
    "cas": 526,
    "sua ": 527,
    "dig": 528,
    "algorit": 529,
    "o é ": 530,
    "alh": 531,
    "fici": 532,
    "mes": 533,
    "Tur": 534,
    "jet": 535,
    "der": 536,
    "espaç": 537,
    "ível ": 538,
    "ante ": 539,
    "fr": 540,
    "complex": 541,
    "ável ": 542,
    "oria ": 543,
    "qual": 544,
    "o do ": 545,
    ". D": 546,
    "segu": 547,
    "posi": 548,
    "estr": 549,
    "nec": 550,
    "estu": 551,
    "al de ": 552,
    "para a ": 553,
    "a é ": 554,
    "seg": 555,
    "sej": 556,
    "ens ": 557,
    "pela ": 558,
    "a da ": 559,
    "sub": 560,
    "exemplo, ": 561,
    "ecis": 562,
    "ador": 563,
    "bl": 564,
    "cada ": 565,
    "pont": 566,
    "dire": 567,
    "pos": 568,
    "ermin": 569,
    "tir": 570,
    "ada de ": 571,
    "seu ": 572,
    "desenvolv": 573,
    "on ": 574,
    "matemátic": 575,
    "especi": 576,
    "este ": 577,
    "pes": 578,
    "represent": 579,
    "determin": 580,
    "ef": 581,
    ". C": 582,
    "pelo ": 583,
    "ider": 584,
    "o e ": 585,
    "mul": 586,
    "oper": 587,
    "sem": 588,
    "- ": 589,
    "neur": 590,
    "ce": 591,
    "ftwar": 592,
    "utur": 593,
    "incl": 594,
    "poss": 595,
    "por": 596,
    "s, ": 597,
    "padr": 598,
    "anális": 599,
    "ação, ": 600,
    "\" ": 601,
    "mos ": 602,
    "linguagem ": 603,
    "deriv": 604,
    "perm": 605,
    "au": 606,
    "tem ": 607,
    "ar o ": 608,
    "red": 609,
    "tu": 610,
    "atóri": 611,
    "todos ": 612,
    "elh": 613,
    "emóri": 614,
    "máquin": 615,
    "sobre ": 616,
    "valores ": 617,
    "as e ": 618,
    "olog": 619,
    "dev": 620,
    "éc": 621,
    "and": 622,
    "vi": 623,
    "a que ": 624,
    "pri": 625,
    "th": 626,
    "rede ": 627,
    "a em ": 628,
    "crit": 629,
    "ér": 630,
    "quis": 631,
    ". Os ": 632,
    "mo": 633,
    "nic": 634,
    "lóg": 635,
    "ix": 636,
    "podem ser ": 637,
    "ução ": 638,
    "onde ": 639,
    "quando ": 640,
    "esso": 641,
    "a do ": 642,
    ". Por ": 643,
    "ódig": 644,
    "mai": 645,
    "ific": 646,
    "sol": 647,
    "soci": 648,
    "li": 649,
    "qualquer ": 650,
    "GP": 651,
    "reg": 652,
    "op": 653,
    "atr": 654,
    "prin": 655,
    "valor ": 656,
    "sig": 657,
    "fl": 658,
    "dade ": 659,
    "consider": 660,
    "In": 661,
    ", a ": 662,
    "arti": 663,
    "é o ": 664,
    "esse ": 665,
    "que o ": 666,
    "hu": 667,
    "line": 668,
    "matriz ": 669,
    "os e ": 670,
    "softwar": 671,
    "conc": 672,
    "auto": 673,
    "pesso": 674,
    "é um ": 675,
    "agens ": 676,
    "amento de ": 677,
    "result": 678,
    "curs": 679,
    "que a ": 680,
    "elig": 681,
    "para o ": 682,
    "ânci": 683,
    "conheciment": 684,
    "tor": 685,
    "ais, ": 686,
    "ular": 687,
    "estrutur": 688,
    "err": 689,
    "icion": 690,
    "códig": 691,
    "indo ": 692,
    "mesmo ": 693,
    "le": 694,
    "sistema ": 695,
    "então ": 696,
    "n ": 697,
    "ert": 698,
    "cap": 699,
    "abalh": 700,
    "press": 701,
    "vis": 702,
    "Int": 703,
    "exec": 704,
    "necess": 705,
    "probabilidade ": 706,
    "o em ": 707,
    "funções ": 708,
    "com o ": 709,
    "memóri": 710,
    "cu": 711,
    "Turing ": 712,
    "ção": 713,
    "inclu": 714,
    "trabalh": 715,
    "informação ": 716,
    "ter ": 717,
    "imit": 718,
    ". As ": 719,
    "Pr": 720,
    "anto, ": 721,
    "An": 722,
    "pal": 723,
    "O ": 724,
    "todo ": 725,
    "human": 726,
    "part": 727,
    "ati": 728,
    "ões": 729,
    "conjunto de ": 730,
    ". Uma ": 731,
    "men": 732,
    "adi": 733,
    "us ": 734,
    "distribuição norm": 735,
    "ários ": 736,
    ". T": 737,
    "faz": 738,
    "sa": 739,
    "duz": 740,
    "prov": 741,
    "ext": 742,
    "nos ": 743,
    "tip": 744,
    "antes ": 745,
    "ip": 746,
    "relacion": 747,
    "esta ": 748,
    "Ch": 749,
    "exist": 750,
    "pre": 751,
    "ect": 752,
    "crip": 753,
    "ale": 754,
    "uns ": 755,
    "aram ": 756,
    "a o ": 757,
    "fal": 758,
    "eri": 759,
    "ener": 760,
    "a (": 761,
    "é uma ": 762,
    "áveis ": 763,
    "vid": 764,
    "teoria ": 765,
    "enas ": 766,
    "tar": 767,
    "foram ": 768,
    "ado": 769,
    "vetor ": 770,
    "a uma ": 771,
    "log": 772,
    "ele ": 773,
    "inh": 774,
    "dut": 775,
    "dific": 776,
    "ção, ": 777,
    "acter": 778,
    "igu": 779,
    ". M": 780,
    "0 ": 781,
    "assi": 782,
    "sequ": 783,
    "culo ": 784,
    "értic": 785,
    "funcion": 786,
    "gan": 787,
    "com a ": 788,
    "base": 789,
    "requ": 790,
    "aleatóri": 791,
    "vértic": 792,
    "estão ": 793,
    "uí": 794,
    "em um ": 795,
    "avr": 796,
    "função de ": 797,
    "relação ": 798,
    "a um ": 799,
    "caracter": 800,
    "palavr": 801,
    "200": 802,
    "esti": 803,
    "ência de ": 804,
    "intelig": 805,
    "precis": 806,
    "bi": 807,
    ", o ": 808,
    "áre": 809,
    "apenas ": 810,
    "é a ": 811,
    "a: ": 812,
    "desenvolviment": 813,
    "usu": 814,
    "és ": 815,
    "defini": 816,
    "íci": 817,
    "anc": 818,
    ". Um ": 819,
    ", que ": 820,
    "outras ": 821,
    "compar": 822,
    "nific": 823,
    "ern": 824,
    "sem ": 825,
    "impl": 826,
    "ge": 827,
    "partir": 828,
    "sistemas ": 829,
    "dois ": 830,
    "simpl": 831,
    "up": 832,
    "atu": 833,
    "ário ": 834,
    "direit": 835,
    "problemas ": 836,
    "le ": 837,
    "finit": 838,
    "limit": 839,
    "ór": 840,
    "signific": 841,
    "encontr": 842,
    "anal": 843,
    "permit": 844,
    "idades ": 845,
    "resol": 846,
    ". Est": 847,
    "escal": 848,
    "propri": 849,
    "etiv": 850,
    "arqu": 851,
    "princi": 852,
    "produt": 853,
    "conceit": 854,
    "ado de ": 855,
    "xim": 856,
    "sé": 857,
    "respon": 858,
    "o: ": 859,
    "201": 860,
    "mi": 861,
    "put": 862,
    "o (": 863,
    "sin": 864,
    "atur": 865,
    "redes ": 866,
    "de uma ": 867,
    "f ": 868,
    "ver ": 869,
    "outros ": 870,
    "pass": 871,
    "pesquis": 872,
    "iss": 873,
    "ização ": 874,
    "ados": 875,
    "o a ": 876,
    "cre": 877,
    "inv": 878,
    ". Al": 879,
    "duas ": 880,
    "está ": 881,
    "ostr": 882,
    "serv": 883,
    "1 ": 884,
    "sti": 885,
    ". Par": 886,
    "express": 887,
    "test": 888,
    "pi": 889,
    "vetori": 890,
    "acess": 891,
    "egr": 892,
    "element": 893,
    "GPT": 894,
    "comun": 895,
    "etr": 896,
    "em uma ": 897,
    "import": 898,
    "pol": 899,
    "nov": 900,
    "vetores ": 901,
    "estat": 902,
    "programação ": 903,
    "ein": 904,
    "torn": 905,
    "ilh": 906,
    "árias ": 907,
    "ima": 908,
    "ític": 909,
    "taref": 910,
    "objet": 911,
    " S": 912,
    "Qu": 913,
    "idade": 914,
    "computacion": 915,
    "saí": 916,
    "computação ": 917,
    "frequ": 918,
    "pe": 919,
    "linh": 920,
    "ali": 921,
    "aix": 922,
    ". Por exemplo, ": 923,
    "pró": 924,
    "bin": 925,
    "enç": 926,
    "como o ": 927,
    "fund": 928,
    "segur": 929,
    "análise ": 930,
    ". I": 931,
    "distribuição normal ": 932,
    "blic": 933,
    "possu": 934,
    "Al": 935,
    "como a ": 936,
    "tempo ": 937,
    "ês ": 938,
    "uz": 939,
    "íni": 940,
    "todos os ": 941,
    "É ": 942,
    "princip": 943,
    "distribuição de ": 944,
    "execut": 945,
    "dim": 946,
    "cripto": 947,
    "prop": 948,
    "ecn": 949,
    "multi": 950,
    "usando ": 951,
    "mb": 952,
    "emos ": 953,
    "for ": 954,
    "e uma ": 955,
    "emente ": 956,
    "atrav": 957,
    "anh": 958,
    "téc": 959,
    "amente, ": 960,
    "ós ": 961,
    "essa ": 962,
    "grá": 963,
    "orig": 964,
    "mar": 965,
    "ticos ": 966,
    "emp": 967,
    "de um ": 968,
    "realiz": 969,
    "seus ": 970,
    ", e ": 971,
    "Comput": 972,
    "as que ": 973,
    "super": 974,
    "projet": 975,
    "implement": 976,
    "muito ": 977,
    "\n\n": 978,
    "cál": 979,
    "constr": 980,
    "refer": 981,
    ". No ": 982,
    "vez ": 983,
    "espaço ": 984,
    "êm ": 985,
    "a para ": 986,
    "ado em ": 987,
    "íveis ": 988,
    "control": 989,
    "pu": 990,
    "k ": 991,
    "dados": 992,
    "ada por ": 993,
    "ação da ": 994,
    "suas ": 995,
    "ada": 996,
    "ado, ": 997,
    "Ar": 998,
    "fat": 999,
    "através ": 1000,
    "den": 1001,
    "eç": 1002,
    "escrit": 1003,
    "tico": 1004,
    "gran": 1005,
    "variável ": 1006,
    "computador ": 1007,
    "melh": 1008,
    "abel": 1009,
    "idas ": 1010,
    "qual ": 1011,
    "estudo ": 1012,
    "C ": 1013,
    "até ": 1014,
    "idos ": 1015,
    "ções de ": 1016,
    "pa": 1017,
    "regr": 1018,
    "inici": 1019,
    "modelo ": 1020,
    ". Ex": 1021,
    "orem": 1022,
    "sí": 1023,
    "ej": 1024,
    "adicion": 1025,
    "ínu": 1026,
    "as as ": 1027,
    "\", ": 1028,
    "entrada ": 1029,
    "enc": 1030,
    "contínu": 1031,
    "ensão ": 1032,
    "aos ": 1033,
    "matrizes ": 1034,
    "quanto ": 1035,
    "tal ": 1036,
    "siv": 1037,
    "veis": 1038,
    "linear": 1039,
    "ões, ": 1040,
    "os que ": 1041,
    "oci": 1042,
    "Pro": 1043,
    "nas ": 1044,
    "eles ": 1045,
    "ind": 1046,
    "zen": 1047,
    "sit": 1048,
    "199": 1049,
    "lig": 1050,
    "quadr": 1051,
    "ust": 1052,
    "feit": 1053,
    "deve ": 1054,
    "aqu": 1055,
    "padrão ": 1056,
    "ar uma ": 1057,
    "número de ": 1058,
    "ada em ": 1059,
    "ação do ": 1060,
    "como uma ": 1061,
    "onal ": 1062,
    "ico": 1063,
    "entemente ": 1064,
    "propried": 1065,
    "por exemplo, ": 1066,
    "usc": 1067,
    "ista ": 1068,
    "um": 1069,
    "possível ": 1070,
    "decis": 1071,
    "et ": 1072,
    "a partir": 1073,
    "ei": 1074,
    "trein": 1075,
    "seguint": 1076,
    "ain": 1077,
    "icas ": 1078,
    "números ": 1079,
    "arma": 1080,
    "primeiro ": 1081,
    "rod": 1082,
    "ular ": 1083,
    "ument": 1084,
    "avali": 1085,
    "comunic": 1086,
    "diferentes ": 1087,
    "pois ": 1088,
    "mei": 1089,
    "ach": 1090,
    "2 ": 1091,
    "lti": 1092,
    "os da ": 1093,
    "trat": 1094,
    "Le": 1095,
    "em que ": 1096,
    "positiv": 1097,
    "ôni": 1098,
    "têm ": 1099,
    "armazen": 1100,
    "med": 1101,
    "gener": 1102,
    "integr": 1103,
    "estatístic": 1104,
    "ada, ": 1105,
    "undo ": 1106,
    "ou a ": 1107,
    ". Ess": 1108,
    "tecn": 1109,
    "ologi": 1110,
    "font": 1111,
    "últi": 1112,
    "flu": 1113,
    "associ": 1114,
    "fil": 1115,
    "tim": 1116,
    "observ": 1117,
    "lógica ": 1118,
    "linguagens ": 1119,
    "ard": 1120,
    "Tr": 1121,
    "software ": 1122,
    "ações de ": 1123,
    "aus": 1124,
    "estas ": 1125,
    "sent": 1126,
    "uc": 1127,
    "an ": 1128,
    "complexidade ": 1129,
    "nica ": 1130,
    "ud": 1131,
    "calcul": 1132,
    "nom": 1133,
    "gradi": 1134,
    "primeira ": 1135,
    "artig": 1136,
    "gumas ": 1137,
    "ico ": 1138,
    "Op": 1139,
    "Est": 1140,
    "enção ": 1141,
    "código ": 1142,
    "loc": 1143,
    "consist": 1144,
    "compon": 1145,
    "IA ": 1146,
    "dist": 1147,
    "alel": 1148,
    "adas": 1149,
    "posição ": 1150,
    "alguns ": 1151,
    "jetiv": 1152,
    "étr": 1153,
    "e em ": 1154,
    "informações ": 1155,
    "diret": 1156,
    "ident": 1157,
    "orr": 1158,
    "Turing": 1159,
    "partic": 1160,
    "computadores ": 1161,
    "organ": 1162,
    "liv": 1163,
    "complet": 1164,
    "maneir": 1165,
    "som": 1166,
    "grafo ": 1167,
    "ax": 1168,
    "ologia ": 1169,
    "ora ": 1170,
    "lev": 1171,
    "exto ": 1172,
    "inteligência ": 1173,
    "Uni": 1174,
    "3 ": 1175,
    "espec": 1176,
    "algoritm": 1177,
    "maior ": 1178,
    "teorem": 1179,
    "ência da ": 1180,
    "característic": 1181,
    "busc": 1182,
    "codific": 1183,
    "disc": 1184,
    "memória ": 1185,
    "e da ": 1186,
    "a. A ": 1187,
    "ados em ": 1188,
    "vezes ": 1189,
    "I ": 1190,
    "orden": 1191,
    "o para ": 1192,
    "mente, ": 1193,
    "chav": 1194,
    "ados, ": 1195,
    "saída ": 1196,
    "multiplic": 1197,
    "cí": 1198,
    "artifici": 1199,
    "instr": 1200,
    "derivada ": 1201,
    "Chat": 1202,
    "acidade ": 1203,
    "várias ": 1204,
    "a-se ": 1205,
    "corr": 1206,
    "ingu": 1207,
    "paralel": 1208,
    "utr": 1209,
    "t ": 1210,
    "idade, ": 1211,
    "cifr": 1212,
    "já ": 1213,
    "not": 1214,
    "algoritmo ": 1215,
    "e do ": 1216,
    "todas as ": 1217,
    "nível ": 1218,
    "icamente ": 1219,
    "Re": 1220,
    "). ": 1221,
    "modelos ": 1222,
    "seja, ": 1223,
    "cuj": 1224,
    "parci": 1225,
    "doc": 1226,
    "ChatGPT": 1227,
    "sistemas de ": 1228,
    "al do ": 1229,
    "produz": 1230,
    "escol": 1231,
    "alter": 1232,
    "itet": 1233,
    "pret": 1234,
    "abord": 1235,
    "-l": 1236,
    "ução de ": 1237,
    "x ": 1238,
    "l ": 1239,
    "Par": 1240,
    "adas de ": 1241,
    "ado para ": 1242,
    "z ": 1243,
    "ay": 1244,
    ") e ": 1245,
    "empenh": 1246,
    "seguranç": 1247,
    "dados, ": 1248,
    "não é ": 1249,
    "h ": 1250,
    "anteri": 1251,
    "Go": 1252,
    "recur": 1253,
    "em 19": 1254,
    "N ": 1255,
    "especific": 1256,
    "eram ": 1257,
    "efici": 1258,
    "of ": 1259,
    "itetur": 1260,
    "étic": 1261,
    "ências ": 1262,
    "grande ": 1263,
    "que": 1264,
    "seja ": 1265,
    "a ou ": 1266,
    "ar os ": 1267,
    "poder": 1268,
    "Open": 1269,
    "definida ": 1270,
    "há ": 1271,
    "yth": 1272,
    "ong": 1273,
    "Con": 1274,
    "ont": 1275,
    "apro": 1276,
    "resp": 1277,
    "ológ": 1278,
    "quais ": 1279,
    "document": 1280,
    "En": 1281,
    "cob": 1282,
    ". Para ": 1283,
    "fornec": 1284,
    "geralmente ": 1285,
    "bo": 1286,
    "infer": 1287,
    "ian": 1288,
    "objetiv": 1289,
    "diferenci": 1290,
    "ível": 1291,
    "natur": 1292,
    "ica, ": 1293,
    "empres": 1294,
    "técnic": 1295,
    "neurais ": 1296,
    "comport": 1297,
    "prátic": 1298,
    "uções ": 1299,
    "ordem ": 1300,
    "genh": 1301,
    "divers": 1302,
    "ífic": 1303,
    "ente": 1304,
    "cer": 1305,
    "era ": 1306,
    "estado ": 1307,
    "acor": 1308,
    "problema ": 1309,
    "d ": 1310,
    "desempenh": 1311,
    "exemplo ": 1312,
    "número ": 1313,
    "muitas ": 1314,
    "ável": 1315,
    "ferr": 1316,
    "às ": 1317,
    "isto ": 1318,
    "nu": 1319,
    "algoritmos ": 1320,
    "suport": 1321,
    "ada para ": 1322,
    "a) ": 1323,
    "assific": 1324,
    "processo de ": 1325,
    "istr": 1326,
    "ár": 1327,
    "método ": 1328,
    "prev": 1329,
    "linear ": 1330,
    "sp": 1331,
    "Mar": 1332,
    "acordo ": 1333,
    "plan": 1334,
    "ão de ": 1335,
    "ceb": 1336,
    "dom": 1337,
    "apresent": 1338,
    "ação e ": 1339,
    "imag": 1340,
    "matemática ": 1341,
    "déc": 1342,
    "tilh": 1343,
    "ar um ": 1344,
    "stit": 1345,
    "entanto, ": 1346,
    "Di": 1347,
    "bil": 1348,
    "no": 1349,
    "al e ": 1350,
    "e que ": 1351,
    "ela ": 1352,
    "ferrament": 1353,
    "ado por ": 1354,
    "dur": 1355,
    "é cham": 1356,
    "ânt": 1357,
    "And": 1358,
    "origin": 1359,
    "ampl": 1360,
    "dens": 1361,
    "aj": 1362,
    "variáveis ": 1363,
    "istas ": 1364,
    "igual ": 1365,
    "não": 1366,
    "ele": 1367,
    "Gr": 1368,
    "ais de ": 1369,
    "dif": 1370,
    "livr": 1371,
    "ainda ": 1372,
    "do que ": 1373,
    "recurs": 1374,
    ". Outr": 1375,
    "ibli": 1376,
    "estud": 1377,
    "os: ": 1378,
    "mostr": 1379,
    "é, ": 1380,
    "..": 1381,
    "grup": 1382,
    "inst": 1383,
    "aument": 1384,
    "metr": 1385,
    ". É ": 1386,
    "correspon": 1387,
    "Uma ": 1388,
    "combin": 1389,
    "el ": 1390,
    "eb": 1391,
    "public": 1392,
    "e e ": 1393,
    "começ": 1394,
    "o ou ": 1395,
    "restr": 1396,
    "Um ": 1397,
    "respost": 1398,
    "vértices ": 1399,
    "dem": 1400,
    "am a ": 1401,
    "alt": 1402,
    " a ": 1403,
    "E ": 1404,
    "fazer ": 1405,
    "gar": 1406,
    "ibliot": 1407,
    "interpret": 1408,
    "obr": 1409,
    ". Ent": 1410,
    "tais ": 1411,
    "termo ": 1412,
    "pú": 1413,
    ". Na ": 1414,
    "1, ": 1415,
    "ais e ": 1416,
    "ibliotec": 1417,
    "médi": 1418,
    "trad": 1419,
    "recursiv": 1420,
    "Th": 1421,
    "o de um ": 1422,
    "teoria da ": 1423,
    "ou seja, ": 1424,
    "S ": 1425,
    "introd": 1426,
    "classific": 1427,
    "cos de ": 1428,
    "divid": 1429,
    "lar": 1430,
    ". El": 1431,
    "gráfic": 1432,
    "apar": 1433,
    "almente, ": 1434,
    "esses ": 1435,
    "Goog": 1436,
    "conjunto ": 1437,
    "produto ": 1438,
    "clus": 1439,
    "0, ": 1440,
    "al da ": 1441,
    "em a ": 1442,
    "os em ": 1443,
    "como um ": 1444,
    "escolh": 1445,
    "amente": 1446,
    "analis": 1447,
    "versão ": 1448,
    "redes neurais ": 1449,
    "que, ": 1450,
    "Pyth": 1451,
    "gradiente ": 1452,
    "formação ": 1453,
    "base ": 1454,
    "centr": 1455,
    "197": 1456,
    "vários ": 1457,
    "usadas ": 1458,
    "propriedad": 1459,
    "Univers": 1460,
    "uni": 1461,
    "a. N": 1462,
    "inu": 1463,
    "cípi": 1464,
    "clas": 1465,
    "emb": 1466,
    "compartilh": 1467,
    "gi": 1468,
    "ados de ": 1469,
    "século ": 1470,
    "hist": 1471,
    "sion": 1472,
    "Como ": 1473,
    "De": 1474,
    "aplicações ": 1475,
    "identific": 1476,
    "Ex": 1477,
    "descob": 1478,
    "bem ": 1479,
    "fis": 1480,
    "Trans": 1481,
    "ran": 1482,
    "ância ": 1483,
    "ções": 1484,
    "rc": 1485,
    "desde ": 1486,
    "amanh": 1487,
    "o. ": 1488,
    "as são ": 1489,
    "camp": 1490,
    "extr": 1491,
    "tent": 1492,
    "polític": 1493,
    "essas ": 1494,
    "sur": 1495,
    "id ": 1496,
    "caso ": 1497,
    "matemá": 1498,
    "computador": 1499,
    "muitos ": 1500,
    "assim ": 1501,
    "agem de ": 1502,
    "a re": 1503,
    "propag": 1504,
    "ar as ": 1505,
    "a mes": 1506,
    "aria ": 1507,
    "cient": 1508,
    "símb": 1509,
    "símbol": 1510,
    "uso ": 1511,
    "class": 1512,
    "e um ": 1513,
    "sobre o ": 1514,
    "organiz": 1515,
    "autor": 1516,
    "âmetr": 1517,
    "otim": 1518,
    "Br": 1519,
    "íngu": 1520,
    "jog": 1521,
    "acesso ": 1522,
    "digit": 1523,
    "long": 1524,
    "embr": 1525,
    "abilidade ": 1526,
    "sido ": 1527,
    "lic": 1528,
    "o de uma ": 1529,
    "menos ": 1530,
    "forma de ": 1531,
    "mó": 1532,
    "os (": 1533,
    "ectiv": 1534,
    "parâmetr": 1535,
    "ocorr": 1536,
    "a mesma ": 1537,
    "a; ": 1538,
    "list": 1539,
    "sing": 1540,
    "Andro": 1541,
    "sint": 1542,
    "oment": 1543,
    "década de ": 1544,
    "três ": 1545,
    "conex": 1546,
    "ações": 1547,
    "pot": 1548,
    "dispon": 1549,
    "esqu": 1550,
    "sempr": 1551,
    "abor": 1552,
    "rig": 1553,
    "dispositiv": 1554,
    "ou o ": 1555,
    "P ": 1556,
    ". F": 1557,
    "mec": 1558,
    "bibliotec": 1559,
    "áveis": 1560,
    "algumas ": 1561,
    "teste ": 1562,
    "amos ": 1563,
    "icl": 1564,
    "cálcul": 1565,
    "Ne": 1566,
    "geom": 1567,
    "ví": 1568,
    "forç": 1569,
    "M ": 1570,
    "texto ": 1571,
    "vetorial ": 1572,
    "os são ": 1573,
    "definição ": 1574,
    "iter": 1575,
    "língu": 1576,
    "moment": 1577,
    "IA": 1578,
    "compil": 1579,
    "linguagem de ": 1580,
    "mens": 1581,
    "ava ": 1582,
    "fundament": 1583,
    "capacidade ": 1584,
    "202": 1585,
    "semelh": 1586,
    "outro ": 1587,
    "tamanh": 1588,
    "e (": 1589,
    "as da ": 1590,
    "a-": 1591,
    "o, a ": 1592,
    "priv": 1593,
    "aplicação ": 1594,
    "distribuição de probabilidade ": 1595,
    "PU": 1596,
    "má": 1597,
    "atrib": 1598,
    "gebr": 1599,
    "interval": 1600,
    "em relação ": 1601,
    "ando o ": 1602,
    "5 ": 1603,
    "met": 1604,
    "árv": 1605,
    "ar, ": 1606,
    "cess": 1607,
    "prote": 1608,
    "y, ": 1609,
    "arquitetur": 1610,
    "não-": 1611,
    "eiro ": 1612,
    "que se ": 1613,
    "4 ": 1614,
    "r ": 1615,
    "fís": 1616,
    "enquanto ": 1617,
    "verific": 1618,
    "atenção ": 1619,
    "din": 1620,
    "fico": 1621,
    "solução ": 1622,
    "explic": 1623,
    "ival": 1624,
    "gument": 1625,
    "distribuições ": 1626,
    "escalar ": 1627,
    "uso de ": 1628,
    "mic": 1629,
    "frequentemente ": 1630,
    "as para ": 1631,
    "dest": 1632,
    "al (": 1633,
    "criptograf": 1634,
    "discret": 1635,
    "ando a ": 1636,
    "text": 1637,
    "gunt": 1638,
    "ide": 1639,
    "diag": 1640,
    "sejam ": 1641,
    "tom": 1642,
    "bit": 1643,
    "ados para ": 1644,
    "possui ": 1645,
    "a. O ": 1646,
    "séri": 1647,
    "ambi": 1648,
    "ura ": 1649,
    "que as ": 1650,
    "análise de ": 1651,
    "ores": 1652,
    "RN": 1653,
    "neurôni": 1654,
    "agem": 1655,
    "istem": 1656,
    "argument": 1657,
    "conect": 1658,
    "sistema de ": 1659,
    "2, ": 1660,
    "últipl": 1661,
    "entes": 1662,
    "conhecido ": 1663,
    "mant": 1664,
    "IS": 1665,
    "ência, ": 1666,
    "por um ": 1667,
    "ó ": 1668,
    "sobre a ": 1669,
    "dic": 1670,
    "num ": 1671,
    "assu": 1672,
    "ática ": 1673,
    "D ": 1674,
    "lanç": 1675,
    "edi": 1676,
    "hi": 1677,
    "etc": 1678,
    "Google ": 1679,
    "on, ": 1680,
    "diss": 1681,
    "ás": 1682,
    "possi": 1683,
    "conhecimento de ": 1684,
    "ece ": 1685,
    "a partir ": 1686,
    "mov": 1687,
    ". H": 1688,
    "ase ": 1689,
    "os para ": 1690,
    "a com ": 1691,
    "en ": 1692,
    "múltipl": 1693,
    "idades de ": 1694,
    "ulares ": 1695,
    "ata ": 1696,
    "tipos de ": 1697,
    "importante ": 1698,
    "que não ": 1699,
    "ER": 1700,
    "cert": 1701,
    "10": 1702,
    "permi": 1703,
    "Un": 1704,
    "tok": 1705,
    "ões de ": 1706,
    "dado ": 1707,
    "ar e ": 1708,
    "domíni": 1709,
    "propriedades ": 1710,
    "descre": 1711,
    "incluindo ": 1712,
    "verdad": 1713,
    "entradas ": 1714,
    "século X": 1715,
    "abstr": 1716,
    "ada a ": 1717,
    "a, a ": 1718,
    "Anális": 1719,
    "Mat": 1720,
    "gin": 1721,
    "ChatGPT ": 1722,
    "Intern": 1723,
    "alidade ": 1724,
    "rem": 1725,
    "und": 1726,
    "ui ": 1727,
    "anto ": 1728,
    "adas, ": 1729,
    "investi": 1730,
    "ença ": 1731,
    "ric": 1732,
    "infinit": 1733,
    "discurs": 1734,
    "variável aleatóri": 1735,
    "incluem ": 1736,
    "caminh": 1737,
    "confi": 1738,
    "mon": 1739,
    "L ": 1740,
    "rec": 1741,
    "neural ": 1742,
    "ente de ": 1743,
    "equival": 1744,
    "dit": 1745,
    "eu ": 1746,
    "fór": 1747,
    "comum ": 1748,
    "mos de ": 1749,
    "especial": 1750,
    "adas por ": 1751,
    "lo": 1752,
    "o. A ": 1753,
    "após ": 1754,
    "Mod": 1755,
    "inteligência artifici": 1756,
    "afir": 1757,
    "cálculo ": 1758,
    "sto ": 1759,
    "asil": 1760,
    "classe ": 1761,
    "event": 1762,
    "éri": 1763,
    "hard": 1764,
    "T ": 1765,
    "ack": 1766,
    "introduz": 1767,
    "rá": 1768,
    "campo ": 1769,
    "eú": 1770,
    "expl": 1771,
    "temp": 1772,
    "tran": 1773,
    "and ": 1774,
    "amostr": 1775,
    "simples": 1776,
    "princípi": 1777,
    "arestas ": 1778,
    "invers": 1779,
    "Mic": 1780,
    "art": 1781,
    "com um ": 1782,
    "198": 1783,
    "as (": 1784,
    "pens": 1785,
    "funções de ": 1786,
    "ban": 1787,
    "tipo de ": 1788,
    "neg": 1789,
    "ativa ": 1790,
    "superi": 1791,
    "ínim": 1792,
    "sempre ": 1793,
    "desenvol": 1794,
    "situ": 1795,
    "hom": 1796,
    "as do ": 1797,
    "entrop": 1798,
    "Lingu": 1799,
    "dicion": 1800,
    "mica ": 1801,
    "). A ": 1802,
    "ub": 1803,
    "pop": 1804,
    "tir ": 1805,
    "ulti": 1806,
    "estabel": 1807,
    "maioria ": 1808,
    "circ": 1809,
    "es e ": 1810,
    "o, o ": 1811,
    "conteú": 1812,
    "sucess": 1813,
    "permite ": 1814,
    "a\"": 1815,
    "fe": 1816,
    "resolver ": 1817,
    "cicl": 1818,
    "colun": 1819,
    ". Se ": 1820,
    "problemas de ": 1821,
    "diz": 1822,
    "18": 1823,
    "programa ": 1824,
    "leg": 1825,
    "proced": 1826,
    "Program": 1827,
    "veloci": 1828,
    "anos ": 1829,
    "nós ": 1830,
    "esper": 1831,
    "corpor": 1832,
    "ar de ": 1833,
    "possibil": 1834,
    "del": 1835,
    "as em ": 1836,
    "será ": 1837,
    "expressão ": 1838,
    "somente ": 1839,
    "imp": 1840,
    "etria ": 1841,
    "Em ": 1842,
    "ciência da ": 1843,
    "engenh": 1844,
    ". Este ": 1845,
    "e para ": 1846,
    "cab": 1847,
    ", mas ": 1848,
    "tes": 1849,
    "anis": 1850,
    "medi": 1851,
    "tabel": 1852,
    "over": 1853,
    "ente, ": 1854,
    "isso ": 1855,
    "arquiv": 1856,
    "dul": 1857,
    "mud": 1858,
    "tro": 1859,
    "ções, ": 1860,
    "cé": 1861,
    "Te": 1862,
    "métodos ": 1863,
    "retor": 1864,
    "conhecimento ": 1865,
    "á-l": 1866,
    "dec": 1867,
    "oso": 1868,
    "Jo": 1869,
    "fam": 1870,
    "cep": 1871,
    "capaz": 1872,
    "ug": 1873,
    "const": 1874,
    "os ou ": 1875,
    "garant": 1876,
    "uído ": 1877,
    "ra": 1878,
    "própri": 1879,
    "espaço de ": 1880,
    "pergunt": 1881,
    "devem ": 1882,
    "NP": 1883,
    "ística ": 1884,
    "ation": 1885,
    "que os ": 1886,
    "erv": 1887,
    "cat": 1888,
    "baix": 1889,
    "Os ": 1890,
    "om ": 1891,
    "orient": 1892,
    "produ": 1893,
    "a. Em ": 1894,
    "generaliz": 1895,
    "parad": 1896,
    "Ci": 1897,
    "correspond": 1898,
    "unda ": 1899,
    "que são ": 1900,
    "adequ": 1901,
    ", então ": 1902,
    "gul": 1903,
    "eletr": 1904,
    "Joh": 1905,
    "ores, ": 1906,
    "3, ": 1907,
    "o. O ": 1908,
    "ante": 1909,
    "sequência de ": 1910,
    "operacion": 1911,
    "mínim": 1912,
    "pelos ": 1913,
    "com uma ": 1914,
    "eu": 1915,
    "voc": 1916,
    "hav": 1917,
    "termos ": 1918,
    "ân": 1919,
    "pessoas ": 1920,
    "seguinte ": 1921,
    "álgebr": 1922,
    "sentido ": 1923,
    "semânt": 1924,
    "set": 1925,
    "fórmul": 1926,
    "ações, ": 1927,
    "gl": 1928,
    "e-": 1929,
    "escre": 1930,
    "intern": 1931,
    "Dis": 1932,
    "ata": 1933,
    "exper": 1934,
    ". Exempl": 1935,
    ". Alg": 1936,
    "as: ": 1937,
    "mor": 1938,
    "tido ": 1939,
    "grand": 1940,
    ". Qu": 1941,
    "am o ": 1942,
    ". Esta ": 1943,
    "exig": 1944,
    "ech": 1945,
    "ast": 1946,
    "única ": 1947,
    "entes de ": 1948,
    "a, o ": 1949,
    "polin": 1950,
    "tenh": 1951,
    "dados de ": 1952,
    "condi": 1953,
    "zer": 1954,
    "rob": 1955,
    "dinâ": 1956,
    "desenvolvimento de ": 1957,
    "ados por ": 1958,
    "ge ": 1959,
    "tipo ": 1960,
    "ell": 1961,
    "específic": 1962,
    "circuit": 1963,
    "conf": 1964,
    "falh": 1965,
    "edade ": 1966,
    "entes, ": 1967,
    "usado ": 1968,
    "asp": 1969,
    "ida de ": 1970,
    "estados ": 1971,
    "w ": 1972,
    ". Con": 1973,
    "matriz de ": 1974,
    "trabalho ": 1975,
    ". V": 1976,
    "algoritmo de ": 1977,
    "nul": 1978,
    ". Isto ": 1979,
    "a máquin": 1980,
    "imento ": 1981,
    "espaços ": 1982,
    "log ": 1983,
    "segundo ": 1984,
    "econ": 1985,
    "er, ": 1986,
    "ion": 1987,
    "196": 1988,
    "] ": 1989,
    "ssim": 1990,
    ". Exist": 1991,
    "a. S": 1992,
    "normalmente ": 1993,
    "a partir de ": 1994,
    "se a ": 1995,
    "a, que ": 1996,
    "através de ": 1997,
    "sob ": 1998,
    "ris": 1999,
    "módul": 2000,
    "uma função ": 2001,
    "veu ": 2002,
    "ficos ": 2003,
    "tempo": 2004,
    "banc": 2005,
    "raci": 2006,
    "processo ": 2007,
    "RA": 2008,
    "ponto ": 2009,
    "Android ": 2010,
    "consult": 2011,
    "OpenA": 2012,
    "aria de ": 2013,
    "máquina de ": 2014,
    "195": 2015,
    "ê ": 2016,
    "artigo ": 2017,
    "nico ": 2018,
    "flux": 2019,
    "potenci": 2020,
    "cres": 2021,
    "ecer ": 2022,
    "): ": 2023,
    "usuári": 2024,
    "gra": 2025,
    "toda ": 2026,
    "denot": 2027,
    "ança ": 2028,
    "o) ": 2029,
    "); ": 2030,
    "autom": 2031,
    "ômi": 2032,
    "obter ": 2033,
    "resultado ": 2034,
    "reduz": 2035,
    "sec": 2036,
    "tiz": 2037,
    "máquina ": 2038,
    "faci": 2039,
    "adas em ": 2040,
    "além ": 2041,
    "ed ": 2042,
    "son": 2043,
    "Des": 2044,
    "públic": 2045,
    "camada ": 2046,
    "tecnologi": 2047,
    "icos ": 2048,
    "fac": 2049,
    "avam ": 2050,
    "direcion": 2051,
    ". Como ": 2052,
    "iníci": 2053,
    "diversas ": 2054,
    "desig": 2055,
    "imin": 2056,
    "ep": 2057,
    "ráp": 2058,
    "caus": 2059,
    "palavras ": 2060,
    "ocult": 2061,
    "durant": 2062,
    "visão ": 2063,
    "6 ": 2064,
    "rede neural ": 2065,
    "o de 201": 2066,
    "manip": 2067,
    "maneira ": 2068,
    "cipl": 2069,
    "bast": 2070,
    "algum ": 2071,
    "is, ": 2072,
    "quest": 2073,
    "V ": 2074,
    "continu": 2075,
    "possíveis ": 2076,
    "/ ": 2077,
    "? ": 2078,
    "CPU": 2079,
    "demon": 2080,
    "usuários ": 2081,
    "Proc": 2082,
    "propost": 2083,
    "educ": 2084,
    ". Essa ": 2085,
    "modo ": 2086,
    "conhecida ": 2087,
    "grandes ": 2088,
    "alto ": 2089,
    "all": 2090,
    "abaix": 2091,
    "usuário ": 2092,
    "o dos ": 2093,
    ". No entanto, ": 2094,
    "or de ": 2095,
    "registr": 2096,
    "ado a ": 2097,
    "dentr": 2098,
    "inteir": 2099,
    "poderia ": 2100,
    "direitos ": 2101,
    "e os ": 2102,
    "chave ": 2103,
    "conver": 2104,
    "ém": 2105,
    "resultados ": 2106,
    "teori": 2107,
    "simples ": 2108,
    "máquinas de ": 2109,
    "máxim": 2110,
    "particular": 2111,
    "tur": 2112,
    "ciplin": 2113
  }
}