{
  "version": "1.0",
  "truncation": null,
  "padding": null,
  "added_tokens": [
    {
      "id": 0,
      "content": "<unk>",
      "single_word": false,
      "lstrip": false,
      "rstrip": false,
      "normalized": false,
      "special": true
    }
  ],
  "normalizer": null,
  "pre_tokenizer": {
    "type": "ByteLevel",
    "add_prefix_space": false,
    "trim_offsets": true,
    "use_regex": true
  },
  "post_processor": null,
  "decoder": {
    "type": "ByteLevel",
    "add_prefix_space": true,
    "trim_offsets": true,
    "use_regex": true
  },
  "model": {
    "type": "BPE",
    "dropout": null,
    "unk_token": "<unk>",
    "continuing_subword_prefix": null,
    "end_of_word_suffix": null,
    "fuse_unk": false,
    "byte_fallback": false,
    "ignore_merges": false,
    "vocab": {
      "<unk>": 0,
      "!": 1,
      "\"": 2,
      "#": 3,
      "$": 4,
      "%": 5,
      "&": 6,
      "'": 7,
      "(": 8,
      ")": 9,
      "*": 10,
      "+": 11,
      ",": 12,
      "-": 13,
      ".": 14,
      "/": 15,
      "0": 16,
      "1": 17,
      "2": 18,
      "3": 19,
      "4": 20,
      "5": 21,
      "6": 22,
      "7": 23,
      "8": 24,
      "9": 25,
      ":": 26,
      ";": 27,
      "<": 28,
      "=": 29,
      ">": 30,
      "?": 31,
      "@": 32,
      "A": 33,
      "B": 34,
      "C": 35,
      "D": 36,
      "E": 37,
      "F": 38,
      "G": 39,
      "H": 40,
      "I": 41,
      "J": 42,
      "K": 43,
      "L": 44,
      "M": 45,
      "N": 46,
      "O": 47,
      "P": 48,
      "Q": 49,
      "R": 50,
      "S": 51,
      "T": 52,
      "U": 53,
      "V": 54,
      "W": 55,
      "X": 56,
      "Y": 57,
      "Z": 58,
      "[": 59,
      "\\": 60,
      "]": 61,
      "^": 62,
      "_": 63,
      "`": 64,
      "a": 65,
      "b": 66,
      "c": 67,
      "d": 68,
      "e": 69,
      "f": 70,
      "g": 71,
      "h": 72,
      "i": 73,
      "j": 74,
      "k": 75,
      "l": 76,
      "m": 77,
      "n": 78,
      "o": 79,
      "p": 80,
      "q": 81,
      "r": 82,
      "s": 83,
      "t": 84,
      "u": 85,
      "v": 86,
      "w": 87,
      "x": 88,
      "y": 89,
      "z": 90,
      "{": 91,
      "|": 92,
      "}": 93,
      "~": 94,
      "¡": 95,
      "¢": 96,
      "£": 97,
      "¤": 98,
      "¥": 99,
      "¦": 100,
      "§": 101,
      "¨": 102,
      "©": 103,
      "ª": 104,
      "«": 105,
      "¬": 106,
      "®": 107,
      "¯": 108,
      "°": 109,
      "±": 110,
      "²": 111,
      "³": 112,
      "´": 113,
      "µ": 114,
      "¶": 115,
      "·": 116,
      "¸": 117,
      "¹": 118,
      "º": 119,
      "»": 120,
      "¼": 121,
      "½": 122,
      "¾": 123,
      "¿": 124,
      "À": 125,
      "Á": 126,
      "Â": 127,
      "Ã": 128,
      "Ä": 129,
      "Å": 130,
      "Æ": 131,
      "Ç": 132,
      "È": 133,
      "É": 134,
      "Ê": 135,
      "Ë": 136,
      "Ì": 137,
      "Í": 138,
      "Î": 139,
      "Ï": 140,
      "Ð": 141,
      "Ñ": 142,
      "Ò": 143,
      "Ó": 144,
      "Ô": 145,
      "Õ": 146,
      "Ö": 147,
      "×": 148,
      "Ø": 149,
      "Ù": 150,
      "Ú": 151,
      "Û": 152,
      "Ü": 153,
      "Ý": 154,
      "Þ": 155,
      "ß": 156,
      "à": 157,
      "á": 158,
      "â": 159,
      "ã": 160,
      "ä": 161,
      "å": 162,
      "æ": 163,
      "ç": 164,
      "è": 165,
      "é": 166,
      "ê": 167,
      "ë": 168,
      "ì": 169,
      "í": 170,
      "î": 171,
      "ï": 172,
      "ð": 173,
      "ñ": 174,
      "ò": 175,
      "ó": 176,
      "ô": 177,
      "õ": 178,
      "ö": 179,
      "÷": 180,
      "ø": 181,
      "ù": 182,
      "ú": 183,
      "û": 184,
      "ü": 185,
      "ý": 186,
      "þ": 187,
      "ÿ": 188,
      "Ā": 189,
      "ā": 190,
      "Ă": 191,
      "ă": 192,
      "Ą": 193,
      "ą": 194,
      "Ć": 195,
      "ć": 196,
      "Ĉ": 197,
      "ĉ": 198,
      "Ċ": 199,
      "ċ": 200,
      "Č": 201,
      "č": 202,
      "Ď": 203,
      "ď": 204,
      "Đ": 205,
      "đ": 206,
      "Ē": 207,
      "ē": 208,
      "Ĕ": 209,
      "ĕ": 210,
      "Ė": 211,
      "ė": 212,
      "Ę": 213,
      "ę": 214,
      "Ě": 215,
      "ě": 216,
      "Ĝ": 217,
      "ĝ": 218,
      "Ğ": 219,
      "ğ": 220,
      "Ġ": 221,
      "ġ": 222,
      "Ģ": 223,
      "ģ": 224,
      "Ĥ": 225,
      "ĥ": 226,
      "Ħ": 227,
      "ħ": 228,
      "Ĩ": 229,
      "ĩ": 230,
      "Ī": 231,
      "ī": 232,
      "Ĭ": 233,
      "ĭ": 234,
      "Į": 235,
      "į": 236,
      "İ": 237,
      "ı": 238,
      "Ĳ": 239,
      "ĳ": 240,
      "Ĵ": 241,
      "ĵ": 242,
      "Ķ": 243,
      "ķ": 244,
      "ĸ": 245,
      "Ĺ": 246,
      "ĺ": 247,
      "Ļ": 248,
      "ļ": 249,
      "Ľ": 250,
      "ľ": 251,
      "Ŀ": 252,
      "ŀ": 253,
      "Ł": 254,
      "ł": 255,
      "Ń": 256,
      "Ġe": 257,
      "de": 258,
      "Ġp": 259,
      "Ġa": 260,
      "co": 261,
      "te": 262,
      "re": 263,
      "ma": 264,
      "Ġs": 265,
      "Ġde": 266,
      "ar": 267,
      "Ã§": 268,
      "Ġco": 269,
      "do": 270,
      "Ġo": 271,
      "es": 272,
      "is": 273,
      "ta": 274,
      "mp": 275,
      "or": 276,
      "er": 277,
      "os": 278,
      "ca": 279,
      "Ã§Ã": 280,
      "da": 281,
      "en": 282,
      "Ġf": 283,
      "Ġu": 284,
      "Ġre": 285,
      "Ã¡": 286,
      "£o": 287,
      "ti": 288,
      "so": 289,
      "mpl": 290,
      "ra": 291,
      "to": 292,
      "Ġi": 293,
      "ci": 294,
      "Ã§Ã£o": 295,
      "di": 296,
      "nte": 297,
      "Ġcon": 298,
      "Ġm": 299,
      "Ġpo": 300,
      "ua": 301,
      "Ġpr": 302,
      "Ġex": 303,
      "li": 304,
      "Ġem": 305,
      "as": 306,
      "µes": 307,
      "Ġcom": 308,
      "Ã©": 309,
      "Ġdi": 310,
      "Ġsi": 311,
      "ĠE": 312,
      "Ġes": 313,
      "lh": 314,
      "Ġse": 315,
      "Ġpode": 316,
      "Ġn": 317,
      "Ġma": 318,
      "ri": 319,
      "Ġexe": 320,
      "Ġexempl": 321,
      "tica": 322,
      "Ã§Ãµes": 323,
      "Ġin": 324,
      "erv": 325,
      "un": 326,
      "ĠEs": 327,
      "ce": 328,
      "Ġuma": 329,
      "gi": 330,
      "Ġte": 331,
      "tu": 332,
      "Ġpar": 333,
      "Ã¡tica": 334,
      "men": 335,
      "Ġb": 336,
      "Ġca": 337,
      "Ġap": 338,
      "orma": 339,
      "ĠN": 340,
      "Ġob": 341,
      "Ġsimpl": 342,
      "Ġsimples": 343,
      "Ġdo": 344,
      "qu": 345,
      "Ġmais": 346,
      "esso": 347,
      "le": 348,
      "Ġpro": 349,
      "se": 350,
      "der": 351,
      "serv": 352,
      "Ġobserv": 353,
      "Ġexemplo": 354,
      "cis": 355,
      "Ġforma": 356,
      "na": 357,
      "Ġc": 358,
      "ni": 359,
      "sa": 360,
      "Ġpre": 361,
      "Ġcomp": 362,
      "cor": 363,
      "Ġobserva": 364,
      "gu": 365,
      "Ġprecis": 366,
      "ol": 367,
      "Ġinf": 368,
      "Ġt": 369,
      "Ġpesso": 370,
      "uan": 371,
      "ĠÃ©": 372,
      "la": 373,
      "nÃ§": 374,
      "tos": 375,
      "em": 376,
      "Ġfa": 377,
      "ve": 378,
      "res": 379,
      "Ġestu": 380,
      "Ġum": 381,
      "Ġpessoa": 382,
      "tado": 383,
      "uda": 384,
      "Ġno": 385,
      "ĠNo": 386,
      "vi": 387,
      "gita": 388,
      "Ġdigita": 389,
      "ui": 390,
      "fi": 391,
      "cia": 392,
      "uando": 393,
      "Ġcaso": 394,
      "Ġprecisar": 395,
      "Ġcomun": 396,
      "ĠEste": 397,
      "Ġrecor": 398,
      "Ġrecorte": 399,
      "ro": 400,
      "tas": 401,
      "si": 402,
      "ĠprÃ¡tica": 403,
      "ec": 404,
      "Ġaj": 405,
      "Ġajuda": 406,
      "nder": 407,
      "Ġq": 408,
      "ga": 409,
      "ĠEsse": 410,
      "mas": 411,
      "tua": 412,
      "cos": 413,
      "Ã£o": 414,
      "nÃ§a": 415,
      "Ġme": 416,
      "orm": 417,
      "gra": 418,
      "Ġpara": 419,
      "Ġmelh": 420,
      "Ġda": 421,
      "ntes": 422,
      "ĠA": 423,
      "aÃ§Ã£o": 424,
      "ĠO": 425,
      "Ġmelhor": 426,
      "Ġal": 427,
      "Ġsegu": 428,
      "Ġcomuns": 429,
      "Ġta": 430,
      "ormÃ¡tica": 431,
      "Ã³": 432,
      "ĠinformÃ¡tica": 433,
      "om": 434,
      "cei": 435,
      "bi": 436,
      "Ġuso": 437,
      "mento": 438,
      "are": 439,
      "Ġconcei": 440,
      "lica": 441,
      "Ãª": 442,
      "lu": 443,
      "ente": 444,
      "su": 445,
      "Ã©m": 446,
      "Ġcompu": 447,
      "ten": 448,
      "dade": 449,
      "Ġcomputado": 450,
      "Ġaplica": 451,
      "mos": 452,
      "al": 453,
      "ncia": 454,
      "Ġd": 455,
      "Ġdigitais": 456,
      "Ġtra": 457,
      "Ġsem": 458,
      "lo": 459,
      "Ġexemplos": 460,
      "Ġna": 461,
      "alh": 462,
      "orta": 463,
      "niz": 464,
      "Ġor": 465,
      "Ġli": 466,
      "das": 467,
      "Ġimp": 468,
      "Ãªncia": 469,
      "dos": 470,
      "balh": 471,
      "Ġtrabalh": 472,
      "Ġv": 473,
      "Ġorga": 474,
      "Ġorganiz": 475,
      "vos": 476,
      "iste": 477,
      "arece": 478,
      "ensa": 479,
      "Ã¡ri": 480,
      "cio": 481,
      "lar": 482,
      "Ġsitua": 483,
      "ica": 484,
      "Ġmo": 485,
      "ÃŃ": 486,
      "Ġen": 487,
      "Ġaparece": 488,
      "Ġquando": 489,
      "Ġimporta": 490,
      "Ġdia": 491,
      "uto": 492,
      "Ġg": 493,
      "Ġimportante": 494,
      "Ġparte": 495,
      "ranÃ§a": 496,
      "Ġtrabalho": 497,
      "ntender": 498,
      "Ġserv": 499,
      "Ġper": 500,
      "Ġservi": 501,
      "ecer": 502,
      "Ġou": 503,
      "ĠseguranÃ§a": 504,
      "Ġauto": 505,
      "Ġmui": 506,
      "hecer": 507,
      "ĠP": 508,
      "eti": 509,
      "nto": 510,
      "Ãµes": 511,
      "Ġfun": 512,
      "isso": 513,
      "ais": 514,
      "cu": 515,
      "ciona": 516,
      "Ġfaz": 517,
      "ĠsituaÃ§Ãµes": 518,
      "mo": 519,
      "Ġestudo": 520,
      "ĠalÃ©m": 521,
      "ble": 522,
      "Ġreais": 523,
      "Ġsiste": 524,
      "tenÃ§Ã£o": 525,
      "Ġconceitos": 526,
      "ia": 527,
      "Ġser": 528,
      "ros": 529,
      "ĠorganizaÃ§Ã£o": 530,
      "fe": 531,
      "Ãº": 532,
      "car": 533,
      "Ġevi": 534,
      "Ġer": 535,
      "Ġso": 536,
      "Ġevita": 537,
      "Ġ1": 538,
      "Ġproble": 539,
      "Ġar": 540,
      "eÃ§": 541,
      "gen": 542,
      "ne": 543,
      "Ġsol": 544,
      "dado": 545,
      "po": 546,
      "Ġcui": 547,
      "Ġantes": 548,
      "tra": 549,
      "Ġclar": 550,
      "fere": 551,
      "Quando": 552,
      "qui": 553,
      "Ġrep": 554,
      "Ġfo": 555,
      "Ġsolu": 556,
      "Ã¡rio": 557,
      "Ġle": 558,
      "Ġdifere": 559,
      "Ġesco": 560,
      "Ġas": 561,
      "Ã§os": 562,
      "Ġsistemas": 563,
      "Ġusu": 564,
      "Ġ2": 565,
      "Ġproc": 566,
      "Ġter": 567,
      "mente": 568,
      "Ġcuidado": 569,
      "Ġinte": 570,
      "Ġfaci": 571,
      "lita": 572,
      "va": 573,
      "Ġqu": 574,
      "Ġfacilita": 575,
      "entes": 576,
      "ĠC": 577,
      "Ġh": 578,
      "Ġrepeti": 579,
      "gia": 580,
      "ĠQuando": 581,
      "Ġfica": 582,
      "Ã¡si": 583,
      "ĠbÃ¡si": 584,
      "tar": 585,
      "quÃªncia": 586,
      "Ġcomputador": 587,
      "Ġestuda": 588,
      "Ġfoi": 589,
      "taÃ§Ã£o": 590,
      "ĠserviÃ§os": 591,
      "pre": 592,
      "Ġres": 593,
      "fo": 594,
      "gens": 595,
      "Ġmelhora": 596,
      "Ġdigital": 597,
      "ĠNes": 598,
      "grafo": 599,
      "Ġpor": 600,
      "Ġ3": 601,
      "Ġbem": 602,
      "Ġerros": 603,
      "ĠatenÃ§Ã£o": 604,
      "Ġam": 605,
      "ĠusuÃ¡rio": 606,
      "lidade": 607,
      "ĠsequÃªncia": 608,
      "Ġante": 609,
      "ĠparÃ¡": 610,
      "rior": 611,
      "ĠparÃ¡grafo": 612,
      "Ġambi": 613,
      "Ġcomputadores": 614,
      "Ġanterior": 615,
      "Ġblo": 616,
      "tr": 617,
      "ĠNeste": 618,
      "Ġpensa": 619,
      "Ġbloco": 620,
      "vol": 621,
      "Ġrepetir": 622,
      "Ġpensado": 623,
      "Ġconec": 624,
      "ĠfunÃ§Ã£o": 625,
      "Ġtec": 626,
      "Ġrela": 627,
      "unto": 628,
      "Ġcada": 629,
      "Ġambientes": 630,
      "Ġtermos": 631,
      "ĠcomeÃ§": 632,
      "con": 633,
      "tivos": 634,
      "mb": 635,
      "Ġ4": 636,
      "Ġescolh": 637,
      "ciente": 638,
      "Ġdire": 639,
      "Ġtema": 640,
      "Ġmas": 641,
      "Ġtex": 642,
      "Ġproblemas": 643,
      "tura": 644,
      "Ġdes": 645,
      "ĠM": 646,
      "ĠprÃ¡ticas": 647,
      "Ġsob": 648,
      "nom": 649,
      "Ġentender": 650,
      "olo": 651,
      "Ġsobre": 652,
      "Ġponto": 653,
      "Ġinc": 654,
      "gir": 655,
      "he": 656,
      "ref": 657,
      "ologia": 658,
      "per": 659,
      "Ġtaref": 660,
      "Em": 661,
      "rar": 662,
      "Ġtecn": 663,
      "ĠCom": 664,
      "cil": 665,
      "ĠfÃ¡": 666,
      "Ġcompar": 667,
      "du": 668,
      "Ġque": 669,
      "nomia": 670,
      "ĠfÃ¡cil": 671,
      "Ġautonomia": 672,
      "Ġtecnologia": 673,
      "Ġesse": 674,
      "Ġsen": 675,
      "Ġinclu": 676,
      "Ġger": 677,
      "Ġdados": 678,
      "conhecer": 679,
      "Ġtor": 680,
      "Ġresu": 681,
      "Ġdecor": 682,
      "Ġpas": 683,
      "Ġtarefas": 684,
      "Ġdecorar": 685,
      "ĠhÃ¡": 686,
      "ĠaplicaÃ§Ãµes": 687,
      "Apre": 688,
      "Ġass": 689,
      "reen": 690,
      "Aprender": 691,
      "Ġpodem": 692,
      "Ġcompl": 693,
      "Ġtorna": 694,
      "Ġdisso": 695,
      "Ġresul": 696,
      "Ġbas": 697,
      "lhas": 698,
      "reender": 699,
      "enas": 700,
      "Ġgeral": 701,
      "heci": 702,
      "Ġmuitas": 703,
      "Ġresultado": 704,
      "ficiente": 705,
      "Ã³ri": 706,
      "dores": 707,
      "Ġpe": 708,
      "Ġconheci": 709,
      "pos": 710,
      "esmo": 711,
      "Ġprecisa": 712,
      "ĠOs": 713,
      "ĠPor": 714,
      "Ġconfi": 715,
      "ĠnÃ£o": 716,
      "qua": 717,
      "Ġeficiente": 718,
      "Ġbase": 719,
      "ara": 720,
      "Ġprocesso": 721,
      "nos": 722,
      "cri": 723,
      "Ġrelaciona": 724,
      "Ġade": 725,
      "sar": 726,
      "ĠNa": 727,
      "quivos": 728,
      "Ġadequa": 729,
      "volve": 730,
      "tamente": 731,
      "Ġconhecimento": 732,
      "ĠEle": 733,
      "Ġexi": 734,
      "ciar": 735,
      "Ġclara": 736,
      "Ġfazer": 737,
      "Ġincluem": 738,
      "ĠdiferenÃ§a": 739,
      "Ġescolher": 740,
      "Ġconfigu": 741,
      "Ġconceito": 742,
      "tor": 743,
      "ĠMesmo": 744,
      "dar": 745,
      "Ġir": 746,
      "ĠsoluÃ§Ãµes": 747,
      "icar": 748,
      "Ġreconhecer": 749,
      "Na": 750,
      "ĠbÃ¡sicos": 751,
      "Ġaplicado": 752,
      "Ġexigir": 753,
      "Ġmuitos": 754,
      "Ġadequadas": 755,
      "Ġusar": 756,
      "Ġcomplicar": 757,
      "Ġmensa": 758,
      "Ġinflu": 759,
      "Ġmoder": 760,
      "Ġinfluen": 761,
      "Ġdiretamente": 762,
      "us": 763,
      "Qu": 764,
      "Ġmodernos": 765,
      "Ġconecta": 766,
      "Ġassunto": 767,
      "Ġide": 768,
      "Ġseguro": 769,
      "ĠnoÃ§Ãµes": 770,
      "Ġconhecer": 771,
      "Ġinfluenciar": 772,
      "Quem": 773,
      "Entender": 774,
      "amento": 775,
      "Ġdocu": 776,
      "Ġdocumen": 777,
      "Ġisso": 778,
      "Ġenvolve": 779,
      "Ġarquivos": 780,
      "Ġlida": 781,
      "Ġobservado": 782,
      "Ġcompreender": 783,
      "Ġlidamos": 784,
      "Ġlei": 785,
      "Ġtes": 786,
      "mi": 787,
      "bilidade": 788,
      "Ġpla": 789,
      "nal": 790,
      "Ġpa": 791,
      "Ġpequ": 792,
      "Ġmensagens": 793,
      "Ġava": 794,
      "Ġinter": 795,
      "tÃ³ri": 796,
      "maÃ§Ã£o": 797,
      "Ġdeve": 798,
      "Ġquan": 799,
      "pon": 800,
      "til": 801,
      "Ġfra": 802,
      "in": 803,
      "Ġdis": 804,
      "raÃ§Ãµes": 805,
      "ĠU": 806,
      "Ġini": 807,
      "Ġinicia": 808,
      "ĠconfiguraÃ§Ãµes": 809,
      "Ġquanto": 810,
      "Ġcasa": 811,
      "Ġ5": 812,
      "Ġon": 813,
      "Ġtanto": 814,
      "Ġaos": 815,
      "Ġestudar": 816,
      "Ġrecu": 817,
      "ĠsÃ£o": 818,
      "Ġiniciantes": 819,
      "ul": 820,
      "ĠcomeÃ§ar": 821,
      "ĠPara": 822,
      "Ġrespon": 823,
      "ver": 824,
      "sos": 825,
      "Ġusa": 826,
      "Ġpou": 827,
      "Ġpoucos": 828,
      "mbÃ©m": 829,
      "Ã¡ve": 830,
      "Ġfalhas": 831,
      "Ġrede": 832,
      "vo": 833,
      "ĠavanÃ§": 834,
      "Ġtexto": 835,
      "Ġideal": 836,
      "Ġfi": 837,
      "ĠavanÃ§ar": 838,
      "ĠtambÃ©m": 839,
      "Ġcomo": 840,
      "line": 841,
      "ĠÃº": 842,
      "Ġonline": 843,
      "Ġcomparar": 844,
      "Ġ6": 845,
      "Ġcomunica": 846,
      "Ġcons": 847,
      "Ġperce": 848,
      "ĠcomunicaÃ§Ã£o": 849,
      "duz": 850,
      "side": 851,
      "Ġve": 852,
      "Ġ7": 853,
      "tras": 854,
      "ĠÃ": 855,
      "Ġr": 856,
      "Ġtestar": 857,
      "vida": 858,
      "za": 859,
      "ĠÃºtil": 860,
      "Ġver": 861,
      "Ġto": 862,
      "Ġlin": 863,
      "sÃµes": 864,
      "stu": 865,
      "crita": 866,
      "tido": 867,
      "nitor": 868,
      "Ġmonitor": 869,
      "nico": 870,
      "zar": 871,
      "Ġsentido": 872,
      "ha": 873,
      "Ġclaro": 874,
      "vis": 875,
      "Ġris": 876,
      "erra": 877,
      "tro": 878,
      "Ġ8": 879,
      "Ġriscos": 880,
      "gem": 881,
      "erramen": 882,
      "Ġobservar": 883,
      "ĠsoluÃ§Ã£o": 884,
      "xi": 885,
      "erramentas": 886,
      "mpo": 887,
      "âĢ": 888,
      "Ġ9": 889,
      "ber": 890,
      "ĠT": 891,
      "Ġleitura": 892,
      "ĠdocumentaÃ§Ã£o": 893,
      "an": 894,
      "tru": 895,
      "Ġinforma": 896,
      "Ġobj": 897,
      "ts": 898,
      "pois": 899,
      "ĠI": 900,
      "ĠUm": 901,
      "Ġrevis": 902,
      "Ġtempo": 903,
      "Ġdepois": 904,
      "Ġlo": 905,
      "utenÃ§Ã£o": 906,
      "ft": 907,
      "ware": 908,
      "dr": 909,
      "vidade": 910,
      "ĠF": 911,
      "Ġoper": 912,
      "Ġescrita": 913,
      "posi": 914,
      "Ġalte": 915,
      "Ã¡vel": 916,
      "ftware": 917,
      "ĠhÃ¡bi": 918,
      "Ġro": 919,
      "Ġvez": 920,
      "Ġproblema": 921,
      "Ġsoftware": 922,
      "Ġpadr": 923,
      "eb": 924,
      "Ġconside": 925,
      "nÃ§as": 926,
      "Ġperceber": 927,
      "Ġman": 928,
      "mentos": 929,
      "Ġconsidera": 930,
      "Ġindi": 931,
      "gua": 932,
      "Ġpequenas": 933,
      "ĠautomaÃ§Ã£o": 934,
      "Ġapenas": 935,
      "Ã¡rios": 936,
      "ora": 937,
      "ĠprÃ³": 938,
      "Ġobjeti": 939,
      "Ã´": 940,
      "Ġw": 941,
      "ĠpadrÃµes": 942,
      "Ġproces": 943,
      "Ġdiferentes": 944,
      "Ġoutras": 945,
      "Ġprogra": 946,
      "tifi": 947,
      "ĠrevisÃ£o": 948,
      "ĠdÃº": 949,
      "positivos": 950,
      "ĠdÃºvida": 951,
      "Ġapre": 952,
      "tores": 953,
      "Ġaplicativos": 954,
      "Ġweb": 955,
      "pe": 956,
      "ĠÃī": 957,
      "tre": 958,
      "ĠmanutenÃ§Ã£o": 959,
      "Ġpessoas": 960,
      "Ġcostu": 961,
      "Ġobjetivo": 962,
      "Ġcostuma": 963,
      "Ġmuda": 964,
      "Ġdesde": 965,
      "Ġfunciona": 966,
      "Ġdecis": 967,
      "ĠEm": 968,
      "Ġpri": 969,
      "Ġexce": 970,
      "Ġbom": 971,
      "Ġpasso": 972,
      "tudo": 973,
      "ĠcomeÃ§o": 974,
      "sÃ¡vel": 975,
      "ĠW": 976,
      "ĠresponsÃ¡vel": 977,
      "Ġconsiderada": 978,
      "ĠmudanÃ§as": 979,
      "Ġreduz": 980,
      "Ġvi": 981,
      "ĠexceÃ§Ãµes": 982,
      "Ġalterar": 983,
      "Ġtudo": 984,
      "Ġusadas": 985,
      "Ġcontas": 986,
      "madas": 987,
      "ĠhÃ¡bito": 988,
      "tros": 989,
      "sÃ£o": 990,
      "has": 991,
      "Ġperda": 992,
      "Ġerro": 993,
      "mis": 994,
      "ximo": 995,
      "dor": 996,
      "Ã©c": 997,
      "ĠdecisÃµes": 998,
      "Ġequi": 999,
      "Ġindicar": 1000,
      "ĠtÃ©c": 1001,
      "Ġnave": 1002,
      "Ġnavega": 1003,
      "ĠprÃ³ximo": 1004,
      "Ġfuncionam": 1005,
      "Ġpermis": 1006,
      "las": 1007,
      "Ġtomadas": 1008,
      "Ġlemb": 1009,
      "ĠFerramentas": 1010,
      "ĠpermissÃµes": 1011,
      "Ġlembrar": 1012,
      "cas": 1013,
      "Ġos": 1014,
      "Ġaten": 1015,
      "ces": 1016,
      "enta": 1017,
      "Ġele": 1018,
      "Ġdispositivos": 1019,
      "Ġl": 1020,
      "Ġrecur": 1021,
      "ĠbÃ¡sica": 1022,
      "ses": 1023,
      "Ġestudante": 1024,
      "zen": 1025,
      "Ġarma": 1026,
      "Ġarmazen": 1027,
      "ĠtÃ©cnico": 1028,
      "Ġfrase": 1029,
      "Ġvir": 1030,
      "Ġqua": 1031,
      "Ġao": 1032,
      "cre": 1033,
      "Ġ(": 1034,
      "forma": 1035,
      "Ġarmazenamento": 1036,
      "Ġan": 1037,
      "Ġdom": 1038,
      "Ġmos": 1039,
      "Ġce": 1040,
      "Ġredes": 1041,
      "net": 1042,
      "tividade": 1043,
      "Ġmostra": 1044,
      "Ġrespos": 1045,
      "Ġregra": 1046,
      "tes": 1047,
      "lab": 1048,
      "Ġedi": 1049,
      "los": 1050,
      "cidade": 1051,
      "dimento": 1052,
      "Ġvirtua": 1053,
      "Ġcelu": 1054,
      "Ã¡l": 1055,
      "man": 1056,
      "Ġloj": 1057,
      "Ġrespostas": 1058,
      "Ġatendimento": 1059,
      "Ġcor": 1060,
      "je": 1061,
      "Ġescre": 1062,
      "pa": 1063,
      "Ġsu": 1064,
      "trutura": 1065,
      "trÃ´": 1066,
      "Ġvar": 1067,
      "Ġvis": 1068,
      "ĠeletrÃ´": 1069,
      "resenta": 1070,
      "pi": 1071,
      "Ġfrases": 1072,
      "ĠTI": 1073,
      "Ġexp": 1074,
      "Ġpastas": 1075,
      "orte": 1076,
      "Ã©ri": 1077,
      "Ġsistema": 1078,
      "cionais": 1079,
      "Ġopera": 1080,
      "Ġatua": 1081,
      "Ãªs": 1082,
      "stica": 1083,
      "Ġdesen": 1084,
      "Ġmode": 1085,
      "Ã¡lis": 1086,
      "Ġrecursos": 1087,
      "Ġpequen": 1088,
      "Re": 1089,
      "Ã¡lise": 1090,
      "ĠÃ¡": 1091,
      "rÃ¡": 1092,
      "tÃ³rios": 1093,
      "Ġatuali": 1094,
      "ito": 1095,
      "gn": 1096,
      "Ġprote": 1097,
      "Ġentre": 1098,
      "ÃŃn": 1099,
      "Ġrecuper": 1100,
      "Ġprocessos": 1101,
      "junto": 1102,
      "quis": 1103,
      "vacidade": 1104,
      "Ġproje": 1105,
      "if": 1106,
      "ĠvÃŃ": 1107,
      "Ã©ricos": 1108,
      "Ġima": 1109,
      "PI": 1110,
      "tÃ³rio": 1111,
      "resentaÃ§Ãµes": 1112,
      "ĠanÃ¡lise": 1113,
      "Ġprogramas": 1114,
      "Ġoperacionais": 1115,
      "Ġsenhas": 1116,
      "Ġmonitoramento": 1117,
      "tugu": 1118,
      "PIs": 1119,
      "eÃ§as": 1120,
      "nilhas": 1121,
      "ifÃ©ricos": 1122,
      "des": 1123,
      "Ġportugu": 1124,
      "Ġlingua": 1125,
      "ras": 1126,
      "ĠportuguÃªs": 1127,
      "Ġtextos": 1128,
      "Ġimagens": 1129,
      "Ġescola": 1130,
      "ual": 1131,
      "ven": 1132,
      "tri": 1133,
      "rÃ¡fi": 1134,
      "Ġprojeto": 1135,
      "Ġdas": 1136,
      "Ġescrever": 1137,
      "fia": 1138,
      "me": 1139,
      "ntro": 1140,
      "âĢĿ": 1141,
      "ĠâĢ": 1142,
      "ĠâĢľ": 1143,
      "grafia": 1144,
      "cial": 1145,
      "ĠgrÃ¡fi": 1146,
      "xos": 1147,
      "tifica": 1148,
      "Co": 1149,
      "erÃªncia": 1150,
      "dio": 1151,
      "Ġvari": 1152,
      "Ġemp": 1153,
      "ĠWi": 1154,
      "Ġintegra": 1155,
      "adores": 1156,
      "nc": 1157,
      "Ġqualidade": 1158,
      "Ġpequena": 1159,
      "tografia": 1160,
      "Ġinterpre": 1161,
      "ĠinformaÃ§Ãµes": 1162,
      "ori": 1163,
      "quisi": 1164,
      "ĠgrÃ¡ficos": 1165,
      "ergia": 1166,
      "Ġenergia": 1167,
      "Ġcab": 1168,
      "Ġcri": 1169,
      "ĠL": 1170,
      "pes": 1171,
      "Ġform": 1172,
      "mer": 1173,
      "Ã³pi": 1174,
      "crip": 1175,
      "Ġrequisi": 1176,
      "Ġrote": 1177,
      "Fi": 1178,
      "ĠintegraÃ§Ã£o": 1179,
      "udio": 1180,
      "Ġvisual": 1181,
      "mÃ¡tica": 1182,
      "Ġservidores": 1183,
      "ĠinterpretaÃ§Ã£o": 1184,
      "ĠÃ¡udio": 1185,
      "Inte": 1186,
      "Ġscrip": 1187,
      "Ġroteadores": 1188,
      "ĠS": 1189,
      "ndi": 1190,
      "Ġnavegadores": 1191,
      "Ġscripts": 1192,
      "Ġprodu": 1193,
      "Ġgol": 1194,
      "Ġformul": 1195,
      "Ġgolpes": 1196,
      "ĠformulÃ¡rios": 1197,
      "Ġdesenvol": 1198,
      "ĠsituaÃ§Ã£o": 1199,
      "Ġbo": 1200,
      "ix": 1201,
      "taforma": 1202,
      "Ġplataforma": 1203,
      "Ġempre": 1204,
      "Ã©r": 1205,
      "Ġins": 1206,
      "zado": 1207,
      "Ġdesenvolvi": 1208,
      "Ġempresa": 1209,
      "Ġprivacidade": 1210,
      "Ġinterf": 1211,
      "Ġconte": 1212,
      "gÃªncia": 1213,
      "tina": 1214,
      "ĠD": 1215,
      "Ġpessoal": 1216,
      "vas": 1217,
      "Ġvirtual": 1218,
      "Ġservidor": 1219,
      "labora": 1220,
      "Ġcoman": 1221,
      "Ġcorri": 1222,
      "Ġcelular": 1223,
      "ho": 1224,
      "ĠnÃº": 1225,
      "ĠAPIs": 1226,
      "ĠperifÃ©ricos": 1227,
      "Ġplanilhas": 1228,
      "Ġeditores": 1229,
      "cip": 1230,
      "Ġequipe": 1231,
      "Ġlabora": 1232,
      "ĠpeÃ§as": 1233,
      "Ġprin": 1234,
      "ĠapresentaÃ§Ãµes": 1235,
      "Ġloja": 1236,
      "ĠlaboratÃ³rio": 1237,
      "Ġrotina": 1238,
      "ĠdomÃ©": 1239,
      "Ġalg": 1240,
      "ĠdomÃ©stica": 1241,
      "ns": 1242,
      "ĠnÃºmer": 1243,
      "Ġdesenvolvimento": 1244,
      "ex": 1245,
      "Ġcha": 1246,
      "Ġaprender": 1247,
      "Ġimpl": 1248,
      "tim": 1249,
      "usten": 1250,
      "zaÃ§Ã£o": 1251,
      "ustenta": 1252,
      "ndizado": 1253,
      "ĠinformaÃ§Ã£o": 1254,
      "Ġprincip": 1255,
      "Ġaprendizado": 1256,
      "cen": 1257,
      "tÃ£o": 1258,
      "am": 1259,
      "minal": 1260,
      "Ġinternet": 1261,
      "ado": 1262,
      "pen": 1263,
      "lado": 1264,
      "up": 1265,
      "Ġdentro": 1266,
      "nha": 1267,
      "veis": 1268,
      "pri": 1269,
      "Ġprincipal": 1270,
      "il": 1271,
      "ĠcomparaÃ§Ã£o": 1272,
      "go": 1273,
      "Ã³gi": 1274,
      "ĠH": 1275,
      "dia": 1276,
      "Ġcontr": 1277,
      "Ġatividade": 1278,
      "ligÃªncia": 1279,
      "Ġ19": 1280,
      "sio": 1281,
      "ĠnÃºmero": 1282,
      "mei": 1283,
      "nalis": 1284,
      "Ġatividades": 1285,
      "Ġga": 1286,
      "Ġ20": 1287,
      "Pro": 1288,
      "Ġref": 1289,
      "nej": 1290,
      "Ġpassa": 1291,
      "Ġcontrol": 1292,
      "Ġreal": 1293,
      "timi": 1294,
      "orit": 1295,
      "Ġplanej": 1296,
      "sti": 1297,
      "ĠusuÃ¡rios": 1298,
      "Ġparti": 1299,
      "Ġprimei": 1300,
      "rin": 1301,
      "tificial": 1302,
      "ir": 1303,
      "Ġmen": 1304,
      "Ġmem": 1305,
      "mati": 1306,
      "Ġotimi": 1307,
      "Ġanalis": 1308,
      "Inter": 1309,
      "nicas": 1310,
      "Ġalgorit": 1311,
      "Ġartificial": 1312,
      "Ġdepen": 1313,
      "Ġdepende": 1314,
      "ifi": 1315,
      "Ġgra": 1316,
      "mail": 1317,
      "Ġnotar": 1318,
      "Ġconex": 1319,
      "ĠconteÃº": 1320,
      "Ġimplan": 1321,
      "Ġganha": 1322,
      "tilh": 1323,
      "Ġinsta": 1324,
      "ger": 1325,
      "ĠimplantaÃ§Ã£o": 1326,
      "Ġentra": 1327,
      "tados": 1328,
      "ÃŃni": 1329,
      "ÃŃsi": 1330,
      "Ġcompartilh": 1331,
      "gs": 1332,
      "Ġcar": 1333,
      "ĠmÃ³": 1334,
      "ĠconteÃºdo": 1335,
      "Ġautomati": 1336,
      "ĠAs": 1337,
      "ptografia": 1338,
      "ĠversÃ£o": 1339,
      "cenÃ§": 1340,
      "ĠconexÃµes": 1341,
      "ĠfÃŃsi": 1342,
      "over": 1343,
      "Ġverifi": 1344,
      "Ġorganizar": 1345,
      "Ġequipa": 1346,
      "ĠoperaÃ§Ã£o": 1347,
      "sibilidade": 1348,
      "Ġdois": 1349,
      "ĠrelatÃ³rios": 1350,
      "Ġconsciente": 1351,
      "ĠsÃ³": 1352,
      "Ġatualizar": 1353,
      "Ġotimizar": 1354,
      "Ġrecuperar": 1355,
      "Ġequipamentos": 1356,
      "Ġcorrigir": 1357,
      "Ġplanejar": 1358,
      "Ġautomatizar": 1359,
      "Ġinstalar": 1360,
      "Ã³gica": 1361,
      "ac": 1362,
      "nas": 1363,
      "Ġverificar": 1364,
      "Ġanalisar": 1365,
      "ĠIs": 1366,
      "ndo": 1367,
      "be": 1368,
      "Ġcois": 1369,
      "cenÃ§as": 1370,
      "estrutura": 1371,
      "Ã³ria": 1372,
      "overna": 1373,
      "ÃŃdia": 1374,
      "Ã§a": 1375,
      "ĠeletrÃ´nico": 1376,
      "Ġfio": 1377,
      "raestrutura": 1378,
      "ĠmÃ³veis": 1379,
      "aces": 1380,
      "Ã¡veis": 1381,
      "Ġcontrolar": 1382,
      "Ġcoisas": 1383,
      "Ã©rcio": 1384,
      "ĠfÃŃsicas": 1385,
      "Ġconectar": 1386,
      "Ġproteger": 1387,
      "Ġmonitorar": 1388,
      "ves": 1389,
      "Ġcompartilhar": 1390,
      "Ġestrutura": 1391,
      "ĠnavegaÃ§Ã£o": 1392,
      "ĠmemÃ³ria": 1393,
      "overnanÃ§a": 1394,
      "ĠeletrÃ´nicas": 1395,
      "cessibilidade": 1396,
      "ultim": 1397,
      "ultimÃŃdia": 1398,
      "Ġterminal": 1399,
      "Ġdocumentar": 1400,
      "Ġconfigurar": 1401,
      "ustentabilidade": 1402,
      "Ġtestes": 1403,
      "Ġconf": 1404,
      "Ġprocessa": 1405,
      "ĠfunÃ§Ãµes": 1406,
      "usca": 1407,
      "ĠvÃŃr": 1408,
      "Ã¢": 1409,
      "Ġmodelos": 1410,
      "Ġoutros": 1411,
      "Ġentrada": 1412,
      "Ġbusca": 1413,
      "ÃŃnio": 1414,
      "ĠAn": 1415,
      "truÃ§Ã£o": 1416,
      "ĠIsso": 1417,
      "Ġliv": 1418,
      "Ġtextua": 1419,
      "orÃ§a": 1420,
      "Ġproduz": 1421,
      "Ġcont": 1422,
      "Ġassi": 1423,
      "ĠlÃ³gica": 1424,
      "Ġprimeira": 1425,
      "ĠEssa": 1426,
      "Ġvo": 1427,
      "lares": 1428,
      "tivas": 1429,
      "Ġpol": 1430,
      "Ġpon": 1431,
      "Ġtrans": 1432,
      "ĠreforÃ§a": 1433,
      "tuaÃ§Ã£o": 1434,
      "Ġval": 1435,
      "et": 1436,
      "Ġliga": 1437,
      "Ġalgoritmos": 1438,
      "ĠdomÃŃnio": 1439,
      "istas": 1440,
      "Ġdos": 1441,
      "namento": 1442,
      "ÃŃtica": 1443,
      "Ġlinguagens": 1444,
      "Ġleitor": 1445,
      "Ġforte": 1446,
      "Ġcer": 1447,
      "Ġreg": 1448,
      "fica": 1449,
      "peri": 1450,
      "dro": 1451,
      "Ġpropri": 1452,
      "Ġquem": 1453,
      "Ġban": 1454,
      "ĠcontÃŃn": 1455,
      "id": 1456,
      "ados": 1457,
      "ores": 1458,
      "Ġproduzir": 1459,
      "ÃŃngua": 1460,
      "99": 1461,
      "Ġ10": 1462,
      "ĠlÃŃngua": 1463,
      "Ġlinguagem": 1464,
      "Ġefe": 1465,
      "ĠcÃ©": 1466,
      "indo": 1467,
      "ux": 1468,
      "ĠvariÃ¡veis": 1469,
      "ĠcontÃŃnua": 1470,
      "ĠconstruÃ§Ã£o": 1471,
      "ĠprogramaÃ§Ã£o": 1472,
      "ĠautomÃ¡tica": 1473,
      "dados": 1474,
      "cientes": 1475,
      "stico": 1476,
      "mes": 1477,
      "ĠLin": 1478,
      "20": 1479,
      "75": 1480,
      "Ġcole": 1481,
      "droid": 1482,
      "Ġconsu": 1483,
      "Ġtro": 1484,
      "Ã³r": 1485,
      "Ġprincipalmente": 1486,
      "ĠAndroid": 1487,
      "ĠpolÃŃtica": 1488,
      "Ġferramentas": 1489,
      "ks": 1490,
      "cic": 1491,
      "71": 1492,
      "pÃ§Ã£o": 1493,
      "ĠUma": 1494,
      "Ġlinhas": 1495,
      "43": 1496,
      "estÃ£o": 1497,
      "Ġcuidados": 1498,
      "23": 1499,
      "83": 1500,
      "Ã£": 1501,
      "Ġaparecem": 1502,
      "Ġhis": 1503,
      "Ġflu": 1504,
      "Ġpessoais": 1505,
      "Ġexplica": 1506,
      "Ġeven": 1507,
      "toco": 1508,
      "ack": 1509,
      "63": 1510,
      "Ġcontra": 1511,
      "lav": 1512,
      "Comp": 1513,
      "ĠproduÃ§Ã£o": 1514,
      "ĠcÃ©lu": 1515,
      "Ġregis": 1516,
      "Ġescolhas": 1517,
      "ĠpontuaÃ§Ã£o": 1518,
      "Ġexten": 1519,
      "Ġquer": 1520,
      "Ġefeito": 1521,
      "Ġjunto": 1522,
      "oraÃ§Ã£o": 1523,
      "Ġvida": 1524,
      "Ġpassagem": 1525,
      "Ġdela": 1526,
      "Ġexperi": 1527,
      "ncial": 1528,
      "istemas": 1529,
      "Ġformar": 1530,
      "Ġfoco": 1531,
      "Estu": 1532,
      "âĢĿ,": 1533,
      "Ġj": 1534,
      "Ġestudado": 1535,
      "Ġorganizado": 1536,
      "Ġcuidadosa": 1537,
      "ĠhistÃ³ri": 1538,
      "Ġservir": 1539,
      "ĠpercepÃ§Ã£o": 1540,
      "Ġmodelo": 1541,
      "Estudar": 1542,
      "Ġprotoco": 1543,
      "sora": 1544,
      "Ġtre": 1545,
      "Ġtrabalham": 1546,
      "Ġpartida": 1547,
      "Ġ16": 1548,
      "Ġdocumentos": 1549,
      "OS": 1550,
      "Ã¡gi": 1551,
      "Ġobservamos": 1552,
      "Ġligado": 1553,
      "Ġpistas": 1554,
      "Ġconjunto": 1555,
      "lagem": 1556,
      "Ġtabe": 1557,
      "Ġfil": 1558,
      "Reconhecer": 1559,
      "tÃµes": 1560,
      "use": 1561,
      "Ġconscientes": 1562,
      "Ġlivre": 1563,
      "ĠautomÃ¡ticas": 1564,
      "Compreender": 1565,
      "Ġpalav": 1566,
      "Ġras": 1567,
      "Ġfinal": 1568,
      "deo": 1569,
      "Ġ40": 1570,
      "hes": 1571,
      "ws": 1572,
      "85": 1573,
      "Ġsinal": 1574,
      "81": 1575,
      "Ġ36": 1576,
      "Ġbancos": 1577,
      "95": 1578,
      "ĠfÃ³r": 1579,
      "Redes": 1580,
      "21": 1581,
      "91": 1582,
      "25": 1583,
      "70": 1584,
      "Ġrespe": 1585,
      "cam": 1586,
      "ĠproteÃ§Ã£o": 1587,
      "mul": 1588,
      "Ġ44": 1589,
      "Ġprotocolos": 1590,
      "gri": 1591,
      "venÃ§Ã£o": 1592,
      "Ġeventos": 1593,
      "ĠcÃ©lulas": 1594,
      "sores": 1595,
      "Ġbra": 1596,
      "istentes": 1597,
      "Ġrespeito": 1598,
      "cs": 1599,
      "ĠvÃŃdeo": 1600,
      "ĠpolÃŃticas": 1601,
      "PS": 1602,
      "cer": 1603,
      "Ġcontras": 1604,
      "poni": 1605,
      "Ġchaves": 1606,
      "Ġprocessador": 1607,
      "Ġane": 1608,
      "73": 1609,
      "ĠinteligÃªncia": 1610,
      "Ġrequisitos": 1611,
      "sividade": 1612,
      "nizaÃ§Ã£o": 1613,
      "Ġcontraste": 1614,
      "sim": 1615,
      "ĠgestÃ£o": 1616,
      "Ġdisponi": 1617,
      "Ġresponsa": 1618,
      "ĠediÃ§Ã£o": 1619,
      "ĠpÃ¡gi": 1620,
      "damentos": 1621,
      "Ġimpres": 1622,
      "Ġconectados": 1623,
      "Ġcaix": 1624,
      "Ġnomes": 1625,
      "indows": 1626,
      "ĠWindows": 1627,
      "gridade": 1628,
      "mÃ£": 1629,
      "Ġback": 1630,
      "ĠtÃ³pi": 1631,
      "ĠatualizaÃ§Ã£o": 1632,
      "ĠHT": 1633,
      "Ġcoleta": 1634,
      "ĠexperiÃªncia": 1635,
      "ĠrecuperaÃ§Ã£o": 1636,
      "Ġtroca": 1637,
      "arÃªncia": 1638,
      "Ġintegridade": 1639,
      "ĠLinux": 1640,
      "ĠpÃ¡ginas": 1641,
      "ĠIP": 1642,
      "ĠcabeÃ§": 1643,
      "eza": 1644,
      "Ġconsumo": 1645,
      "Ġresponsabilidade": 1646,
      "laboraÃ§Ã£o": 1647,
      "ĠAssim": 1648,
      "ĠvÃŃrus": 1649,
      "Ġtabelas": 1650,
      "Ġplaca": 1651,
      "ĠhistÃ³rico": 1652,
      "Ġsites": 1653,
      "Ġdescar": 1654,
      "Ġcelulares": 1655,
      "gnÃ³": 1656,
      "Ġmelhoria": 1657,
      "Ġregistros": 1658,
      "Ġestil": 1659,
      "Ġsup": 1660,
      "Ġfluxos": 1661,
      "gnÃ³stico": 1662,
      "Ġsensores": 1663,
      "Ġpropriet": 1664,
      "on": 1665,
      "ĠdiagnÃ³stico": 1666,
      "ĠinclusÃ£o": 1667,
      "Ġpaga": 1668,
      "Ġ50": 1669,
      "Ġvirtuais": 1670,
      "Ġcabos": 1671,
      "Ġcertifica": 1672,
      "ĠtÃ³picos": 1673,
      "Ġestilos": 1674,
      "Ġsigi": 1675,
      "natura": 1676,
      "Ġtable": 1677,
      "Ġrastre": 1678,
      "ertas": 1679,
      "Ġformatos": 1680,
      "Ġlimp": 1681,
      "ncro": 1682,
      "Ġassinatura": 1683,
      "Ġdisponibilidade": 1684,
      "ĠproprietÃ¡rio": 1685,
      "Ġtablets": 1686,
      "Sistemas": 1687,
      "Ġsincro": 1688,
      "Ġtela": 1689,
      "Ġteclado": 1690,
      "ĠfÃ³rmul": 1691,
      "ĠHTT": 1692,
      "Ġsigilo": 1693,
      "ĠfÃ³rmulas": 1694,
      "ĠcolaboraÃ§Ã£o": 1695,
      "ĠAl": 1696,
      "ĠdiretÃ³rios": 1697,
      "Ġusabilidade": 1698,
      "Ġlinks": 1699,
      "Ġexporta": 1700,
      "ĠextensÃµes": 1701,
      "dere": 1702,
      "Ġ14": 1703,
      "Ġassistentes": 1704,
      "mits": 1705,
      "Ġfiltros": 1706,
      "Ġbackup": 1707,
      "Ġlimpeza": 1708,
      "ĠsincronizaÃ§Ã£o": 1709,
      "ĠexportaÃ§Ã£o": 1710,
      "Ġpos": 1711,
      "Ġmac": 1712,
      "ĠaparÃªncia": 1713,
      "ĠcÃ³pi": 1714,
      "ĠprevenÃ§Ã£o": 1715,
      "Progra": 1716,
      "rinho": 1717,
      "mÃ£e": 1718,
      "ĠcÃ³pias": 1719,
      "Ġcode": 1720,
      "Ġreside": 1721,
      "Ġlojas": 1722,
      "Ġcomando": 1723,
      "ĠformataÃ§Ã£o": 1724,
      "Ġwebcam": 1725,
      "Internet": 1726,
      "Ġbranc": 1727,
      "Ġcertificados": 1728,
      "ĠHTTPS": 1729,
      "lides": 1730,
      "Ġcommits": 1731,
      "Ġnotifica": 1732,
      "Ġmouse": 1733,
      "gendas": 1734,
      "Ġlegendas": 1735,
      "Ġrepetitivas": 1736,
      "Ġleitores": 1737,
      "Ġresponsividade": 1738,
      "ĠinterferÃªncia": 1739,
      "sionamento": 1740,
      "ciclagem": 1741,
      "Ġanexos": 1742,
      "ĠcabeÃ§alh": 1743,
      "Ġdescarte": 1744,
      "Ġpagamentos": 1745,
      "Ġrastreamento": 1746,
      "Ġbackups": 1747,
      "ĠmacOS": 1748,
      "Ġresidencial": 1749,
      "13": 1750,
      "53": 1751,
      "Ġagen": 1752,
      "Ġslides": 1753,
      "tante": 1754,
      "Ġreciclagem": 1755,
      "Ġalertas": 1756,
      "Ġendere": 1757,
      "Ġversionamento": 1758,
      "ĠrequisiÃ§Ãµes": 1759,
      "ĠbotÃµes": 1760,
      "Ġmenus": 1761,
      "Ġcarrinho": 1762,
      "Ġbuscadores": 1763,
      "Ġimpressora": 1764,
      "Ġcaixas": 1765,
      "Ġcodecs": 1766,
      "Ġbranches": 1767,
      "ĠnotificaÃ§Ãµes": 1768,
      "ĠcabeÃ§alhos": 1769,
      "Ġagendamentos": 1770,
      "ĠendereÃ§os": 1771,
      "Ġ\"": 1772,
      "Ġ26": 1773,
      "Ġ34": 1774,
      "ĠB": 1775,
      "93": 1776,
      "80": 1777,
      "Ġdesi": 1778,
      "33": 1779,
      "ter": 1780,
      "lare": 1781,
      "sas": 1782,
      "Ġclare": 1783,
      "90": 1784,
      "ĠG": 1785,
      "Ġcontro": 1786,
      "86": 1787,
      "ĠÃł": 1788,
      "Ġpalavras": 1789,
      "trib": 1790,
      "74": 1791,
      "Ġcontrole": 1792,
      "26": 1793,
      "Ġcriptografia": 1794,
      "ur": 1795,
      "Ġtransforma": 1796,
      "ĠÃ©tica": 1797,
      "fini": 1798,
      "Ġsuporte": 1799,
      "Ġampl": 1800,
      "Ġ13": 1801,
      "Ġ12": 1802,
      "Ġ25": 1803,
      "Ġ17": 1804,
      "Ġ21": 1805,
      "Ġsa": 1806,
      "Ġnorma": 1807,
      "Ġ45": 1808,
      "Ġ32": 1809,
      "Ġdesign": 1810,
      "Ġ28": 1811,
      "Ġ33": 1812,
      "Ġ29": 1813,
      "Ġ41": 1814,
      "ge": 1815,
      "ura": 1816,
      "Ġ37": 1817,
      "Ġ48": 1818,
      "Ãªn": 1819,
      "94": 1820,
      "ĠlicenÃ§as": 1821,
      "Ġ11": 1822,
      "Ġad": 1823,
      "65": 1824,
      "Ġinfraestrutura": 1825,
      "Ġ18": 1826,
      "61": 1827,
      "Ġprodutividade": 1828,
      "Ġfre": 1829,
      "Ġ15": 1830,
      "ĠcomÃ©rcio": 1831,
      "Ġboa": 1832,
      "Ġinterfaces": 1833,
      "Ġ23": 1834,
      "45": 1835,
      "Ġcomandos": 1836,
      "78": 1837,
      "ĠgovernanÃ§a": 1838,
      "41": 1839,
      "ĠmultimÃŃdia": 1840,
      "Ġavali": 1841,
      "Ġacessibilidade": 1842,
      "Ġ35": 1843,
      "Ġlogs": 1844,
      "Ġsustentabilidade": 1845,
      "Ġ31": 1846,
      "Ġ22": 1847,
      "Ġ38": 1848,
      "Ġ39": 1849,
      "Ġ47": 1850,
      "Ġdefini": 1851,
      "triz": 1852,
      "Ġsub": 1853,
      "22": 1854,
      "60": 1855,
      "Ġamplia": 1856,
      "ba": 1857,
      "no": 1858,
      "98": 1859,
      "Ġori": 1860,
      "40": 1861,
      "vel": 1862,
      ").": 1863,
      "46": 1864,
      "tribui": 1865,
      "ĠAlÃ©m": 1866,
      "Ã´ni": 1867,
      "menta": 1868,
      "oria": 1869,
      "Ġtextual": 1870,
      "Ġmatriz": 1871,
      "Ġvoca": 1872,
      "ias": 1873,
      "ada": 1874,
      "ÃŃstica": 1875,
      "27": 1876,
      "Ġescolha": 1877,
      "ÃŃvel": 1878,
      "66": 1879,
      "Ã¡ria": 1880,
      "51": 1881,
      "ula": 1882,
      "ĠvariaÃ§Ã£o": 1883,
      "uas": 1884,
      "Ġcres": 1885,
      "Ġoutro": 1886,
      "Ġdeix": 1887,
      "Ġmensagem": 1888,
      "Ġrees": 1889,
      "Ġti": 1890,
      "Ġideia": 1891,
      "ali": 1892,
      "ĠR": 1893,
      "Ġprof": 1894,
      "Ġconver": 1895,
      "Ġregras": 1896,
      "Ġortografia": 1897,
      "ĠcoerÃªncia": 1898,
      "esÃ£o": 1899,
      "Ġcal": 1900,
      "Ġreescrita": 1901,
      "),": 1902,
      "Ġideias": 1903,
      "Ġparece": 1904,
      "Ġargu": 1905,
      "Ġconfus": 1906,
      "ĠcoesÃ£o": 1907,
      "arra": 1908,
      "50": 1909,
      "Ġdistribui": 1910,
      "79": 1911,
      "ĠmÃ¡": 1912,
      "Ġalun": 1913,
      "Ġcria": 1914,
      "talh": 1915,
      "Ġconstante": 1916,
      "untas": 1917,
      "Ġcorre": 1918,
      "Ġci": 1919,
      "Ġcomple": 1920,
      "Ġdetalh": 1921,
      "ĠgramÃ¡tica": 1922,
      "Ġne": 1923,
      "Ġvalor": 1924,
      "Ġpare": 1925,
      "tivo": 1926,
      "Ġnarra": 1927,
      "Ġaluno": 1928,
      "11": 1929,
      "76": 1930,
      "24": 1931,
      "96": 1932,
      "Ġlado": 1933,
      "ino": 1934,
      "Ġbi": 1935,
      "ĠfrequÃªncia": 1936,
      "Ġrecurso": 1937,
      "Ġvaria": 1938,
      "28": 1939,
      "Ġesta": 1940,
      "cional": 1941,
      "bul": 1942,
      "usa": 1943,
      "48": 1944,
      "Ġdetalhes": 1945,
      "bulÃ¡rio": 1946,
      "ĠIA": 1947,
      "Ġqual": 1948,
      "ĠvocabulÃ¡rio": 1949,
      "Ġmelhores": 1950,
      "nde": 1951,
      "para": 1952,
      "Ġaco": 1953,
      "ĠgÃªn": 1954,
      "ĠgÃªner": 1955,
      "tiva": 1956,
      "quer": 1957,
      "ÃŃci": 1958,
      "Ġtrei": 1959,
      "Ġconversas": 1960,
      "44": 1961,
      "Ã¢ncia": 1962,
      "Ġclareza": 1963,
      "55": 1964,
      "nf": 1965,
      "Ġdiretas": 1966,
      "egu": 1967,
      "Ġparecer": 1968,
      "Ġtextuais": 1969,
      "Ġcur": 1970,
      "ĠgÃªneros": 1971,
      "Ġdeixa": 1972,
      "Dados": 1973,
      "68": 1974,
      "les": 1975,
      "Ġteoria": 1976,
      "nifica": 1977,
      "ja": 1978,
      "Ġconfusas": 1979,
      "tili": 1980,
      "Ġmes": 1981,
      "Ġsoltas": 1982,
      "ĠhÃ¡bitos": 1983,
      "ĠDes": 1984,
      "eguranÃ§a": 1985,
      "Ar": 1986,
      "tÃ¡": 1987,
      "gar": 1988,
      "Ãī": 1989,
      "Ġreve": 1990,
      "Ġnormal": 1991,
      "ĠdiÃ¡ria": 1992,
      "ĠmÃ¡qui": 1993,
      "Ġmai": 1994,
      "Li": 1995,
      "64": 1996,
      "Ġmodo": 1997,
      "nar": 1998,
      "rit": 1999,
      "Ġvetor": 2000,
      "Qua": 2001,
      "Ã§o": 2002,
      "Ã¡ticas": 2003,
      "Ġapro": 2004,
      "Com": 2005,
      "Ap": 2006,
      "riptografia": 2007,
      "Ãītica": 2008,
      "rivacidade": 2009,
      "dutividade": 2010,
      "Per": 2011,
      "Lo": 2012,
      "ign": 2013,
      "ntrole": 2014,
      "Des": 2015,
      "Ġorganiza": 2016,
      "ispositivos": 2017,
      "Qualidade": 2018,
      "ĠaplicaÃ§Ã£o": 2019,
      "anutenÃ§Ã£o": 2020,
      "InteligÃªncia": 2021,
      "ProgramaÃ§Ã£o": 2022,
      "Privacidade": 2023,
      "lece": 2024,
      "uporte": 2025,
      "Inf": 2026,
      "rÃ¡ticas": 2027,
      "Ġutili": 2028,
      "Ġorienta": 2029,
      "Auto": 2030,
      "APIs": 2031,
      "Criptografia": 2032,
      "SeguranÃ§a": 2033,
      "faces": 2034,
      "LicenÃ§as": 2035,
      "Logs": 2036,
      "Acessibilidade": 2037,
      "Dispositivos": 2038,
      "Edi": 2039,
      "GovernanÃ§a": 2040,
      "MultimÃŃdia": 2041,
      "ManutenÃ§Ã£o": 2042,
      "Pla": 2043,
      "PeÃ§as": 2044,
      "PrÃ¡ticas": 2045,
      "Sustentabilidade": 2046,
      "Suporte": 2047,
      "mandos": 2048,
      "Controle": 2049,
      "Comandos": 2050,
      "Produtividade": 2051,
      "Interfaces": 2052,
      "Programas": 2053,
      "Arquivos": 2054,
      "ComÃ©rcio": 2055,
      "ApresentaÃ§Ãµes": 2056,
      "PerifÃ©ricos": 2057,
      "Design": 2058,
      "Infraestrutura": 2059,
      "AutomaÃ§Ã£o": 2060,
      "Editores": 2061,
      "Planilhas": 2062,
      "Ġescreve": 2063,
      "Ġrevelar": 2064,
      "36": 2065,
      "que": 2066,
      "88": 2067,
      "cou": 2068,
      "Ġvariados": 2069,
      "Ġsua": 2070,
      "ou": 2071,
      "ĠTu": 2072,
      "ring": 2073,
      "ĠmÃ©": 2074,
      "Ġatenta": 2075,
      "issio": 2076,
      "Ġhu": 2077,
      "ĠV": 2078,
      "Ġreda": 2079,
      "Ġduas": 2080,
      "Ġprofissio": 2081,
      "Ġ,": 2082,
      "Ġdesenvolve": 2083,
      "ĠdistribuiÃ§Ã£o": 2084,
      "00": 2085,
      "Ġprepara": 2086,
      "xima": 2087,
      "Ġconfusa": 2088,
      "Ġcalma": 2089,
      "Ġnarrativos": 2090,
      "Ġforta": 2091,
      "Ġfortalece": 2092,
      "Ġnovo": 2093,
      "ĠCo": 2094,
      "Ġler": 2095,
      "ĠJ": 2096,
      "Ġvista": 2097,
      "Ġposs": 2098,
      "Ġespa": 2099,
      "Ġproba": 2100,
      "Ġalta": 2101,
      "Ġobje": 2102,
      "ĠTuring": 2103,
      "Ġclas": 2104,
      "77": 2105,
      "56": 2106,
      "84": 2107,
      "Ġpela": 2108,
      "mina": 2109,
      "Ġmesma": 2110,
      "Ġsig": 2111,
      "um": 2112,
      "ĠSe": 2113,
      "16": 2114,
      "29": 2115,
      "iÃ§Ã£o": 2116,
      "tin": 2117,
      "Ġchama": 2118,
      "Ġseu": 2119,
      "Ġvoz": 2120,
      "tÃŃ": 2121,
      "Ġaltera": 2122,
      "Ġtreino": 2123,
      "Ġprobabilidade": 2124,
      "Ġprovas": 2125,
      "ĠNesse": 2126,
      "Ġfor": 2127,
      "ÃŃcios": 2128,
      "ritmo": 2129,
      "Ġritmo": 2130,
      "mpan": 2131,
      "Ġcurtas": 2132,
      "Ġab": 2133,
      "ĠInte": 2134,
      "Ġprofissional": 2135,
      "Ġ-": 2136,
      "Ġargumenta": 2137,
      "97": 2138,
      "cebi": 2139,
      "ch": 2140,
      "Ġpelo": 2141,
      "Ġdif": 2142,
      "Ġespe": 2143,
      "Ġtodo": 2144,
      "31": 2145,
      "erc": 2146,
      "fina": 2147,
      "Ġexerc": 2148,
      "Ġpassam": 2149,
      "72": 2150,
      "92": 2151,
      "Ġsustenta": 2152,
      "Ġsin": 2153,
      "Ġescolares": 2154,
      "Ġsala": 2155,
      "Ġestim": 2156,
      "Ġlido": 2157,
      "ĠDesse": 2158,
      "Ġjuntas": 2159,
      "urante": 2160,
      "cebidos": 2161,
      "ĠexercÃŃcios": 2162,
      "Ġestimula": 2163,
      "ertÃ³rio": 2164,
      "Ġrefina": 2165,
      "ĠrepertÃ³rio": 2166,
      "Ġdesper": 2167,
      "Ġcorrige": 2168,
      "ĠprÃ³pri": 2169,
      "Ġexplicativos": 2170,
      "Ġclareia": 2171,
      "ĠredaÃ§Ãµes": 2172,
      "Ġargumentativos": 2173,
      "Ġdespercebidos": 2174,
      "bo": 2175,
      "Ġra": 2176,
      "Ġtreina": 2177,
      "Ġtem": 2178,
      "Ġsignifica": 2179,
      "Ġau": 2180,
      "ĠPro": 2181,
      "Ġconstr": 2182,
      "Ġche": 2183,
      "Ġacompan": 2184,
      "Ġaproxima": 2185,
      "30": 2186,
      "Ġfora": 2187,
      "Ġresultados": 2188,
      "eces": 2189,
      "Ġtarefa": 2190,
      "Ġonde": 2191,
      "ĠmÃ¡quina": 2192,
      "Ã³di": 2193,
      "Ġpes": 2194,
      "ĠdifÃŃ": 2195,
      "ĠobservaÃ§Ã£o": 2196,
      "Ġmate": 2197,
      "Ġ80": 2198,
      "tÃ©": 2199,
      "49": 2200,
      "Ġderi": 2201,
      "Ġpermi": 2202,
      "Ġneces": 2203,
      "Ġfina": 2204,
      "Ġacompanha": 2205,
      "ceis": 2206,
      "Ġdeter": 2207,
      "Ġfe": 2208,
      "Ġnominal": 2209,
      "Ġformal": 2210,
      "Ġ60": 2211,
      "Ġcontex": 2212,
      "gura": 2213,
      "Ġ.": 2214,
      "Ã¢n": 2215,
      "pec": 2216,
      "oriza": 2217,
      "Ġdurante": 2218,
      "aram": 2219,
      "Ã³i": 2220,
      "Ġfala": 2221,
      "Ġqualquer": 2222,
      "69": 2223,
      "Ġcresce": 2224,
      "10": 2225,
      "Ġmesmo": 2226,
      "sidade": 2227,
      "stitu": 2228,
      "37": 2229,
      "58": 2230,
      "tip": 2231,
      "Ġneura": 2232,
      "io": 2233,
      "idade": 2234,
      "val": 2235,
      "ĠconstrÃ³i": 2236,
      "32": 2237,
      "ĠestÃ¡": 2238,
      "Ġsubstitu": 2239,
      "Ã¡lo": 2240,
      "ĠDe": 2241,
      "Ġutiliza": 2242,
      "ĠespaÃ§o": 2243,
      "54": 2244,
      "Ġreso": 2245,
      "Ġnatura": 2246,
      "Ġdefinida": 2247,
      "Ã³digo": 2248,
      "Ġfix": 2249,
      "edade": 2250,
      "Ġseja": 2251,
      "Ġvaloriza": 2252,
      "Ġacompanhado": 2253,
      "lha": 2254,
      "Ġtipo": 2255,
      "Ġuni": 2256
    },
    "merges": [
      [
        "Ġ",
        "e"
      ],
      [
        "d",
        "e"
      ],
      [
        "Ġ",
        "p"
      ],
      [
        "Ġ",
        "a"
      ],
      [
        "c",
        "o"
      ],
      [
        "t",
        "e"
      ],
      [
        "r",
        "e"
      ],
      [
        "m",
        "a"
      ],
      [
        "Ġ",
        "s"
      ],
      [
        "Ġ",
        "de"
      ],
      [
        "a",
        "r"
      ],
      [
        "Ã",
        "§"
      ],
      [
        "Ġ",
        "co"
      ],
      [
        "d",
        "o"
      ],
      [
        "Ġ",
        "o"
      ],
      [
        "e",
        "s"
      ],
      [
        "i",
        "s"
      ],
      [
        "t",
        "a"
      ],
      [
        "m",
        "p"
      ],
      [
        "o",
        "r"
      ],
      [
        "e",
        "r"
      ],
      [
        "o",
        "s"
      ],
      [
        "c",
        "a"
      ],
      [
        "Ã§",
        "Ã"
      ],
      [
        "d",
        "a"
      ],
      [
        "e",
        "n"
      ],
      [
        "Ġ",
        "f"
      ],
      [
        "Ġ",
        "u"
      ],
      [
        "Ġ",
        "re"
      ],
      [
        "Ã",
        "¡"
      ],
      [
        "£",
        "o"
      ],
      [
        "t",
        "i"
      ],
      [
        "s",
        "o"
      ],
      [
        "mp",
        "l"
      ],
      [
        "r",
        "a"
      ],
      [
        "t",
        "o"
      ],
      [
        "Ġ",
        "i"
      ],
      [
        "c",
        "i"
      ],
      [
        "Ã§Ã",
        "£o"
      ],
      [
        "d",
        "i"
      ],
      [
        "n",
        "te"
      ],
      [
        "Ġco",
        "n"
      ],
      [
        "Ġ",
        "m"
      ],
      [
        "Ġp",
        "o"
      ],
      [
        "u",
        "a"
      ],
      [
        "Ġp",
        "r"
      ],
      [
        "Ġe",
        "x"
      ],
      [
        "l",
        "i"
      ],
      [
        "Ġe",
        "m"
      ],
      [
        "a",
        "s"
      ],
      [
        "µ",
        "es"
      ],
      [
        "Ġco",
        "m"
      ],
      [
        "Ã",
        "©"
      ],
      [
        "Ġ",
        "di"
      ],
      [
        "Ġs",
        "i"
      ],
      [
        "Ġ",
        "E"
      ],
      [
        "Ġe",
        "s"
      ],
      [
        "l",
        "h"
      ],
      [
        "Ġs",
        "e"
      ],
      [
        "Ġpo",
        "de"
      ],
      [
        "Ġ",
        "n"
      ],
      [
        "Ġ",
        "ma"
      ],
      [
        "r",
        "i"
      ],
      [
        "Ġex",
        "e"
      ],
      [
        "Ġexe",
        "mpl"
      ],
      [
        "ti",
        "ca"
      ],
      [
        "Ã§Ã",
        "µes"
      ],
      [
        "Ġi",
        "n"
      ],
      [
        "er",
        "v"
      ],
      [
        "u",
        "n"
      ],
      [
        "ĠE",
        "s"
      ],
      [
        "c",
        "e"
      ],
      [
        "Ġu",
        "ma"
      ],
      [
        "g",
        "i"
      ],
      [
        "Ġ",
        "te"
      ],
      [
        "t",
        "u"
      ],
      [
        "Ġp",
        "ar"
      ],
      [
        "Ã¡",
        "tica"
      ],
      [
        "m",
        "en"
      ],
      [
        "Ġ",
        "b"
      ],
      [
        "Ġ",
        "ca"
      ],
      [
        "Ġa",
        "p"
      ],
      [
        "or",
        "ma"
      ],
      [
        "Ġ",
        "N"
      ],
      [
        "Ġo",
        "b"
      ],
      [
        "Ġsi",
        "mpl"
      ],
      [
        "Ġsimpl",
        "es"
      ],
      [
        "Ġ",
        "do"
      ],
      [
        "q",
        "u"
      ],
      [
        "Ġma",
        "is"
      ],
      [
        "es",
        "so"
      ],
      [
        "l",
        "e"
      ],
      [
        "Ġpr",
        "o"
      ],
      [
        "s",
        "e"
      ],
      [
        "de",
        "r"
      ],
      [
        "s",
        "erv"
      ],
      [
        "Ġob",
        "serv"
      ],
      [
        "Ġexempl",
        "o"
      ],
      [
        "c",
        "is"
      ],
      [
        "Ġf",
        "orma"
      ],
      [
        "n",
        "a"
      ],
      [
        "Ġ",
        "c"
      ],
      [
        "n",
        "i"
      ],
      [
        "s",
        "a"
      ],
      [
        "Ġp",
        "re"
      ],
      [
        "Ġco",
        "mp"
      ],
      [
        "co",
        "r"
      ],
      [
        "Ġobserv",
        "a"
      ],
      [
        "g",
        "u"
      ],
      [
        "Ġpre",
        "cis"
      ],
      [
        "o",
        "l"
      ],
      [
        "Ġin",
        "f"
      ],
      [
        "Ġ",
        "t"
      ],
      [
        "Ġp",
        "esso"
      ],
      [
        "ua",
        "n"
      ],
      [
        "Ġ",
        "Ã©"
      ],
      [
        "l",
        "a"
      ],
      [
        "n",
        "Ã§"
      ],
      [
        "t",
        "os"
      ],
      [
        "e",
        "m"
      ],
      [
        "Ġf",
        "a"
      ],
      [
        "v",
        "e"
      ],
      [
        "re",
        "s"
      ],
      [
        "Ġes",
        "tu"
      ],
      [
        "Ġu",
        "m"
      ],
      [
        "Ġpesso",
        "a"
      ],
      [
        "ta",
        "do"
      ],
      [
        "u",
        "da"
      ],
      [
        "Ġn",
        "o"
      ],
      [
        "ĠN",
        "o"
      ],
      [
        "v",
        "i"
      ],
      [
        "gi",
        "ta"
      ],
      [
        "Ġdi",
        "gita"
      ],
      [
        "u",
        "i"
      ],
      [
        "f",
        "i"
      ],
      [
        "ci",
        "a"
      ],
      [
        "uan",
        "do"
      ],
      [
        "Ġca",
        "so"
      ],
      [
        "Ġprecis",
        "ar"
      ],
      [
        "Ġcom",
        "un"
      ],
      [
        "ĠEs",
        "te"
      ],
      [
        "Ġre",
        "cor"
      ],
      [
        "Ġrecor",
        "te"
      ],
      [
        "r",
        "o"
      ],
      [
        "ta",
        "s"
      ],
      [
        "s",
        "i"
      ],
      [
        "Ġpr",
        "Ã¡tica"
      ],
      [
        "e",
        "c"
      ],
      [
        "Ġa",
        "j"
      ],
      [
        "Ġaj",
        "uda"
      ],
      [
        "n",
        "der"
      ],
      [
        "Ġ",
        "q"
      ],
      [
        "g",
        "a"
      ],
      [
        "ĠEs",
        "se"
      ],
      [
        "ma",
        "s"
      ],
      [
        "t",
        "ua"
      ],
      [
        "co",
        "s"
      ],
      [
        "Ã",
        "£o"
      ],
      [
        "nÃ§",
        "a"
      ],
      [
        "Ġm",
        "e"
      ],
      [
        "or",
        "m"
      ],
      [
        "g",
        "ra"
      ],
      [
        "Ġpar",
        "a"
      ],
      [
        "Ġme",
        "lh"
      ],
      [
        "Ġ",
        "da"
      ],
      [
        "nte",
        "s"
      ],
      [
        "Ġ",
        "A"
      ],
      [
        "a",
        "Ã§Ã£o"
      ],
      [
        "Ġ",
        "O"
      ],
      [
        "Ġmelh",
        "or"
      ],
      [
        "Ġa",
        "l"
      ],
      [
        "Ġse",
        "gu"
      ],
      [
        "Ġcomun",
        "s"
      ],
      [
        "Ġ",
        "ta"
      ],
      [
        "orm",
        "Ã¡tica"
      ],
      [
        "Ã",
        "³"
      ],
      [
        "Ġinf",
        "ormÃ¡tica"
      ],
      [
        "o",
        "m"
      ],
      [
        "ce",
        "i"
      ],
      [
        "b",
        "i"
      ],
      [
        "Ġu",
        "so"
      ],
      [
        "men",
        "to"
      ],
      [
        "a",
        "re"
      ],
      [
        "Ġcon",
        "cei"
      ],
      [
        "li",
        "ca"
      ],
      [
        "Ã",
        "ª"
      ],
      [
        "l",
        "u"
      ],
      [
        "en",
        "te"
      ],
      [
        "s",
        "u"
      ],
      [
        "Ã©",
        "m"
      ],
      [
        "Ġcomp",
        "u"
      ],
      [
        "te",
        "n"
      ],
      [
        "da",
        "de"
      ],
      [
        "Ġcompu",
        "tado"
      ],
      [
        "Ġap",
        "lica"
      ],
      [
        "m",
        "os"
      ],
      [
        "a",
        "l"
      ],
      [
        "n",
        "cia"
      ],
      [
        "Ġ",
        "d"
      ],
      [
        "Ġdigita",
        "is"
      ],
      [
        "Ġt",
        "ra"
      ],
      [
        "Ġse",
        "m"
      ],
      [
        "l",
        "o"
      ],
      [
        "Ġexempl",
        "os"
      ],
      [
        "Ġn",
        "a"
      ],
      [
        "a",
        "lh"
      ],
      [
        "or",
        "ta"
      ],
      [
        "ni",
        "z"
      ],
      [
        "Ġo",
        "r"
      ],
      [
        "Ġ",
        "li"
      ],
      [
        "da",
        "s"
      ],
      [
        "Ġi",
        "mp"
      ],
      [
        "Ãª",
        "ncia"
      ],
      [
        "do",
        "s"
      ],
      [
        "b",
        "alh"
      ],
      [
        "Ġtra",
        "balh"
      ],
      [
        "Ġ",
        "v"
      ],
      [
        "Ġor",
        "ga"
      ],
      [
        "Ġorga",
        "niz"
      ],
      [
        "v",
        "os"
      ],
      [
        "is",
        "te"
      ],
      [
        "are",
        "ce"
      ],
      [
        "en",
        "sa"
      ],
      [
        "Ã¡",
        "ri"
      ],
      [
        "ci",
        "o"
      ],
      [
        "l",
        "ar"
      ],
      [
        "Ġsi",
        "tua"
      ],
      [
        "i",
        "ca"
      ],
      [
        "Ġm",
        "o"
      ],
      [
        "Ã",
        "Ń"
      ],
      [
        "Ġe",
        "n"
      ],
      [
        "Ġap",
        "arece"
      ],
      [
        "Ġq",
        "uando"
      ],
      [
        "Ġimp",
        "orta"
      ],
      [
        "Ġdi",
        "a"
      ],
      [
        "u",
        "to"
      ],
      [
        "Ġ",
        "g"
      ],
      [
        "Ġimporta",
        "nte"
      ],
      [
        "Ġpar",
        "te"
      ],
      [
        "ra",
        "nÃ§a"
      ],
      [
        "Ġtrabalh",
        "o"
      ],
      [
        "nte",
        "nder"
      ],
      [
        "Ġs",
        "erv"
      ],
      [
        "Ġp",
        "er"
      ],
      [
        "Ġserv",
        "i"
      ],
      [
        "ec",
        "er"
      ],
      [
        "Ġo",
        "u"
      ],
      [
        "Ġsegu",
        "ranÃ§a"
      ],
      [
        "Ġa",
        "uto"
      ],
      [
        "Ġm",
        "ui"
      ],
      [
        "h",
        "ecer"
      ],
      [
        "Ġ",
        "P"
      ],
      [
        "e",
        "ti"
      ],
      [
        "n",
        "to"
      ],
      [
        "Ã",
        "µes"
      ],
      [
        "Ġf",
        "un"
      ],
      [
        "is",
        "so"
      ],
      [
        "a",
        "is"
      ],
      [
        "c",
        "u"
      ],
      [
        "cio",
        "na"
      ],
      [
        "Ġfa",
        "z"
      ],
      [
        "Ġsitua",
        "Ã§Ãµes"
      ],
      [
        "m",
        "o"
      ],
      [
        "Ġestu",
        "do"
      ],
      [
        "Ġal",
        "Ã©m"
      ],
      [
        "b",
        "le"
      ],
      [
        "Ġre",
        "ais"
      ],
      [
        "Ġs",
        "iste"
      ],
      [
        "ten",
        "Ã§Ã£o"
      ],
      [
        "Ġconcei",
        "tos"
      ],
      [
        "i",
        "a"
      ],
      [
        "Ġs",
        "er"
      ],
      [
        "r",
        "os"
      ],
      [
        "Ġorganiz",
        "aÃ§Ã£o"
      ],
      [
        "f",
        "e"
      ],
      [
        "Ã",
        "º"
      ],
      [
        "c",
        "ar"
      ],
      [
        "Ġe",
        "vi"
      ],
      [
        "Ġe",
        "r"
      ],
      [
        "Ġs",
        "o"
      ],
      [
        "Ġevi",
        "ta"
      ],
      [
        "Ġ",
        "1"
      ],
      [
        "Ġpro",
        "ble"
      ],
      [
        "Ġa",
        "r"
      ],
      [
        "e",
        "Ã§"
      ],
      [
        "g",
        "en"
      ],
      [
        "n",
        "e"
      ],
      [
        "Ġs",
        "ol"
      ],
      [
        "da",
        "do"
      ],
      [
        "p",
        "o"
      ],
      [
        "Ġc",
        "ui"
      ],
      [
        "Ġa",
        "ntes"
      ],
      [
        "t",
        "ra"
      ],
      [
        "Ġc",
        "lar"
      ],
      [
        "fe",
        "re"
      ],
      [
        "Q",
        "uando"
      ],
      [
        "qu",
        "i"
      ],
      [
        "Ġre",
        "p"
      ],
      [
        "Ġf",
        "o"
      ],
      [
        "Ġsol",
        "u"
      ],
      [
        "Ã¡ri",
        "o"
      ],
      [
        "Ġ",
        "le"
      ],
      [
        "Ġdi",
        "fere"
      ],
      [
        "Ġes",
        "co"
      ],
      [
        "Ġa",
        "s"
      ],
      [
        "Ã§",
        "os"
      ],
      [
        "Ġsiste",
        "mas"
      ],
      [
        "Ġu",
        "su"
      ],
      [
        "Ġ",
        "2"
      ],
      [
        "Ġpro",
        "c"
      ],
      [
        "Ġte",
        "r"
      ],
      [
        "men",
        "te"
      ],
      [
        "Ġcui",
        "dado"
      ],
      [
        "Ġi",
        "nte"
      ],
      [
        "Ġfa",
        "ci"
      ],
      [
        "li",
        "ta"
      ],
      [
        "v",
        "a"
      ],
      [
        "Ġ",
        "qu"
      ],
      [
        "Ġfaci",
        "lita"
      ],
      [
        "ente",
        "s"
      ],
      [
        "Ġ",
        "C"
      ],
      [
        "Ġ",
        "h"
      ],
      [
        "Ġrep",
        "eti"
      ],
      [
        "gi",
        "a"
      ],
      [
        "Ġ",
        "Quando"
      ],
      [
        "Ġf",
        "ica"
      ],
      [
        "Ã¡",
        "si"
      ],
      [
        "Ġb",
        "Ã¡si"
      ],
      [
        "t",
        "ar"
      ],
      [
        "qu",
        "Ãªncia"
      ],
      [
        "Ġcomputado",
        "r"
      ],
      [
        "Ġestu",
        "da"
      ],
      [
        "Ġfo",
        "i"
      ],
      [
        "ta",
        "Ã§Ã£o"
      ],
      [
        "Ġservi",
        "Ã§os"
      ],
      [
        "p",
        "re"
      ],
      [
        "Ġre",
        "s"
      ],
      [
        "f",
        "o"
      ],
      [
        "gen",
        "s"
      ],
      [
        "Ġmelhor",
        "a"
      ],
      [
        "Ġdigita",
        "l"
      ],
      [
        "ĠN",
        "es"
      ],
      [
        "gra",
        "fo"
      ],
      [
        "Ġp",
        "or"
      ],
      [
        "Ġ",
        "3"
      ],
      [
        "Ġb",
        "em"
      ],
      [
        "Ġer",
        "ros"
      ],
      [
        "Ġa",
        "tenÃ§Ã£o"
      ],
      [
        "Ġa",
        "m"
      ],
      [
        "Ġusu",
        "Ã¡rio"
      ],
      [
        "li",
        "dade"
      ],
      [
        "Ġse",
        "quÃªncia"
      ],
      [
        "Ġa",
        "nte"
      ],
      [
        "Ġpar",
        "Ã¡"
      ],
      [
        "ri",
        "or"
      ],
      [
        "ĠparÃ¡",
        "grafo"
      ],
      [
        "Ġam",
        "bi"
      ],
      [
        "Ġcomputado",
        "res"
      ],
      [
        "Ġante",
        "rior"
      ],
      [
        "Ġb",
        "lo"
      ],
      [
        "t",
        "r"
      ],
      [
        "ĠNes",
        "te"
      ],
      [
        "Ġp",
        "ensa"
      ],
      [
        "Ġblo",
        "co"
      ],
      [
        "v",
        "ol"
      ],
      [
        "Ġrepeti",
        "r"
      ],
      [
        "Ġpensa",
        "do"
      ],
      [
        "Ġcon",
        "ec"
      ],
      [
        "Ġfun",
        "Ã§Ã£o"
      ],
      [
        "Ġte",
        "c"
      ],
      [
        "Ġre",
        "la"
      ],
      [
        "un",
        "to"
      ],
      [
        "Ġca",
        "da"
      ],
      [
        "Ġambi",
        "entes"
      ],
      [
        "Ġter",
        "mos"
      ],
      [
        "Ġcom",
        "eÃ§"
      ],
      [
        "co",
        "n"
      ],
      [
        "ti",
        "vos"
      ],
      [
        "m",
        "b"
      ],
      [
        "Ġ",
        "4"
      ],
      [
        "Ġesco",
        "lh"
      ],
      [
        "ci",
        "ente"
      ],
      [
        "Ġdi",
        "re"
      ],
      [
        "Ġte",
        "ma"
      ],
      [
        "Ġma",
        "s"
      ],
      [
        "Ġte",
        "x"
      ],
      [
        "Ġproble",
        "mas"
      ],
      [
        "tu",
        "ra"
      ],
      [
        "Ġde",
        "s"
      ],
      [
        "Ġ",
        "M"
      ],
      [
        "ĠprÃ¡tica",
        "s"
      ],
      [
        "Ġso",
        "b"
      ],
      [
        "n",
        "om"
      ],
      [
        "Ġe",
        "ntender"
      ],
      [
        "ol",
        "o"
      ],
      [
        "Ġsob",
        "re"
      ],
      [
        "Ġpo",
        "nto"
      ],
      [
        "Ġin",
        "c"
      ],
      [
        "gi",
        "r"
      ],
      [
        "h",
        "e"
      ],
      [
        "re",
        "f"
      ],
      [
        "olo",
        "gia"
      ],
      [
        "p",
        "er"
      ],
      [
        "Ġta",
        "ref"
      ],
      [
        "E",
        "m"
      ],
      [
        "r",
        "ar"
      ],
      [
        "Ġtec",
        "n"
      ],
      [
        "ĠC",
        "om"
      ],
      [
        "ci",
        "l"
      ],
      [
        "Ġf",
        "Ã¡"
      ],
      [
        "Ġcomp",
        "ar"
      ],
      [
        "d",
        "u"
      ],
      [
        "Ġqu",
        "e"
      ],
      [
        "nom",
        "ia"
      ],
      [
        "ĠfÃ¡",
        "cil"
      ],
      [
        "Ġauto",
        "nomia"
      ],
      [
        "Ġtecn",
        "ologia"
      ],
      [
        "Ġes",
        "se"
      ],
      [
        "Ġs",
        "en"
      ],
      [
        "Ġinc",
        "lu"
      ],
      [
        "Ġg",
        "er"
      ],
      [
        "Ġda",
        "dos"
      ],
      [
        "con",
        "hecer"
      ],
      [
        "Ġt",
        "or"
      ],
      [
        "Ġre",
        "su"
      ],
      [
        "Ġde",
        "cor"
      ],
      [
        "Ġp",
        "as"
      ],
      [
        "Ġtaref",
        "as"
      ],
      [
        "Ġdecor",
        "ar"
      ],
      [
        "Ġh",
        "Ã¡"
      ],
      [
        "Ġaplica",
        "Ã§Ãµes"
      ],
      [
        "A",
        "pre"
      ],
      [
        "Ġas",
        "s"
      ],
      [
        "re",
        "en"
      ],
      [
        "Apre",
        "nder"
      ],
      [
        "Ġpode",
        "m"
      ],
      [
        "Ġco",
        "mpl"
      ],
      [
        "Ġtor",
        "na"
      ],
      [
        "Ġd",
        "isso"
      ],
      [
        "Ġresu",
        "l"
      ],
      [
        "Ġb",
        "as"
      ],
      [
        "lh",
        "as"
      ],
      [
        "reen",
        "der"
      ],
      [
        "en",
        "as"
      ],
      [
        "Ġger",
        "al"
      ],
      [
        "he",
        "ci"
      ],
      [
        "Ġmui",
        "tas"
      ],
      [
        "Ġresul",
        "tado"
      ],
      [
        "fi",
        "ciente"
      ],
      [
        "Ã³",
        "ri"
      ],
      [
        "do",
        "res"
      ],
      [
        "Ġp",
        "e"
      ],
      [
        "Ġcon",
        "heci"
      ],
      [
        "p",
        "os"
      ],
      [
        "es",
        "mo"
      ],
      [
        "Ġprecis",
        "a"
      ],
      [
        "ĠO",
        "s"
      ],
      [
        "ĠP",
        "or"
      ],
      [
        "Ġcon",
        "fi"
      ],
      [
        "Ġn",
        "Ã£o"
      ],
      [
        "q",
        "ua"
      ],
      [
        "Ġe",
        "ficiente"
      ],
      [
        "Ġbas",
        "e"
      ],
      [
        "ar",
        "a"
      ],
      [
        "Ġproc",
        "esso"
      ],
      [
        "n",
        "os"
      ],
      [
        "c",
        "ri"
      ],
      [
        "Ġrela",
        "ciona"
      ],
      [
        "Ġa",
        "de"
      ],
      [
        "s",
        "ar"
      ],
      [
        "ĠN",
        "a"
      ],
      [
        "qui",
        "vos"
      ],
      [
        "Ġade",
        "qua"
      ],
      [
        "vol",
        "ve"
      ],
      [
        "ta",
        "mente"
      ],
      [
        "Ġconheci",
        "mento"
      ],
      [
        "ĠE",
        "le"
      ],
      [
        "Ġex",
        "i"
      ],
      [
        "ci",
        "ar"
      ],
      [
        "Ġclar",
        "a"
      ],
      [
        "Ġfaz",
        "er"
      ],
      [
        "Ġinclu",
        "em"
      ],
      [
        "Ġdifere",
        "nÃ§a"
      ],
      [
        "Ġescolh",
        "er"
      ],
      [
        "Ġconfi",
        "gu"
      ],
      [
        "Ġconcei",
        "to"
      ],
      [
        "t",
        "or"
      ],
      [
        "ĠM",
        "esmo"
      ],
      [
        "d",
        "ar"
      ],
      [
        "Ġi",
        "r"
      ],
      [
        "Ġsolu",
        "Ã§Ãµes"
      ],
      [
        "i",
        "car"
      ],
      [
        "Ġre",
        "conhecer"
      ],
      [
        "N",
        "a"
      ],
      [
        "ĠbÃ¡si",
        "cos"
      ],
      [
        "Ġaplica",
        "do"
      ],
      [
        "Ġexi",
        "gir"
      ],
      [
        "Ġmui",
        "tos"
      ],
      [
        "Ġadequa",
        "das"
      ],
      [
        "Ġu",
        "sar"
      ],
      [
        "Ġcompl",
        "icar"
      ],
      [
        "Ġm",
        "ensa"
      ],
      [
        "Ġinf",
        "lu"
      ],
      [
        "Ġmo",
        "der"
      ],
      [
        "Ġinflu",
        "en"
      ],
      [
        "Ġdire",
        "tamente"
      ],
      [
        "u",
        "s"
      ],
      [
        "Q",
        "u"
      ],
      [
        "Ġmoder",
        "nos"
      ],
      [
        "Ġconec",
        "ta"
      ],
      [
        "Ġass",
        "unto"
      ],
      [
        "Ġi",
        "de"
      ],
      [
        "Ġsegu",
        "ro"
      ],
      [
        "Ġno",
        "Ã§Ãµes"
      ],
      [
        "Ġcon",
        "hecer"
      ],
      [
        "Ġinfluen",
        "ciar"
      ],
      [
        "Qu",
        "em"
      ],
      [
        "E",
        "ntender"
      ],
      [
        "a",
        "mento"
      ],
      [
        "Ġdo",
        "cu"
      ],
      [
        "Ġdocu",
        "men"
      ],
      [
        "Ġ",
        "isso"
      ],
      [
        "Ġen",
        "volve"
      ],
      [
        "Ġar",
        "quivos"
      ],
      [
        "Ġli",
        "da"
      ],
      [
        "Ġobserva",
        "do"
      ],
      [
        "Ġcomp",
        "reender"
      ],
      [
        "Ġlida",
        "mos"
      ],
      [
        "Ġle",
        "i"
      ],
      [
        "Ġte",
        "s"
      ],
      [
        "m",
        "i"
      ],
      [
        "bi",
        "lidade"
      ],
      [
        "Ġp",
        "la"
      ],
      [
        "na",
        "l"
      ],
      [
        "Ġp",
        "a"
      ],
      [
        "Ġpe",
        "qu"
      ],
      [
        "Ġmensa",
        "gens"
      ],
      [
        "Ġa",
        "va"
      ],
      [
        "Ġinte",
        "r"
      ],
      [
        "t",
        "Ã³ri"
      ],
      [
        "ma",
        "Ã§Ã£o"
      ],
      [
        "Ġde",
        "ve"
      ],
      [
        "Ġq",
        "uan"
      ],
      [
        "po",
        "n"
      ],
      [
        "ti",
        "l"
      ],
      [
        "Ġf",
        "ra"
      ],
      [
        "i",
        "n"
      ],
      [
        "Ġd",
        "is"
      ],
      [
        "ra",
        "Ã§Ãµes"
      ],
      [
        "Ġ",
        "U"
      ],
      [
        "Ġin",
        "i"
      ],
      [
        "Ġini",
        "cia"
      ],
      [
        "Ġconfigu",
        "raÃ§Ãµes"
      ],
      [
        "Ġquan",
        "to"
      ],
      [
        "Ġca",
        "sa"
      ],
      [
        "Ġ",
        "5"
      ],
      [
        "Ġo",
        "n"
      ],
      [
        "Ġta",
        "nto"
      ],
      [
        "Ġa",
        "os"
      ],
      [
        "Ġestu",
        "dar"
      ],
      [
        "Ġre",
        "cu"
      ],
      [
        "Ġs",
        "Ã£o"
      ],
      [
        "Ġinicia",
        "ntes"
      ],
      [
        "u",
        "l"
      ],
      [
        "ĠcomeÃ§",
        "ar"
      ],
      [
        "ĠP",
        "ara"
      ],
      [
        "Ġres",
        "pon"
      ],
      [
        "v",
        "er"
      ],
      [
        "s",
        "os"
      ],
      [
        "Ġu",
        "sa"
      ],
      [
        "Ġpo",
        "u"
      ],
      [
        "Ġpou",
        "cos"
      ],
      [
        "mb",
        "Ã©m"
      ],
      [
        "Ã¡",
        "ve"
      ],
      [
        "Ġfa",
        "lhas"
      ],
      [
        "Ġre",
        "de"
      ],
      [
        "v",
        "o"
      ],
      [
        "Ġava",
        "nÃ§"
      ],
      [
        "Ġtex",
        "to"
      ],
      [
        "Ġide",
        "al"
      ],
      [
        "Ġf",
        "i"
      ],
      [
        "ĠavanÃ§",
        "ar"
      ],
      [
        "Ġta",
        "mbÃ©m"
      ],
      [
        "Ġcom",
        "o"
      ],
      [
        "li",
        "ne"
      ],
      [
        "Ġ",
        "Ãº"
      ],
      [
        "Ġon",
        "line"
      ],
      [
        "Ġcompar",
        "ar"
      ],
      [
        "Ġ",
        "6"
      ],
      [
        "Ġcomun",
        "ica"
      ],
      [
        "Ġcon",
        "s"
      ],
      [
        "Ġper",
        "ce"
      ],
      [
        "Ġcomunica",
        "Ã§Ã£o"
      ],
      [
        "du",
        "z"
      ],
      [
        "si",
        "de"
      ],
      [
        "Ġ",
        "ve"
      ],
      [
        "Ġ",
        "7"
      ],
      [
        "tra",
        "s"
      ],
      [
        "Ġ",
        "Ã"
      ],
      [
        "Ġ",
        "r"
      ],
      [
        "Ġtes",
        "tar"
      ],
      [
        "vi",
        "da"
      ],
      [
        "z",
        "a"
      ],
      [
        "ĠÃº",
        "til"
      ],
      [
        "Ġv",
        "er"
      ],
      [
        "Ġ",
        "to"
      ],
      [
        "Ġli",
        "n"
      ],
      [
        "s",
        "Ãµes"
      ],
      [
        "s",
        "tu"
      ],
      [
        "cri",
        "ta"
      ],
      [
        "ti",
        "do"
      ],
      [
        "ni",
        "tor"
      ],
      [
        "Ġmo",
        "nitor"
      ],
      [
        "ni",
        "co"
      ],
      [
        "z",
        "ar"
      ],
      [
        "Ġsen",
        "tido"
      ],
      [
        "h",
        "a"
      ],
      [
        "Ġclar",
        "o"
      ],
      [
        "v",
        "is"
      ],
      [
        "Ġr",
        "is"
      ],
      [
        "er",
        "ra"
      ],
      [
        "t",
        "ro"
      ],
      [
        "Ġ",
        "8"
      ],
      [
        "Ġris",
        "cos"
      ],
      [
        "g",
        "em"
      ],
      [
        "erra",
        "men"
      ],
      [
        "Ġobserv",
        "ar"
      ],
      [
        "Ġsolu",
        "Ã§Ã£o"
      ],
      [
        "x",
        "i"
      ],
      [
        "erramen",
        "tas"
      ],
      [
        "mp",
        "o"
      ],
      [
        "â",
        "Ģ"
      ],
      [
        "Ġ",
        "9"
      ],
      [
        "b",
        "er"
      ],
      [
        "Ġ",
        "T"
      ],
      [
        "Ġlei",
        "tura"
      ],
      [
        "Ġdocumen",
        "taÃ§Ã£o"
      ],
      [
        "a",
        "n"
      ],
      [
        "tr",
        "u"
      ],
      [
        "Ġinf",
        "orma"
      ],
      [
        "Ġob",
        "j"
      ],
      [
        "t",
        "s"
      ],
      [
        "po",
        "is"
      ],
      [
        "Ġ",
        "I"
      ],
      [
        "ĠU",
        "m"
      ],
      [
        "Ġre",
        "vis"
      ],
      [
        "Ġte",
        "mpo"
      ],
      [
        "Ġde",
        "pois"
      ],
      [
        "Ġ",
        "lo"
      ],
      [
        "u",
        "tenÃ§Ã£o"
      ],
      [
        "f",
        "t"
      ],
      [
        "w",
        "are"
      ],
      [
        "d",
        "r"
      ],
      [
        "vi",
        "dade"
      ],
      [
        "Ġ",
        "F"
      ],
      [
        "Ġo",
        "per"
      ],
      [
        "Ġes",
        "crita"
      ],
      [
        "pos",
        "i"
      ],
      [
        "Ġal",
        "te"
      ],
      [
        "Ã¡ve",
        "l"
      ],
      [
        "ft",
        "ware"
      ],
      [
        "ĠhÃ¡",
        "bi"
      ],
      [
        "Ġ",
        "ro"
      ],
      [
        "Ġve",
        "z"
      ],
      [
        "Ġproble",
        "ma"
      ],
      [
        "Ġso",
        "ftware"
      ],
      [
        "Ġpa",
        "dr"
      ],
      [
        "e",
        "b"
      ],
      [
        "Ġcon",
        "side"
      ],
      [
        "nÃ§",
        "as"
      ],
      [
        "Ġperce",
        "ber"
      ],
      [
        "Ġma",
        "n"
      ],
      [
        "men",
        "tos"
      ],
      [
        "Ġconside",
        "ra"
      ],
      [
        "Ġin",
        "di"
      ],
      [
        "g",
        "ua"
      ],
      [
        "Ġpequ",
        "enas"
      ],
      [
        "Ġauto",
        "maÃ§Ã£o"
      ],
      [
        "Ġap",
        "enas"
      ],
      [
        "Ã¡ri",
        "os"
      ],
      [
        "or",
        "a"
      ],
      [
        "Ġpr",
        "Ã³"
      ],
      [
        "Ġobj",
        "eti"
      ],
      [
        "Ã",
        "´"
      ],
      [
        "Ġ",
        "w"
      ],
      [
        "Ġpadr",
        "Ãµes"
      ],
      [
        "Ġproc",
        "es"
      ],
      [
        "Ġdifere",
        "ntes"
      ],
      [
        "Ġou",
        "tras"
      ],
      [
        "Ġpro",
        "gra"
      ],
      [
        "ti",
        "fi"
      ],
      [
        "Ġrevis",
        "Ã£o"
      ],
      [
        "Ġd",
        "Ãº"
      ],
      [
        "posi",
        "tivos"
      ],
      [
        "ĠdÃº",
        "vida"
      ],
      [
        "Ġap",
        "re"
      ],
      [
        "to",
        "res"
      ],
      [
        "Ġaplica",
        "tivos"
      ],
      [
        "Ġw",
        "eb"
      ],
      [
        "p",
        "e"
      ],
      [
        "ĠÃ",
        "ī"
      ],
      [
        "t",
        "re"
      ],
      [
        "Ġman",
        "utenÃ§Ã£o"
      ],
      [
        "Ġpesso",
        "as"
      ],
      [
        "Ġco",
        "stu"
      ],
      [
        "Ġobjeti",
        "vo"
      ],
      [
        "Ġcostu",
        "ma"
      ],
      [
        "Ġm",
        "uda"
      ],
      [
        "Ġdes",
        "de"
      ],
      [
        "Ġfun",
        "ciona"
      ],
      [
        "Ġde",
        "cis"
      ],
      [
        "ĠE",
        "m"
      ],
      [
        "Ġpr",
        "i"
      ],
      [
        "Ġex",
        "ce"
      ],
      [
        "Ġb",
        "om"
      ],
      [
        "Ġpas",
        "so"
      ],
      [
        "tu",
        "do"
      ],
      [
        "ĠcomeÃ§",
        "o"
      ],
      [
        "s",
        "Ã¡vel"
      ],
      [
        "Ġ",
        "W"
      ],
      [
        "Ġrespon",
        "sÃ¡vel"
      ],
      [
        "Ġconsidera",
        "da"
      ],
      [
        "Ġmuda",
        "nÃ§as"
      ],
      [
        "Ġre",
        "duz"
      ],
      [
        "Ġ",
        "vi"
      ],
      [
        "Ġexce",
        "Ã§Ãµes"
      ],
      [
        "Ġalte",
        "rar"
      ],
      [
        "Ġ",
        "tudo"
      ],
      [
        "Ġusa",
        "das"
      ],
      [
        "Ġcon",
        "tas"
      ],
      [
        "ma",
        "das"
      ],
      [
        "ĠhÃ¡bi",
        "to"
      ],
      [
        "t",
        "ros"
      ],
      [
        "s",
        "Ã£o"
      ],
      [
        "h",
        "as"
      ],
      [
        "Ġper",
        "da"
      ],
      [
        "Ġer",
        "ro"
      ],
      [
        "m",
        "is"
      ],
      [
        "xi",
        "mo"
      ],
      [
        "do",
        "r"
      ],
      [
        "Ã©",
        "c"
      ],
      [
        "Ġdecis",
        "Ãµes"
      ],
      [
        "Ġe",
        "qui"
      ],
      [
        "Ġindi",
        "car"
      ],
      [
        "Ġt",
        "Ã©c"
      ],
      [
        "Ġna",
        "ve"
      ],
      [
        "Ġnave",
        "ga"
      ],
      [
        "ĠprÃ³",
        "ximo"
      ],
      [
        "Ġfunciona",
        "m"
      ],
      [
        "Ġper",
        "mis"
      ],
      [
        "l",
        "as"
      ],
      [
        "Ġto",
        "madas"
      ],
      [
        "Ġle",
        "mb"
      ],
      [
        "ĠF",
        "erramentas"
      ],
      [
        "Ġpermis",
        "sÃµes"
      ],
      [
        "Ġlemb",
        "rar"
      ],
      [
        "ca",
        "s"
      ],
      [
        "Ġo",
        "s"
      ],
      [
        "Ġa",
        "ten"
      ],
      [
        "c",
        "es"
      ],
      [
        "en",
        "ta"
      ],
      [
        "Ġe",
        "le"
      ],
      [
        "Ġdis",
        "positivos"
      ],
      [
        "Ġ",
        "l"
      ],
      [
        "Ġrecu",
        "r"
      ],
      [
        "ĠbÃ¡si",
        "ca"
      ],
      [
        "s",
        "es"
      ],
      [
        "Ġestuda",
        "nte"
      ],
      [
        "z",
        "en"
      ],
      [
        "Ġar",
        "ma"
      ],
      [
        "Ġarma",
        "zen"
      ],
      [
        "ĠtÃ©c",
        "nico"
      ],
      [
        "Ġfra",
        "se"
      ],
      [
        "Ġvi",
        "r"
      ],
      [
        "Ġq",
        "ua"
      ],
      [
        "Ġa",
        "o"
      ],
      [
        "c",
        "re"
      ],
      [
        "Ġ",
        "("
      ],
      [
        "f",
        "orma"
      ],
      [
        "Ġarmazen",
        "amento"
      ],
      [
        "Ġa",
        "n"
      ],
      [
        "Ġdo",
        "m"
      ],
      [
        "Ġm",
        "os"
      ],
      [
        "Ġ",
        "ce"
      ],
      [
        "Ġrede",
        "s"
      ],
      [
        "ne",
        "t"
      ],
      [
        "ti",
        "vidade"
      ],
      [
        "Ġmos",
        "tra"
      ],
      [
        "Ġres",
        "pos"
      ],
      [
        "Ġre",
        "gra"
      ],
      [
        "te",
        "s"
      ],
      [
        "la",
        "b"
      ],
      [
        "Ġe",
        "di"
      ],
      [
        "l",
        "os"
      ],
      [
        "ci",
        "dade"
      ],
      [
        "di",
        "mento"
      ],
      [
        "Ġvir",
        "tua"
      ],
      [
        "Ġce",
        "lu"
      ],
      [
        "Ã¡",
        "l"
      ],
      [
        "ma",
        "n"
      ],
      [
        "Ġlo",
        "j"
      ],
      [
        "Ġrespos",
        "tas"
      ],
      [
        "Ġaten",
        "dimento"
      ],
      [
        "Ġco",
        "r"
      ],
      [
        "j",
        "e"
      ],
      [
        "Ġes",
        "cre"
      ],
      [
        "p",
        "a"
      ],
      [
        "Ġs",
        "u"
      ],
      [
        "tru",
        "tura"
      ],
      [
        "tr",
        "Ã´"
      ],
      [
        "Ġv",
        "ar"
      ],
      [
        "Ġv",
        "is"
      ],
      [
        "Ġele",
        "trÃ´"
      ],
      [
        "res",
        "enta"
      ],
      [
        "p",
        "i"
      ],
      [
        "Ġfra",
        "ses"
      ],
      [
        "ĠT",
        "I"
      ],
      [
        "Ġex",
        "p"
      ],
      [
        "Ġpas",
        "tas"
      ],
      [
        "or",
        "te"
      ],
      [
        "Ã©",
        "ri"
      ],
      [
        "Ġsiste",
        "ma"
      ],
      [
        "ciona",
        "is"
      ],
      [
        "Ġoper",
        "a"
      ],
      [
        "Ġa",
        "tua"
      ],
      [
        "Ãª",
        "s"
      ],
      [
        "s",
        "tica"
      ],
      [
        "Ġdes",
        "en"
      ],
      [
        "Ġmo",
        "de"
      ],
      [
        "Ã¡l",
        "is"
      ],
      [
        "Ġrecur",
        "sos"
      ],
      [
        "Ġpequ",
        "en"
      ],
      [
        "R",
        "e"
      ],
      [
        "Ã¡lis",
        "e"
      ],
      [
        "Ġ",
        "Ã¡"
      ],
      [
        "r",
        "Ã¡"
      ],
      [
        "tÃ³ri",
        "os"
      ],
      [
        "Ġatua",
        "li"
      ],
      [
        "i",
        "to"
      ],
      [
        "g",
        "n"
      ],
      [
        "Ġpro",
        "te"
      ],
      [
        "Ġen",
        "tre"
      ],
      [
        "ÃŃ",
        "n"
      ],
      [
        "Ġrecu",
        "per"
      ],
      [
        "Ġproces",
        "sos"
      ],
      [
        "j",
        "unto"
      ],
      [
        "qu",
        "is"
      ],
      [
        "va",
        "cidade"
      ],
      [
        "Ġpro",
        "je"
      ],
      [
        "i",
        "f"
      ],
      [
        "Ġv",
        "ÃŃ"
      ],
      [
        "Ã©ri",
        "cos"
      ],
      [
        "Ġi",
        "ma"
      ],
      [
        "P",
        "I"
      ],
      [
        "tÃ³ri",
        "o"
      ],
      [
        "resenta",
        "Ã§Ãµes"
      ],
      [
        "Ġan",
        "Ã¡lise"
      ],
      [
        "Ġprogra",
        "mas"
      ],
      [
        "Ġopera",
        "cionais"
      ],
      [
        "Ġsen",
        "has"
      ],
      [
        "Ġmonitor",
        "amento"
      ],
      [
        "tu",
        "gu"
      ],
      [
        "PI",
        "s"
      ],
      [
        "eÃ§",
        "as"
      ],
      [
        "ni",
        "lhas"
      ],
      [
        "if",
        "Ã©ricos"
      ],
      [
        "de",
        "s"
      ],
      [
        "Ġpor",
        "tugu"
      ],
      [
        "Ġlin",
        "gua"
      ],
      [
        "ra",
        "s"
      ],
      [
        "Ġportugu",
        "Ãªs"
      ],
      [
        "Ġtex",
        "tos"
      ],
      [
        "Ġima",
        "gens"
      ],
      [
        "Ġesco",
        "la"
      ],
      [
        "ua",
        "l"
      ],
      [
        "v",
        "en"
      ],
      [
        "t",
        "ri"
      ],
      [
        "rÃ¡",
        "fi"
      ],
      [
        "Ġproje",
        "to"
      ],
      [
        "Ġda",
        "s"
      ],
      [
        "Ġescre",
        "ver"
      ],
      [
        "fi",
        "a"
      ],
      [
        "m",
        "e"
      ],
      [
        "n",
        "tro"
      ],
      [
        "âĢ",
        "Ŀ"
      ],
      [
        "Ġ",
        "âĢ"
      ],
      [
        "ĠâĢ",
        "ľ"
      ],
      [
        "gra",
        "fia"
      ],
      [
        "cia",
        "l"
      ],
      [
        "Ġg",
        "rÃ¡fi"
      ],
      [
        "x",
        "os"
      ],
      [
        "tifi",
        "ca"
      ],
      [
        "C",
        "o"
      ],
      [
        "er",
        "Ãªncia"
      ],
      [
        "di",
        "o"
      ],
      [
        "Ġvar",
        "i"
      ],
      [
        "Ġe",
        "mp"
      ],
      [
        "ĠW",
        "i"
      ],
      [
        "Ġinte",
        "gra"
      ],
      [
        "a",
        "dores"
      ],
      [
        "n",
        "c"
      ],
      [
        "Ġqua",
        "lidade"
      ],
      [
        "Ġpequen",
        "a"
      ],
      [
        "to",
        "grafia"
      ],
      [
        "Ġinter",
        "pre"
      ],
      [
        "Ġinforma",
        "Ã§Ãµes"
      ],
      [
        "or",
        "i"
      ],
      [
        "quis",
        "i"
      ],
      [
        "ĠgrÃ¡fi",
        "cos"
      ],
      [
        "er",
        "gia"
      ],
      [
        "Ġen",
        "ergia"
      ],
      [
        "Ġca",
        "b"
      ],
      [
        "Ġc",
        "ri"
      ],
      [
        "Ġ",
        "L"
      ],
      [
        "p",
        "es"
      ],
      [
        "Ġf",
        "orm"
      ],
      [
        "m",
        "er"
      ],
      [
        "Ã³",
        "pi"
      ],
      [
        "cri",
        "p"
      ],
      [
        "Ġre",
        "quisi"
      ],
      [
        "Ġro",
        "te"
      ],
      [
        "F",
        "i"
      ],
      [
        "Ġintegra",
        "Ã§Ã£o"
      ],
      [
        "u",
        "dio"
      ],
      [
        "Ġvis",
        "ual"
      ],
      [
        "m",
        "Ã¡tica"
      ],
      [
        "Ġservi",
        "dores"
      ],
      [
        "Ġinterpre",
        "taÃ§Ã£o"
      ],
      [
        "ĠÃ¡",
        "udio"
      ],
      [
        "I",
        "nte"
      ],
      [
        "Ġs",
        "crip"
      ],
      [
        "Ġrote",
        "adores"
      ],
      [
        "Ġ",
        "S"
      ],
      [
        "n",
        "di"
      ],
      [
        "Ġnavega",
        "dores"
      ],
      [
        "Ġscrip",
        "ts"
      ],
      [
        "Ġpro",
        "du"
      ],
      [
        "Ġg",
        "ol"
      ],
      [
        "Ġform",
        "ul"
      ],
      [
        "Ġgol",
        "pes"
      ],
      [
        "Ġformul",
        "Ã¡rios"
      ],
      [
        "Ġdesen",
        "vol"
      ],
      [
        "Ġsitua",
        "Ã§Ã£o"
      ],
      [
        "Ġb",
        "o"
      ],
      [
        "i",
        "x"
      ],
      [
        "ta",
        "forma"
      ],
      [
        "Ġpla",
        "taforma"
      ],
      [
        "Ġemp",
        "re"
      ],
      [
        "Ã©",
        "r"
      ],
      [
        "Ġin",
        "s"
      ],
      [
        "za",
        "do"
      ],
      [
        "Ġdesenvol",
        "vi"
      ],
      [
        "Ġempre",
        "sa"
      ],
      [
        "Ġpri",
        "vacidade"
      ],
      [
        "Ġinter",
        "f"
      ],
      [
        "Ġco",
        "nte"
      ],
      [
        "g",
        "Ãªncia"
      ],
      [
        "ti",
        "na"
      ],
      [
        "Ġ",
        "D"
      ],
      [
        "Ġpessoa",
        "l"
      ],
      [
        "v",
        "as"
      ],
      [
        "Ġvirtua",
        "l"
      ],
      [
        "Ġservi",
        "dor"
      ],
      [
        "lab",
        "ora"
      ],
      [
        "Ġco",
        "man"
      ],
      [
        "Ġcor",
        "ri"
      ],
      [
        "Ġcelu",
        "lar"
      ],
      [
        "h",
        "o"
      ],
      [
        "Ġn",
        "Ãº"
      ],
      [
        "ĠA",
        "PIs"
      ],
      [
        "Ġper",
        "ifÃ©ricos"
      ],
      [
        "Ġpla",
        "nilhas"
      ],
      [
        "Ġedi",
        "tores"
      ],
      [
        "ci",
        "p"
      ],
      [
        "Ġequi",
        "pe"
      ],
      [
        "Ġ",
        "labora"
      ],
      [
        "Ġp",
        "eÃ§as"
      ],
      [
        "Ġpr",
        "in"
      ],
      [
        "Ġap",
        "resentaÃ§Ãµes"
      ],
      [
        "Ġloj",
        "a"
      ],
      [
        "Ġlabora",
        "tÃ³rio"
      ],
      [
        "Ġro",
        "tina"
      ],
      [
        "Ġdom",
        "Ã©"
      ],
      [
        "Ġal",
        "g"
      ],
      [
        "ĠdomÃ©",
        "stica"
      ],
      [
        "n",
        "s"
      ],
      [
        "ĠnÃº",
        "mer"
      ],
      [
        "Ġdesenvolvi",
        "mento"
      ],
      [
        "e",
        "x"
      ],
      [
        "Ġc",
        "ha"
      ],
      [
        "Ġapre",
        "nder"
      ],
      [
        "Ġi",
        "mpl"
      ],
      [
        "ti",
        "m"
      ],
      [
        "us",
        "ten"
      ],
      [
        "z",
        "aÃ§Ã£o"
      ],
      [
        "usten",
        "ta"
      ],
      [
        "ndi",
        "zado"
      ],
      [
        "Ġinforma",
        "Ã§Ã£o"
      ],
      [
        "Ġprin",
        "cip"
      ],
      [
        "Ġapre",
        "ndizado"
      ],
      [
        "c",
        "en"
      ],
      [
        "t",
        "Ã£o"
      ],
      [
        "a",
        "m"
      ],
      [
        "mi",
        "nal"
      ],
      [
        "Ġinter",
        "net"
      ],
      [
        "a",
        "do"
      ],
      [
        "p",
        "en"
      ],
      [
        "la",
        "do"
      ],
      [
        "u",
        "p"
      ],
      [
        "Ġde",
        "ntro"
      ],
      [
        "n",
        "ha"
      ],
      [
        "ve",
        "is"
      ],
      [
        "p",
        "ri"
      ],
      [
        "Ġprincip",
        "al"
      ],
      [
        "i",
        "l"
      ],
      [
        "Ġcompar",
        "aÃ§Ã£o"
      ],
      [
        "g",
        "o"
      ],
      [
        "Ã³",
        "gi"
      ],
      [
        "Ġ",
        "H"
      ],
      [
        "di",
        "a"
      ],
      [
        "Ġcon",
        "tr"
      ],
      [
        "Ġa",
        "tividade"
      ],
      [
        "li",
        "gÃªncia"
      ],
      [
        "Ġ1",
        "9"
      ],
      [
        "si",
        "o"
      ],
      [
        "ĠnÃºmer",
        "o"
      ],
      [
        "me",
        "i"
      ],
      [
        "nal",
        "is"
      ],
      [
        "Ġatividade",
        "s"
      ],
      [
        "Ġ",
        "ga"
      ],
      [
        "Ġ2",
        "0"
      ],
      [
        "P",
        "ro"
      ],
      [
        "Ġre",
        "f"
      ],
      [
        "ne",
        "j"
      ],
      [
        "Ġpas",
        "sa"
      ],
      [
        "Ġcontr",
        "ol"
      ],
      [
        "Ġre",
        "al"
      ],
      [
        "ti",
        "mi"
      ],
      [
        "ori",
        "t"
      ],
      [
        "Ġpla",
        "nej"
      ],
      [
        "s",
        "ti"
      ],
      [
        "Ġusu",
        "Ã¡rios"
      ],
      [
        "Ġpar",
        "ti"
      ],
      [
        "Ġpri",
        "mei"
      ],
      [
        "ri",
        "n"
      ],
      [
        "tifi",
        "cial"
      ],
      [
        "i",
        "r"
      ],
      [
        "Ġm",
        "en"
      ],
      [
        "Ġm",
        "em"
      ],
      [
        "ma",
        "ti"
      ],
      [
        "Ġo",
        "timi"
      ],
      [
        "Ġa",
        "nalis"
      ],
      [
        "Inte",
        "r"
      ],
      [
        "ni",
        "cas"
      ],
      [
        "Ġalg",
        "orit"
      ],
      [
        "Ġar",
        "tificial"
      ],
      [
        "Ġde",
        "pen"
      ],
      [
        "Ġdepen",
        "de"
      ],
      [
        "i",
        "fi"
      ],
      [
        "Ġ",
        "gra"
      ],
      [
        "ma",
        "il"
      ],
      [
        "Ġno",
        "tar"
      ],
      [
        "Ġcon",
        "ex"
      ],
      [
        "Ġconte",
        "Ãº"
      ],
      [
        "Ġimpl",
        "an"
      ],
      [
        "Ġga",
        "nha"
      ],
      [
        "ti",
        "lh"
      ],
      [
        "Ġins",
        "ta"
      ],
      [
        "g",
        "er"
      ],
      [
        "Ġimplan",
        "taÃ§Ã£o"
      ],
      [
        "Ġen",
        "tra"
      ],
      [
        "tado",
        "s"
      ],
      [
        "ÃŃ",
        "ni"
      ],
      [
        "ÃŃ",
        "si"
      ],
      [
        "Ġcompar",
        "tilh"
      ],
      [
        "g",
        "s"
      ],
      [
        "Ġc",
        "ar"
      ],
      [
        "Ġm",
        "Ã³"
      ],
      [
        "ĠconteÃº",
        "do"
      ],
      [
        "Ġauto",
        "mati"
      ],
      [
        "ĠA",
        "s"
      ],
      [
        "p",
        "tografia"
      ],
      [
        "Ġver",
        "sÃ£o"
      ],
      [
        "cen",
        "Ã§"
      ],
      [
        "Ġconex",
        "Ãµes"
      ],
      [
        "Ġf",
        "ÃŃsi"
      ],
      [
        "o",
        "ver"
      ],
      [
        "Ġver",
        "ifi"
      ],
      [
        "Ġorganiz",
        "ar"
      ],
      [
        "Ġequi",
        "pa"
      ],
      [
        "Ġoper",
        "aÃ§Ã£o"
      ],
      [
        "si",
        "bilidade"
      ],
      [
        "Ġdo",
        "is"
      ],
      [
        "Ġrela",
        "tÃ³rios"
      ],
      [
        "Ġcons",
        "ciente"
      ],
      [
        "Ġs",
        "Ã³"
      ],
      [
        "Ġatuali",
        "zar"
      ],
      [
        "Ġotimi",
        "zar"
      ],
      [
        "Ġrecuper",
        "ar"
      ],
      [
        "Ġequipa",
        "mentos"
      ],
      [
        "Ġcorri",
        "gir"
      ],
      [
        "Ġplanej",
        "ar"
      ],
      [
        "Ġautomati",
        "zar"
      ],
      [
        "Ġinsta",
        "lar"
      ],
      [
        "Ã³gi",
        "ca"
      ],
      [
        "a",
        "c"
      ],
      [
        "n",
        "as"
      ],
      [
        "Ġverifi",
        "car"
      ],
      [
        "Ġanalis",
        "ar"
      ],
      [
        "ĠI",
        "s"
      ],
      [
        "n",
        "do"
      ],
      [
        "b",
        "e"
      ],
      [
        "Ġco",
        "is"
      ],
      [
        "cenÃ§",
        "as"
      ],
      [
        "es",
        "trutura"
      ],
      [
        "Ã³ri",
        "a"
      ],
      [
        "over",
        "na"
      ],
      [
        "ÃŃ",
        "dia"
      ],
      [
        "Ã§",
        "a"
      ],
      [
        "ĠeletrÃ´",
        "nico"
      ],
      [
        "Ġfi",
        "o"
      ],
      [
        "ra",
        "estrutura"
      ],
      [
        "ĠmÃ³",
        "veis"
      ],
      [
        "a",
        "ces"
      ],
      [
        "Ã¡ve",
        "is"
      ],
      [
        "Ġcontrol",
        "ar"
      ],
      [
        "Ġcois",
        "as"
      ],
      [
        "Ã©r",
        "cio"
      ],
      [
        "ĠfÃŃsi",
        "cas"
      ],
      [
        "Ġconec",
        "tar"
      ],
      [
        "Ġprote",
        "ger"
      ],
      [
        "Ġmonitor",
        "ar"
      ],
      [
        "v",
        "es"
      ],
      [
        "Ġcompartilh",
        "ar"
      ],
      [
        "Ġes",
        "trutura"
      ],
      [
        "Ġnavega",
        "Ã§Ã£o"
      ],
      [
        "Ġmem",
        "Ã³ria"
      ],
      [
        "overna",
        "nÃ§a"
      ],
      [
        "ĠeletrÃ´",
        "nicas"
      ],
      [
        "ces",
        "sibilidade"
      ],
      [
        "ul",
        "tim"
      ],
      [
        "ultim",
        "ÃŃdia"
      ],
      [
        "Ġter",
        "minal"
      ],
      [
        "Ġdocumen",
        "tar"
      ],
      [
        "Ġconfigu",
        "rar"
      ],
      [
        "ustenta",
        "bilidade"
      ],
      [
        "Ġtes",
        "tes"
      ],
      [
        "Ġcon",
        "f"
      ],
      [
        "Ġproces",
        "sa"
      ],
      [
        "Ġfun",
        "Ã§Ãµes"
      ],
      [
        "us",
        "ca"
      ],
      [
        "ĠvÃŃ",
        "r"
      ],
      [
        "Ã",
        "¢"
      ],
      [
        "Ġmode",
        "los"
      ],
      [
        "Ġou",
        "tros"
      ],
      [
        "Ġentra",
        "da"
      ],
      [
        "Ġb",
        "usca"
      ],
      [
        "ÃŃni",
        "o"
      ],
      [
        "ĠA",
        "n"
      ],
      [
        "tru",
        "Ã§Ã£o"
      ],
      [
        "ĠIs",
        "so"
      ],
      [
        "Ġli",
        "v"
      ],
      [
        "Ġtex",
        "tua"
      ],
      [
        "or",
        "Ã§a"
      ],
      [
        "Ġpro",
        "duz"
      ],
      [
        "Ġcon",
        "t"
      ],
      [
        "Ġas",
        "si"
      ],
      [
        "Ġl",
        "Ã³gica"
      ],
      [
        "Ġprimei",
        "ra"
      ],
      [
        "ĠEs",
        "sa"
      ],
      [
        "Ġv",
        "o"
      ],
      [
        "la",
        "res"
      ],
      [
        "ti",
        "vas"
      ],
      [
        "Ġpo",
        "l"
      ],
      [
        "Ġpo",
        "n"
      ],
      [
        "Ġtra",
        "ns"
      ],
      [
        "Ġref",
        "orÃ§a"
      ],
      [
        "tua",
        "Ã§Ã£o"
      ],
      [
        "Ġv",
        "al"
      ],
      [
        "e",
        "t"
      ],
      [
        "Ġli",
        "ga"
      ],
      [
        "Ġalgorit",
        "mos"
      ],
      [
        "Ġdom",
        "ÃŃnio"
      ],
      [
        "is",
        "tas"
      ],
      [
        "Ġdo",
        "s"
      ],
      [
        "na",
        "mento"
      ],
      [
        "ÃŃ",
        "tica"
      ],
      [
        "Ġlingua",
        "gens"
      ],
      [
        "Ġlei",
        "tor"
      ],
      [
        "Ġf",
        "orte"
      ],
      [
        "Ġc",
        "er"
      ],
      [
        "Ġre",
        "g"
      ],
      [
        "fi",
        "ca"
      ],
      [
        "per",
        "i"
      ],
      [
        "d",
        "ro"
      ],
      [
        "Ġpro",
        "pri"
      ],
      [
        "Ġqu",
        "em"
      ],
      [
        "Ġb",
        "an"
      ],
      [
        "Ġcont",
        "ÃŃn"
      ],
      [
        "i",
        "d"
      ],
      [
        "a",
        "dos"
      ],
      [
        "o",
        "res"
      ],
      [
        "Ġproduz",
        "ir"
      ],
      [
        "ÃŃn",
        "gua"
      ],
      [
        "9",
        "9"
      ],
      [
        "Ġ1",
        "0"
      ],
      [
        "Ġl",
        "ÃŃngua"
      ],
      [
        "Ġlingua",
        "gem"
      ],
      [
        "Ġe",
        "fe"
      ],
      [
        "Ġc",
        "Ã©"
      ],
      [
        "in",
        "do"
      ],
      [
        "u",
        "x"
      ],
      [
        "Ġvari",
        "Ã¡veis"
      ],
      [
        "ĠcontÃŃn",
        "ua"
      ],
      [
        "Ġcons",
        "truÃ§Ã£o"
      ],
      [
        "Ġprogra",
        "maÃ§Ã£o"
      ],
      [
        "Ġauto",
        "mÃ¡tica"
      ],
      [
        "da",
        "dos"
      ],
      [
        "ci",
        "entes"
      ],
      [
        "sti",
        "co"
      ],
      [
        "m",
        "es"
      ],
      [
        "ĠL",
        "in"
      ],
      [
        "2",
        "0"
      ],
      [
        "7",
        "5"
      ],
      [
        "Ġco",
        "le"
      ],
      [
        "dro",
        "id"
      ],
      [
        "Ġcon",
        "su"
      ],
      [
        "Ġt",
        "ro"
      ],
      [
        "Ã³",
        "r"
      ],
      [
        "Ġprincipal",
        "mente"
      ],
      [
        "ĠAn",
        "droid"
      ],
      [
        "Ġpol",
        "ÃŃtica"
      ],
      [
        "Ġf",
        "erramentas"
      ],
      [
        "k",
        "s"
      ],
      [
        "ci",
        "c"
      ],
      [
        "7",
        "1"
      ],
      [
        "p",
        "Ã§Ã£o"
      ],
      [
        "ĠU",
        "ma"
      ],
      [
        "Ġlin",
        "has"
      ],
      [
        "4",
        "3"
      ],
      [
        "es",
        "tÃ£o"
      ],
      [
        "Ġcui",
        "dados"
      ],
      [
        "2",
        "3"
      ],
      [
        "8",
        "3"
      ],
      [
        "Ã",
        "£"
      ],
      [
        "Ġaparece",
        "m"
      ],
      [
        "Ġh",
        "is"
      ],
      [
        "Ġf",
        "lu"
      ],
      [
        "Ġpessoa",
        "is"
      ],
      [
        "Ġexp",
        "lica"
      ],
      [
        "Ġe",
        "ven"
      ],
      [
        "to",
        "co"
      ],
      [
        "ac",
        "k"
      ],
      [
        "6",
        "3"
      ],
      [
        "Ġcon",
        "tra"
      ],
      [
        "la",
        "v"
      ],
      [
        "Co",
        "mp"
      ],
      [
        "Ġprodu",
        "Ã§Ã£o"
      ],
      [
        "ĠcÃ©",
        "lu"
      ],
      [
        "Ġreg",
        "is"
      ],
      [
        "Ġescolh",
        "as"
      ],
      [
        "Ġpon",
        "tuaÃ§Ã£o"
      ],
      [
        "Ġex",
        "ten"
      ],
      [
        "Ġqu",
        "er"
      ],
      [
        "Ġefe",
        "ito"
      ],
      [
        "Ġ",
        "junto"
      ],
      [
        "or",
        "aÃ§Ã£o"
      ],
      [
        "Ġ",
        "vida"
      ],
      [
        "Ġpassa",
        "gem"
      ],
      [
        "Ġde",
        "la"
      ],
      [
        "Ġex",
        "peri"
      ],
      [
        "ncia",
        "l"
      ],
      [
        "iste",
        "mas"
      ],
      [
        "Ġforma",
        "r"
      ],
      [
        "Ġfo",
        "co"
      ],
      [
        "E",
        "stu"
      ],
      [
        "âĢĿ",
        ","
      ],
      [
        "Ġ",
        "j"
      ],
      [
        "Ġestu",
        "dado"
      ],
      [
        "Ġorganiz",
        "ado"
      ],
      [
        "Ġcuidado",
        "sa"
      ],
      [
        "Ġhis",
        "tÃ³ri"
      ],
      [
        "Ġservi",
        "r"
      ],
      [
        "Ġperce",
        "pÃ§Ã£o"
      ],
      [
        "Ġmode",
        "lo"
      ],
      [
        "Estu",
        "dar"
      ],
      [
        "Ġpro",
        "toco"
      ],
      [
        "s",
        "ora"
      ],
      [
        "Ġt",
        "re"
      ],
      [
        "Ġtrabalh",
        "am"
      ],
      [
        "Ġparti",
        "da"
      ],
      [
        "Ġ1",
        "6"
      ],
      [
        "Ġdocumen",
        "tos"
      ],
      [
        "O",
        "S"
      ],
      [
        "Ã¡",
        "gi"
      ],
      [
        "Ġobserva",
        "mos"
      ],
      [
        "Ġliga",
        "do"
      ],
      [
        "Ġp",
        "istas"
      ],
      [
        "Ġcon",
        "junto"
      ],
      [
        "la",
        "gem"
      ],
      [
        "Ġta",
        "be"
      ],
      [
        "Ġfi",
        "l"
      ],
      [
        "Re",
        "conhecer"
      ],
      [
        "t",
        "Ãµes"
      ],
      [
        "u",
        "se"
      ],
      [
        "Ġcons",
        "cientes"
      ],
      [
        "Ġliv",
        "re"
      ],
      [
        "ĠautomÃ¡tica",
        "s"
      ],
      [
        "Comp",
        "reender"
      ],
      [
        "Ġpa",
        "lav"
      ],
      [
        "Ġ",
        "ras"
      ],
      [
        "Ġfi",
        "nal"
      ],
      [
        "de",
        "o"
      ],
      [
        "Ġ4",
        "0"
      ],
      [
        "h",
        "es"
      ],
      [
        "w",
        "s"
      ],
      [
        "8",
        "5"
      ],
      [
        "Ġsi",
        "nal"
      ],
      [
        "8",
        "1"
      ],
      [
        "Ġ3",
        "6"
      ],
      [
        "Ġban",
        "cos"
      ],
      [
        "9",
        "5"
      ],
      [
        "Ġf",
        "Ã³r"
      ],
      [
        "Re",
        "des"
      ],
      [
        "2",
        "1"
      ],
      [
        "9",
        "1"
      ],
      [
        "2",
        "5"
      ],
      [
        "7",
        "0"
      ],
      [
        "Ġres",
        "pe"
      ],
      [
        "ca",
        "m"
      ],
      [
        "Ġprote",
        "Ã§Ã£o"
      ],
      [
        "m",
        "ul"
      ],
      [
        "Ġ4",
        "4"
      ],
      [
        "Ġprotoco",
        "los"
      ],
      [
        "g",
        "ri"
      ],
      [
        "ven",
        "Ã§Ã£o"
      ],
      [
        "Ġeven",
        "tos"
      ],
      [
        "ĠcÃ©lu",
        "las"
      ],
      [
        "so",
        "res"
      ],
      [
        "Ġb",
        "ra"
      ],
      [
        "iste",
        "ntes"
      ],
      [
        "Ġrespe",
        "ito"
      ],
      [
        "c",
        "s"
      ],
      [
        "ĠvÃŃ",
        "deo"
      ],
      [
        "ĠpolÃŃtica",
        "s"
      ],
      [
        "P",
        "S"
      ],
      [
        "c",
        "er"
      ],
      [
        "Ġcon",
        "tras"
      ],
      [
        "po",
        "ni"
      ],
      [
        "Ġcha",
        "ves"
      ],
      [
        "Ġprocessa",
        "dor"
      ],
      [
        "Ġa",
        "ne"
      ],
      [
        "7",
        "3"
      ],
      [
        "Ġinte",
        "ligÃªncia"
      ],
      [
        "Ġrequisi",
        "tos"
      ],
      [
        "si",
        "vidade"
      ],
      [
        "niz",
        "aÃ§Ã£o"
      ],
      [
        "Ġcontras",
        "te"
      ],
      [
        "si",
        "m"
      ],
      [
        "Ġg",
        "estÃ£o"
      ],
      [
        "Ġdis",
        "poni"
      ],
      [
        "Ġrespon",
        "sa"
      ],
      [
        "Ġedi",
        "Ã§Ã£o"
      ],
      [
        "Ġp",
        "Ã¡gi"
      ],
      [
        "da",
        "mentos"
      ],
      [
        "Ġimp",
        "res"
      ],
      [
        "Ġconec",
        "tados"
      ],
      [
        "Ġca",
        "ix"
      ],
      [
        "Ġno",
        "mes"
      ],
      [
        "indo",
        "ws"
      ],
      [
        "ĠW",
        "indows"
      ],
      [
        "gri",
        "dade"
      ],
      [
        "m",
        "Ã£"
      ],
      [
        "Ġb",
        "ack"
      ],
      [
        "Ġt",
        "Ã³pi"
      ],
      [
        "Ġatuali",
        "zaÃ§Ã£o"
      ],
      [
        "ĠH",
        "T"
      ],
      [
        "Ġcole",
        "ta"
      ],
      [
        "Ġexperi",
        "Ãªncia"
      ],
      [
        "Ġrecuper",
        "aÃ§Ã£o"
      ],
      [
        "Ġtro",
        "ca"
      ],
      [
        "ar",
        "Ãªncia"
      ],
      [
        "Ġinte",
        "gridade"
      ],
      [
        "ĠLin",
        "ux"
      ],
      [
        "ĠpÃ¡gi",
        "nas"
      ],
      [
        "ĠI",
        "P"
      ],
      [
        "Ġcab",
        "eÃ§"
      ],
      [
        "e",
        "za"
      ],
      [
        "Ġconsu",
        "mo"
      ],
      [
        "Ġresponsa",
        "bilidade"
      ],
      [
        "lab",
        "oraÃ§Ã£o"
      ],
      [
        "ĠAs",
        "sim"
      ],
      [
        "ĠvÃŃr",
        "us"
      ],
      [
        "Ġtabe",
        "las"
      ],
      [
        "Ġpla",
        "ca"
      ],
      [
        "ĠhistÃ³ri",
        "co"
      ],
      [
        "Ġsi",
        "tes"
      ],
      [
        "Ġdes",
        "car"
      ],
      [
        "Ġcelu",
        "lares"
      ],
      [
        "gn",
        "Ã³"
      ],
      [
        "Ġmelhor",
        "ia"
      ],
      [
        "Ġregis",
        "tros"
      ],
      [
        "Ġes",
        "til"
      ],
      [
        "Ġsu",
        "p"
      ],
      [
        "Ġflu",
        "xos"
      ],
      [
        "gnÃ³",
        "stico"
      ],
      [
        "Ġsen",
        "sores"
      ],
      [
        "Ġpropri",
        "et"
      ],
      [
        "o",
        "n"
      ],
      [
        "Ġdia",
        "gnÃ³stico"
      ],
      [
        "Ġinclu",
        "sÃ£o"
      ],
      [
        "Ġpa",
        "ga"
      ],
      [
        "Ġ5",
        "0"
      ],
      [
        "Ġvirtua",
        "is"
      ],
      [
        "Ġcab",
        "os"
      ],
      [
        "Ġcer",
        "tifica"
      ],
      [
        "ĠtÃ³pi",
        "cos"
      ],
      [
        "Ġestil",
        "os"
      ],
      [
        "Ġsi",
        "gi"
      ],
      [
        "na",
        "tura"
      ],
      [
        "Ġta",
        "ble"
      ],
      [
        "Ġras",
        "tre"
      ],
      [
        "er",
        "tas"
      ],
      [
        "Ġforma",
        "tos"
      ],
      [
        "Ġli",
        "mp"
      ],
      [
        "nc",
        "ro"
      ],
      [
        "Ġassi",
        "natura"
      ],
      [
        "Ġdisponi",
        "bilidade"
      ],
      [
        "Ġpropriet",
        "Ã¡rio"
      ],
      [
        "Ġtable",
        "ts"
      ],
      [
        "S",
        "istemas"
      ],
      [
        "Ġsi",
        "ncro"
      ],
      [
        "Ġte",
        "la"
      ],
      [
        "Ġtec",
        "lado"
      ],
      [
        "ĠfÃ³r",
        "mul"
      ],
      [
        "ĠHT",
        "T"
      ],
      [
        "Ġsigi",
        "lo"
      ],
      [
        "ĠfÃ³rmul",
        "as"
      ],
      [
        "Ġco",
        "laboraÃ§Ã£o"
      ],
      [
        "ĠA",
        "l"
      ],
      [
        "Ġdire",
        "tÃ³rios"
      ],
      [
        "Ġusa",
        "bilidade"
      ],
      [
        "Ġlin",
        "ks"
      ],
      [
        "Ġexp",
        "orta"
      ],
      [
        "Ġexten",
        "sÃµes"
      ],
      [
        "de",
        "re"
      ],
      [
        "Ġ1",
        "4"
      ],
      [
        "Ġass",
        "istentes"
      ],
      [
        "mi",
        "ts"
      ],
      [
        "Ġfil",
        "tros"
      ],
      [
        "Ġback",
        "up"
      ],
      [
        "Ġlimp",
        "eza"
      ],
      [
        "Ġsincro",
        "nizaÃ§Ã£o"
      ],
      [
        "Ġexporta",
        "Ã§Ã£o"
      ],
      [
        "Ġp",
        "os"
      ],
      [
        "Ġma",
        "c"
      ],
      [
        "Ġap",
        "arÃªncia"
      ],
      [
        "Ġc",
        "Ã³pi"
      ],
      [
        "Ġpre",
        "venÃ§Ã£o"
      ],
      [
        "Pro",
        "gra"
      ],
      [
        "rin",
        "ho"
      ],
      [
        "mÃ£",
        "e"
      ],
      [
        "ĠcÃ³pi",
        "as"
      ],
      [
        "Ġco",
        "de"
      ],
      [
        "Ġre",
        "side"
      ],
      [
        "Ġloj",
        "as"
      ],
      [
        "Ġcoman",
        "do"
      ],
      [
        "Ġforma",
        "taÃ§Ã£o"
      ],
      [
        "Ġweb",
        "cam"
      ],
      [
        "Inter",
        "net"
      ],
      [
        "Ġbra",
        "nc"
      ],
      [
        "Ġcertifica",
        "dos"
      ],
      [
        "ĠHTT",
        "PS"
      ],
      [
        "li",
        "des"
      ],
      [
        "Ġcom",
        "mits"
      ],
      [
        "Ġno",
        "tifica"
      ],
      [
        "Ġmo",
        "use"
      ],
      [
        "gen",
        "das"
      ],
      [
        "Ġle",
        "gendas"
      ],
      [
        "Ġrepeti",
        "tivas"
      ],
      [
        "Ġlei",
        "tores"
      ],
      [
        "Ġrespon",
        "sividade"
      ],
      [
        "Ġinterf",
        "erÃªncia"
      ],
      [
        "sio",
        "namento"
      ],
      [
        "cic",
        "lagem"
      ],
      [
        "Ġane",
        "xos"
      ],
      [
        "ĠcabeÃ§",
        "alh"
      ],
      [
        "Ġdescar",
        "te"
      ],
      [
        "Ġpaga",
        "mentos"
      ],
      [
        "Ġrastre",
        "amento"
      ],
      [
        "Ġbackup",
        "s"
      ],
      [
        "Ġmac",
        "OS"
      ],
      [
        "Ġreside",
        "ncial"
      ],
      [
        "1",
        "3"
      ],
      [
        "5",
        "3"
      ],
      [
        "Ġa",
        "gen"
      ],
      [
        "Ġs",
        "lides"
      ],
      [
        "ta",
        "nte"
      ],
      [
        "Ġre",
        "ciclagem"
      ],
      [
        "Ġal",
        "ertas"
      ],
      [
        "Ġen",
        "dere"
      ],
      [
        "Ġver",
        "sionamento"
      ],
      [
        "Ġrequisi",
        "Ã§Ãµes"
      ],
      [
        "Ġbo",
        "tÃµes"
      ],
      [
        "Ġmen",
        "us"
      ],
      [
        "Ġcar",
        "rinho"
      ],
      [
        "Ġbusca",
        "dores"
      ],
      [
        "Ġimpres",
        "sora"
      ],
      [
        "Ġcaix",
        "as"
      ],
      [
        "Ġcode",
        "cs"
      ],
      [
        "Ġbranc",
        "hes"
      ],
      [
        "Ġnotifica",
        "Ã§Ãµes"
      ],
      [
        "ĠcabeÃ§alh",
        "os"
      ],
      [
        "Ġagen",
        "damentos"
      ],
      [
        "Ġendere",
        "Ã§os"
      ],
      [
        "Ġ",
        "\""
      ],
      [
        "Ġ2",
        "6"
      ],
      [
        "Ġ3",
        "4"
      ],
      [
        "Ġ",
        "B"
      ],
      [
        "9",
        "3"
      ],
      [
        "8",
        "0"
      ],
      [
        "Ġde",
        "si"
      ],
      [
        "3",
        "3"
      ],
      [
        "te",
        "r"
      ],
      [
        "la",
        "re"
      ],
      [
        "s",
        "as"
      ],
      [
        "Ġc",
        "lare"
      ],
      [
        "9",
        "0"
      ],
      [
        "Ġ",
        "G"
      ],
      [
        "Ġcon",
        "tro"
      ],
      [
        "8",
        "6"
      ],
      [
        "ĠÃ",
        "ł"
      ],
      [
        "Ġpalav",
        "ras"
      ],
      [
        "tri",
        "b"
      ],
      [
        "7",
        "4"
      ],
      [
        "Ġcontro",
        "le"
      ],
      [
        "2",
        "6"
      ],
      [
        "Ġcri",
        "ptografia"
      ],
      [
        "u",
        "r"
      ],
      [
        "Ġtrans",
        "forma"
      ],
      [
        "ĠÃ©",
        "tica"
      ],
      [
        "fi",
        "ni"
      ],
      [
        "Ġsup",
        "orte"
      ],
      [
        "Ġa",
        "mpl"
      ],
      [
        "Ġ1",
        "3"
      ],
      [
        "Ġ1",
        "2"
      ],
      [
        "Ġ2",
        "5"
      ],
      [
        "Ġ1",
        "7"
      ],
      [
        "Ġ2",
        "1"
      ],
      [
        "Ġs",
        "a"
      ],
      [
        "Ġn",
        "orma"
      ],
      [
        "Ġ4",
        "5"
      ],
      [
        "Ġ3",
        "2"
      ],
      [
        "Ġdesi",
        "gn"
      ],
      [
        "Ġ2",
        "8"
      ],
      [
        "Ġ3",
        "3"
      ],
      [
        "Ġ2",
        "9"
      ],
      [
        "Ġ4",
        "1"
      ],
      [
        "g",
        "e"
      ],
      [
        "u",
        "ra"
      ],
      [
        "Ġ3",
        "7"
      ],
      [
        "Ġ4",
        "8"
      ],
      [
        "Ãª",
        "n"
      ],
      [
        "9",
        "4"
      ],
      [
        "Ġli",
        "cenÃ§as"
      ],
      [
        "Ġ1",
        "1"
      ],
      [
        "Ġa",
        "d"
      ],
      [
        "6",
        "5"
      ],
      [
        "Ġinf",
        "raestrutura"
      ],
      [
        "Ġ1",
        "8"
      ],
      [
        "6",
        "1"
      ],
      [
        "Ġprodu",
        "tividade"
      ],
      [
        "Ġf",
        "re"
      ],
      [
        "Ġ1",
        "5"
      ],
      [
        "Ġcom",
        "Ã©rcio"
      ],
      [
        "Ġbo",
        "a"
      ],
      [
        "Ġinterf",
        "aces"
      ],
      [
        "Ġ2",
        "3"
      ],
      [
        "4",
        "5"
      ],
      [
        "Ġcoman",
        "dos"
      ],
      [
        "7",
        "8"
      ],
      [
        "Ġg",
        "overnanÃ§a"
      ],
      [
        "4",
        "1"
      ],
      [
        "Ġm",
        "ultimÃŃdia"
      ],
      [
        "Ġava",
        "li"
      ],
      [
        "Ġa",
        "cessibilidade"
      ],
      [
        "Ġ3",
        "5"
      ],
      [
        "Ġlo",
        "gs"
      ],
      [
        "Ġs",
        "ustentabilidade"
      ],
      [
        "Ġ3",
        "1"
      ],
      [
        "Ġ2",
        "2"
      ],
      [
        "Ġ3",
        "8"
      ],
      [
        "Ġ3",
        "9"
      ],
      [
        "Ġ4",
        "7"
      ],
      [
        "Ġde",
        "fini"
      ],
      [
        "tri",
        "z"
      ],
      [
        "Ġsu",
        "b"
      ],
      [
        "2",
        "2"
      ],
      [
        "6",
        "0"
      ],
      [
        "Ġampl",
        "ia"
      ],
      [
        "b",
        "a"
      ],
      [
        "n",
        "o"
      ],
      [
        "9",
        "8"
      ],
      [
        "Ġo",
        "ri"
      ],
      [
        "4",
        "0"
      ],
      [
        "ve",
        "l"
      ],
      [
        ")",
        "."
      ],
      [
        "4",
        "6"
      ],
      [
        "trib",
        "ui"
      ],
      [
        "ĠAl",
        "Ã©m"
      ],
      [
        "Ã´",
        "ni"
      ],
      [
        "men",
        "ta"
      ],
      [
        "or",
        "ia"
      ],
      [
        "Ġtextua",
        "l"
      ],
      [
        "Ġma",
        "triz"
      ],
      [
        "Ġvo",
        "ca"
      ],
      [
        "i",
        "as"
      ],
      [
        "a",
        "da"
      ],
      [
        "ÃŃ",
        "stica"
      ],
      [
        "2",
        "7"
      ],
      [
        "Ġescolh",
        "a"
      ],
      [
        "ÃŃ",
        "vel"
      ],
      [
        "6",
        "6"
      ],
      [
        "Ã¡ri",
        "a"
      ],
      [
        "5",
        "1"
      ],
      [
        "u",
        "la"
      ],
      [
        "Ġvari",
        "aÃ§Ã£o"
      ],
      [
        "ua",
        "s"
      ],
      [
        "Ġc",
        "res"
      ],
      [
        "Ġou",
        "tro"
      ],
      [
        "Ġde",
        "ix"
      ],
      [
        "Ġmensa",
        "gem"
      ],
      [
        "Ġre",
        "es"
      ],
      [
        "Ġ",
        "ti"
      ],
      [
        "Ġide",
        "ia"
      ],
      [
        "a",
        "li"
      ],
      [
        "Ġ",
        "R"
      ],
      [
        "Ġpro",
        "f"
      ],
      [
        "Ġcon",
        "ver"
      ],
      [
        "Ġregra",
        "s"
      ],
      [
        "Ġor",
        "tografia"
      ],
      [
        "Ġco",
        "erÃªncia"
      ],
      [
        "es",
        "Ã£o"
      ],
      [
        "Ġca",
        "l"
      ],
      [
        "Ġrees",
        "crita"
      ],
      [
        ")",
        ","
      ],
      [
        "Ġide",
        "ias"
      ],
      [
        "Ġp",
        "arece"
      ],
      [
        "Ġar",
        "gu"
      ],
      [
        "Ġconf",
        "us"
      ],
      [
        "Ġco",
        "esÃ£o"
      ],
      [
        "ar",
        "ra"
      ],
      [
        "5",
        "0"
      ],
      [
        "Ġdis",
        "tribui"
      ],
      [
        "7",
        "9"
      ],
      [
        "Ġm",
        "Ã¡"
      ],
      [
        "Ġal",
        "un"
      ],
      [
        "Ġcri",
        "a"
      ],
      [
        "ta",
        "lh"
      ],
      [
        "Ġcons",
        "tante"
      ],
      [
        "un",
        "tas"
      ],
      [
        "Ġcor",
        "re"
      ],
      [
        "Ġ",
        "ci"
      ],
      [
        "Ġcompl",
        "e"
      ],
      [
        "Ġde",
        "talh"
      ],
      [
        "Ġgra",
        "mÃ¡tica"
      ],
      [
        "Ġn",
        "e"
      ],
      [
        "Ġval",
        "or"
      ],
      [
        "Ġp",
        "are"
      ],
      [
        "ti",
        "vo"
      ],
      [
        "Ġn",
        "arra"
      ],
      [
        "Ġalun",
        "o"
      ],
      [
        "1",
        "1"
      ],
      [
        "7",
        "6"
      ],
      [
        "2",
        "4"
      ],
      [
        "9",
        "6"
      ],
      [
        "Ġ",
        "lado"
      ],
      [
        "in",
        "o"
      ],
      [
        "Ġb",
        "i"
      ],
      [
        "Ġfre",
        "quÃªncia"
      ],
      [
        "Ġrecur",
        "so"
      ],
      [
        "Ġvar",
        "ia"
      ],
      [
        "2",
        "8"
      ],
      [
        "Ġes",
        "ta"
      ],
      [
        "ciona",
        "l"
      ],
      [
        "b",
        "ul"
      ],
      [
        "u",
        "sa"
      ],
      [
        "4",
        "8"
      ],
      [
        "Ġdetalh",
        "es"
      ],
      [
        "bul",
        "Ã¡rio"
      ],
      [
        "ĠI",
        "A"
      ],
      [
        "Ġqua",
        "l"
      ],
      [
        "Ġvoca",
        "bulÃ¡rio"
      ],
      [
        "Ġmelh",
        "ores"
      ],
      [
        "n",
        "de"
      ],
      [
        "p",
        "ara"
      ],
      [
        "Ġa",
        "co"
      ],
      [
        "Ġg",
        "Ãªn"
      ],
      [
        "ĠgÃªn",
        "er"
      ],
      [
        "ti",
        "va"
      ],
      [
        "qu",
        "er"
      ],
      [
        "ÃŃ",
        "ci"
      ],
      [
        "Ġtre",
        "i"
      ],
      [
        "Ġconver",
        "sas"
      ],
      [
        "4",
        "4"
      ],
      [
        "Ã¢",
        "ncia"
      ],
      [
        "Ġclare",
        "za"
      ],
      [
        "5",
        "5"
      ],
      [
        "n",
        "f"
      ],
      [
        "Ġdire",
        "tas"
      ],
      [
        "e",
        "gu"
      ],
      [
        "Ġpare",
        "cer"
      ],
      [
        "Ġtextua",
        "is"
      ],
      [
        "Ġc",
        "ur"
      ],
      [
        "ĠgÃªner",
        "os"
      ],
      [
        "Ġdeix",
        "a"
      ],
      [
        "D",
        "ados"
      ],
      [
        "6",
        "8"
      ],
      [
        "l",
        "es"
      ],
      [
        "Ġte",
        "oria"
      ],
      [
        "ni",
        "fica"
      ],
      [
        "j",
        "a"
      ],
      [
        "Ġconfus",
        "as"
      ],
      [
        "ti",
        "li"
      ],
      [
        "Ġm",
        "es"
      ],
      [
        "Ġsol",
        "tas"
      ],
      [
        "ĠhÃ¡bi",
        "tos"
      ],
      [
        "ĠD",
        "es"
      ],
      [
        "egu",
        "ranÃ§a"
      ],
      [
        "A",
        "r"
      ],
      [
        "t",
        "Ã¡"
      ],
      [
        "g",
        "ar"
      ],
      [
        "Ã",
        "ī"
      ],
      [
        "Ġre",
        "ve"
      ],
      [
        "Ġnorma",
        "l"
      ],
      [
        "Ġdi",
        "Ã¡ria"
      ],
      [
        "ĠmÃ¡",
        "qui"
      ],
      [
        "Ġma",
        "i"
      ],
      [
        "L",
        "i"
      ],
      [
        "6",
        "4"
      ],
      [
        "Ġmo",
        "do"
      ],
      [
        "n",
        "ar"
      ],
      [
        "ri",
        "t"
      ],
      [
        "Ġve",
        "tor"
      ],
      [
        "Q",
        "ua"
      ],
      [
        "Ã§",
        "o"
      ],
      [
        "Ã¡tica",
        "s"
      ],
      [
        "Ġap",
        "ro"
      ],
      [
        "C",
        "om"
      ],
      [
        "A",
        "p"
      ],
      [
        "ri",
        "ptografia"
      ],
      [
        "Ãī",
        "tica"
      ],
      [
        "ri",
        "vacidade"
      ],
      [
        "du",
        "tividade"
      ],
      [
        "P",
        "er"
      ],
      [
        "L",
        "o"
      ],
      [
        "i",
        "gn"
      ],
      [
        "ntro",
        "le"
      ],
      [
        "D",
        "es"
      ],
      [
        "Ġorganiz",
        "a"
      ],
      [
        "is",
        "positivos"
      ],
      [
        "Qua",
        "lidade"
      ],
      [
        "Ġaplica",
        "Ã§Ã£o"
      ],
      [
        "an",
        "utenÃ§Ã£o"
      ],
      [
        "Inte",
        "ligÃªncia"
      ],
      [
        "Progra",
        "maÃ§Ã£o"
      ],
      [
        "P",
        "rivacidade"
      ],
      [
        "le",
        "ce"
      ],
      [
        "up",
        "orte"
      ],
      [
        "I",
        "nf"
      ],
      [
        "r",
        "Ã¡ticas"
      ],
      [
        "Ġu",
        "tili"
      ],
      [
        "Ġori",
        "enta"
      ],
      [
        "A",
        "uto"
      ],
      [
        "A",
        "PIs"
      ],
      [
        "C",
        "riptografia"
      ],
      [
        "S",
        "eguranÃ§a"
      ],
      [
        "f",
        "aces"
      ],
      [
        "Li",
        "cenÃ§as"
      ],
      [
        "Lo",
        "gs"
      ],
      [
        "A",
        "cessibilidade"
      ],
      [
        "D",
        "ispositivos"
      ],
      [
        "E",
        "di"
      ],
      [
        "G",
        "overnanÃ§a"
      ],
      [
        "M",
        "ultimÃŃdia"
      ],
      [
        "M",
        "anutenÃ§Ã£o"
      ],
      [
        "P",
        "la"
      ],
      [
        "P",
        "eÃ§as"
      ],
      [
        "P",
        "rÃ¡ticas"
      ],
      [
        "S",
        "ustentabilidade"
      ],
      [
        "S",
        "uporte"
      ],
      [
        "man",
        "dos"
      ],
      [
        "Co",
        "ntrole"
      ],
      [
        "Co",
        "mandos"
      ],
      [
        "Pro",
        "dutividade"
      ],
      [
        "Inter",
        "faces"
      ],
      [
        "Progra",
        "mas"
      ],
      [
        "Ar",
        "quivos"
      ],
      [
        "Com",
        "Ã©rcio"
      ],
      [
        "Ap",
        "resentaÃ§Ãµes"
      ],
      [
        "Per",
        "ifÃ©ricos"
      ],
      [
        "Des",
        "ign"
      ],
      [
        "Inf",
        "raestrutura"
      ],
      [
        "Auto",
        "maÃ§Ã£o"
      ],
      [
        "Edi",
        "tores"
      ],
      [
        "Pla",
        "nilhas"
      ],
      [
        "Ġescre",
        "ve"
      ],
      [
        "Ġreve",
        "lar"
      ],
      [
        "3",
        "6"
      ],
      [
        "qu",
        "e"
      ],
      [
        "8",
        "8"
      ],
      [
        "co",
        "u"
      ],
      [
        "Ġvaria",
        "dos"
      ],
      [
        "Ġs",
        "ua"
      ],
      [
        "o",
        "u"
      ],
      [
        "ĠT",
        "u"
      ],
      [
        "rin",
        "g"
      ],
      [
        "Ġm",
        "Ã©"
      ],
      [
        "Ġaten",
        "ta"
      ],
      [
        "is",
        "sio"
      ],
      [
        "Ġh",
        "u"
      ],
      [
        "Ġ",
        "V"
      ],
      [
        "Ġre",
        "da"
      ],
      [
        "Ġd",
        "uas"
      ],
      [
        "Ġprof",
        "issio"
      ],
      [
        "Ġ",
        ","
      ],
      [
        "Ġdesen",
        "volve"
      ],
      [
        "Ġdistribui",
        "Ã§Ã£o"
      ],
      [
        "0",
        "0"
      ],
      [
        "Ġpre",
        "para"
      ],
      [
        "xi",
        "ma"
      ],
      [
        "Ġconf",
        "usa"
      ],
      [
        "Ġcal",
        "ma"
      ],
      [
        "Ġnarra",
        "tivos"
      ],
      [
        "Ġf",
        "orta"
      ],
      [
        "Ġforta",
        "lece"
      ],
      [
        "Ġno",
        "vo"
      ],
      [
        "ĠC",
        "o"
      ],
      [
        "Ġl",
        "er"
      ],
      [
        "Ġ",
        "J"
      ],
      [
        "Ġvis",
        "ta"
      ],
      [
        "Ġpos",
        "s"
      ],
      [
        "Ġes",
        "pa"
      ],
      [
        "Ġpro",
        "ba"
      ],
      [
        "Ġal",
        "ta"
      ],
      [
        "Ġobj",
        "e"
      ],
      [
        "ĠTu",
        "ring"
      ],
      [
        "Ġc",
        "las"
      ],
      [
        "7",
        "7"
      ],
      [
        "5",
        "6"
      ],
      [
        "8",
        "4"
      ],
      [
        "Ġpe",
        "la"
      ],
      [
        "mi",
        "na"
      ],
      [
        "Ġmes",
        "ma"
      ],
      [
        "Ġsi",
        "g"
      ],
      [
        "u",
        "m"
      ],
      [
        "ĠS",
        "e"
      ],
      [
        "1",
        "6"
      ],
      [
        "2",
        "9"
      ],
      [
        "i",
        "Ã§Ã£o"
      ],
      [
        "ti",
        "n"
      ],
      [
        "Ġcha",
        "ma"
      ],
      [
        "Ġse",
        "u"
      ],
      [
        "Ġvo",
        "z"
      ],
      [
        "t",
        "ÃŃ"
      ],
      [
        "Ġalte",
        "ra"
      ],
      [
        "Ġtre",
        "ino"
      ],
      [
        "Ġproba",
        "bilidade"
      ],
      [
        "Ġpro",
        "vas"
      ],
      [
        "ĠNes",
        "se"
      ],
      [
        "Ġf",
        "or"
      ],
      [
        "ÃŃci",
        "os"
      ],
      [
        "rit",
        "mo"
      ],
      [
        "Ġ",
        "ritmo"
      ],
      [
        "mp",
        "an"
      ],
      [
        "Ġcur",
        "tas"
      ],
      [
        "Ġa",
        "b"
      ],
      [
        "ĠI",
        "nte"
      ],
      [
        "Ġprofissio",
        "nal"
      ],
      [
        "Ġ",
        "-"
      ],
      [
        "Ġargu",
        "menta"
      ],
      [
        "9",
        "7"
      ],
      [
        "ce",
        "bi"
      ],
      [
        "c",
        "h"
      ],
      [
        "Ġpe",
        "lo"
      ],
      [
        "Ġdi",
        "f"
      ],
      [
        "Ġes",
        "pe"
      ],
      [
        "Ġto",
        "do"
      ],
      [
        "3",
        "1"
      ],
      [
        "er",
        "c"
      ],
      [
        "fi",
        "na"
      ],
      [
        "Ġex",
        "erc"
      ],
      [
        "Ġpassa",
        "m"
      ],
      [
        "7",
        "2"
      ],
      [
        "9",
        "2"
      ],
      [
        "Ġs",
        "ustenta"
      ],
      [
        "Ġsi",
        "n"
      ],
      [
        "Ġescola",
        "res"
      ],
      [
        "Ġsa",
        "la"
      ],
      [
        "Ġes",
        "tim"
      ],
      [
        "Ġli",
        "do"
      ],
      [
        "ĠDes",
        "se"
      ],
      [
        "Ġj",
        "untas"
      ],
      [
        "ura",
        "nte"
      ],
      [
        "cebi",
        "dos"
      ],
      [
        "Ġexerc",
        "ÃŃcios"
      ],
      [
        "Ġestim",
        "ula"
      ],
      [
        "er",
        "tÃ³rio"
      ],
      [
        "Ġre",
        "fina"
      ],
      [
        "Ġrep",
        "ertÃ³rio"
      ],
      [
        "Ġdes",
        "per"
      ],
      [
        "Ġcorri",
        "ge"
      ],
      [
        "ĠprÃ³",
        "pri"
      ],
      [
        "Ġexplica",
        "tivos"
      ],
      [
        "Ġclare",
        "ia"
      ],
      [
        "Ġreda",
        "Ã§Ãµes"
      ],
      [
        "Ġargumenta",
        "tivos"
      ],
      [
        "Ġdesper",
        "cebidos"
      ],
      [
        "b",
        "o"
      ],
      [
        "Ġ",
        "ra"
      ],
      [
        "Ġtrei",
        "na"
      ],
      [
        "Ġte",
        "m"
      ],
      [
        "Ġsig",
        "nifica"
      ],
      [
        "Ġa",
        "u"
      ],
      [
        "ĠP",
        "ro"
      ],
      [
        "Ġcons",
        "tr"
      ],
      [
        "Ġc",
        "he"
      ],
      [
        "Ġaco",
        "mpan"
      ],
      [
        "Ġapro",
        "xima"
      ],
      [
        "3",
        "0"
      ],
      [
        "Ġf",
        "ora"
      ],
      [
        "Ġresultado",
        "s"
      ],
      [
        "ec",
        "es"
      ],
      [
        "Ġtaref",
        "a"
      ],
      [
        "Ġon",
        "de"
      ],
      [
        "ĠmÃ¡qui",
        "na"
      ],
      [
        "Ã³",
        "di"
      ],
      [
        "Ġp",
        "es"
      ],
      [
        "Ġdif",
        "ÃŃ"
      ],
      [
        "Ġobserva",
        "Ã§Ã£o"
      ],
      [
        "Ġma",
        "te"
      ],
      [
        "Ġ8",
        "0"
      ],
      [
        "t",
        "Ã©"
      ],
      [
        "4",
        "9"
      ],
      [
        "Ġde",
        "ri"
      ],
      [
        "Ġper",
        "mi"
      ],
      [
        "Ġn",
        "eces"
      ],
      [
        "Ġfi",
        "na"
      ],
      [
        "Ġacompan",
        "ha"
      ],
      [
        "ce",
        "is"
      ],
      [
        "Ġde",
        "ter"
      ],
      [
        "Ġf",
        "e"
      ],
      [
        "Ġno",
        "minal"
      ],
      [
        "Ġforma",
        "l"
      ],
      [
        "Ġ6",
        "0"
      ],
      [
        "Ġconte",
        "x"
      ],
      [
        "gu",
        "ra"
      ],
      [
        "Ġ",
        "."
      ],
      [
        "Ã¢",
        "n"
      ],
      [
        "p",
        "ec"
      ],
      [
        "ori",
        "za"
      ],
      [
        "Ġd",
        "urante"
      ],
      [
        "ara",
        "m"
      ],
      [
        "Ã³",
        "i"
      ],
      [
        "Ġfa",
        "la"
      ],
      [
        "Ġqual",
        "quer"
      ],
      [
        "6",
        "9"
      ],
      [
        "Ġcres",
        "ce"
      ],
      [
        "1",
        "0"
      ],
      [
        "Ġm",
        "esmo"
      ],
      [
        "si",
        "dade"
      ],
      [
        "sti",
        "tu"
      ],
      [
        "3",
        "7"
      ],
      [
        "5",
        "8"
      ],
      [
        "ti",
        "p"
      ],
      [
        "Ġne",
        "ura"
      ],
      [
        "i",
        "o"
      ],
      [
        "i",
        "dade"
      ],
      [
        "v",
        "al"
      ],
      [
        "Ġconstr",
        "Ã³i"
      ],
      [
        "3",
        "2"
      ],
      [
        "Ġes",
        "tÃ¡"
      ],
      [
        "Ġsub",
        "stitu"
      ],
      [
        "Ã¡",
        "lo"
      ],
      [
        "ĠD",
        "e"
      ],
      [
        "Ġutili",
        "za"
      ],
      [
        "Ġespa",
        "Ã§o"
      ],
      [
        "5",
        "4"
      ],
      [
        "Ġre",
        "so"
      ],
      [
        "Ġna",
        "tura"
      ],
      [
        "Ġdefini",
        "da"
      ],
      [
        "Ã³di",
        "go"
      ],
      [
        "Ġfi",
        "x"
      ],
      [
        "e",
        "dade"
      ],
      [
        "Ġse",
        "ja"
      ],
      [
        "Ġval",
        "oriza"
      ],
      [
        "Ġacompanha",
        "do"
      ],
      [
        "lh",
        "a"
      ],
      [
        "Ġti",
        "po"
      ],
      [
        "Ġu",
        "ni"
      ]
    ]
  }
}